<pad>	0
<unk>	0
<s>	0
</s>	0
<sep>	0
<mask>	0
<0x00>	0
<0x01>	0
<0x02>	0
<0x03>	0
<0x04>	0
<0x05>	0
<0x06>	0
<0x07>	0
<0x08>	0
<0x09>	0
<0x0A>	0
<0x0B>	0
<0x0C>	0
<0x0D>	0
<0x0E>	0
<0x0F>	0
<0x10>	0
<0x11>	0
<0x12>	0
<0x13>	0
<0x14>	0
<0x15>	0
<0x16>	0
<0x17>	0
<0x18>	0
<0x19>	0
<0x1A>	0
<0x1B>	0
<0x1C>	0
<0x1D>	0
<0x1E>	0
<0x1F>	0
<0x20>	0
<0x21>	0
<0x22>	0
<0x23>	0
<0x24>	0
<0x25>	0
<0x26>	0
<0x27>	0
<0x28>	0
<0x29>	0
<0x2A>	0
<0x2B>	0
<0x2C>	0
<0x2D>	0
<0x2E>	0
<0x2F>	0
<0x30>	0
<0x31>	0
<0x32>	0
<0x33>	0
<0x34>	0
<0x35>	0
<0x36>	0
<0x37>	0
<0x38>	0
<0x39>	0
<0x3A>	0
<0x3B>	0
<0x3C>	0
<0x3D>	0
<0x3E>	0
<0x3F>	0
<0x40>	0
<0x41>	0
<0x42>	0
<0x43>	0
<0x44>	0
<0x45>	0
<0x46>	0
<0x47>	0
<0x48>	0
<0x49>	0
<0x4A>	0
<0x4B>	0
<0x4C>	0
<0x4D>	0
<0x4E>	0
<0x4F>	0
<0x50>	0
<0x51>	0
<0x52>	0
<0x53>	0
<0x54>	0
<0x55>	0
<0x56>	0
<0x57>	0
<0x58>	0
<0x59>	0
<0x5A>	0
<0x5B>	0
<0x5C>	0
<0x5D>	0
<0x5E>	0
<0x5F>	0
<0x60>	0
<0x61>	0
<0x62>	0
<0x63>	0
<0x64>	0
<0x65>	0
<0x66>	0
<0x67>	0
<0x68>	0
<0x69>	0
<0x6A>	0
<0x6B>	0
<0x6C>	0
<0x6D>	0
<0x6E>	0
<0x6F>	0
<0x70>	0
<0x71>	0
<0x72>	0
<0x73>	0
<0x74>	0
<0x75>	0
<0x76>	0
<0x77>	0
<0x78>	0
<0x79>	0
<0x7A>	0
<0x7B>	0
<0x7C>	0
<0x7D>	0
<0x7E>	0
<0x7F>	0
<0x80>	0
<0x81>	0
<0x82>	0
<0x83>	0
<0x84>	0
<0x85>	0
<0x86>	0
<0x87>	0
<0x88>	0
<0x89>	0
<0x8A>	0
<0x8B>	0
<0x8C>	0
<0x8D>	0
<0x8E>	0
<0x8F>	0
<0x90>	0
<0x91>	0
<0x92>	0
<0x93>	0
<0x94>	0
<0x95>	0
<0x96>	0
<0x97>	0
<0x98>	0
<0x99>	0
<0x9A>	0
<0x9B>	0
<0x9C>	0
<0x9D>	0
<0x9E>	0
<0x9F>	0
<0xA0>	0
<0xA1>	0
<0xA2>	0
<0xA3>	0
<0xA4>	0
<0xA5>	0
<0xA6>	0
<0xA7>	0
<0xA8>	0
<0xA9>	0
<0xAA>	0
<0xAB>	0
<0xAC>	0
<0xAD>	0
<0xAE>	0
<0xAF>	0
<0xB0>	0
<0xB1>	0
<0xB2>	0
<0xB3>	0
<0xB4>	0
<0xB5>	0
<0xB6>	0
<0xB7>	0
<0xB8>	0
<0xB9>	0
<0xBA>	0
<0xBB>	0
<0xBC>	0
<0xBD>	0
<0xBE>	0
<0xBF>	0
<0xC0>	0
<0xC1>	0
<0xC2>	0
<0xC3>	0
<0xC4>	0
<0xC5>	0
<0xC6>	0
<0xC7>	0
<0xC8>	0
<0xC9>	0
<0xCA>	0
<0xCB>	0
<0xCC>	0
<0xCD>	0
<0xCE>	0
<0xCF>	0
<0xD0>	0
<0xD1>	0
<0xD2>	0
<0xD3>	0
<0xD4>	0
<0xD5>	0
<0xD6>	0
<0xD7>	0
<0xD8>	0
<0xD9>	0
<0xDA>	0
<0xDB>	0
<0xDC>	0
<0xDD>	0
<0xDE>	0
<0xDF>	0
<0xE0>	0
<0xE1>	0
<0xE2>	0
<0xE3>	0
<0xE4>	0
<0xE5>	0
<0xE6>	0
<0xE7>	0
<0xE8>	0
<0xE9>	0
<0xEA>	0
<0xEB>	0
<0xEC>	0
<0xED>	0
<0xEE>	0
<0xEF>	0
<0xF0>	0
<0xF1>	0
<0xF2>	0
<0xF3>	0
<0xF4>	0
<0xF5>	0
<0xF6>	0
<0xF7>	0
<0xF8>	0
<0xF9>	0
<0xFA>	0
<0xFB>	0
<0xFC>	0
<0xFD>	0
<0xFE>	0
<0xFF>	0
,	-3.27563
▁de	-3.48559
▁	-3.75631
▁a	-3.88387
▁e	-4.05398
.	-4.06544
s	-4.08244
▁o	-4.27887
▁que	-4.31151
▁do	-4.52003
o	-4.65789
▁da	-4.67666
a	-4.75155
▁em	-4.93356
r	-4.93479
▁com	-5.07565
▁para	-5.08015
▁A	-5.24285
▁no	-5.26849
▁um	-5.34177
e	-5.37379
-	-5.39098
▁na	-5.43955
▁é	-5.47632
os	-5.51738
▁uma	-5.529
u	-5.55926
▁se	-5.60529
▁os	-5.61774
m	-5.63438
▁(	-5.64536
▁O	-5.66135
A	-5.68373
▁não	-5.69867
▁por	-5.72041
as	-5.77055
do	-5.83907
l	-5.8954
ção	-5.90283
ou	-5.90839
▁dos	-5.91207
▁as	-5.92057
▁P	-5.9441
ar	-5.96836
I	-5.97664
▁"	-6.00399
▁mais	-6.01887
▁S	-6.02544
▁como	-6.03285
)	-6.03537
S	-6.07432
O	-6.09429
i	-6.10949
da	-6.12324
▁re	-6.12382
▁C	-6.12847
E	-6.14385
is	-6.1585
es	-6.20418
▁ao	-6.22061
ndo	-6.23011
ão	-6.24069
▁E	-6.28713
▁ou	-6.29742
▁p	-6.32134
▁das	-6.33756
:	-6.36064
T	-6.37824
▁M	-6.38049
em	-6.40841
to	-6.42415
N	-6.43559
▁ser	-6.43577
á	-6.44111
P	-6.44924
▁c	-6.47356
R	-6.47467
se	-6.47685
ia	-6.48097
▁à	-6.48516
M	-6.51385
c	-6.53683
ta	-6.54478
t	-6.54514
C	-6.54927
▁T	-6.55752
0	-6.56019
▁foi	-6.56126
▁I	-6.57965
al	-6.58502
▁F	-6.59153
ação	-6.59489
k	-6.59755
í	-6.61066
er	-6.61699
"	-6.63503
▁D	-6.63981
▁sua	-6.64118
7	-6.69887
▁-	-6.69944
▁f	-6.70356
▁pelo	-6.7072
▁B	-6.71237
▁mas	-6.71811
de	-6.7207
n	-6.72801
é	-6.74009
ções	-6.7455
▁pela	-6.74758
8	-6.75148
dos	-6.75262
▁2	-6.75741
;	-6.76438
y	-6.78
5	-6.78422
▁seu	-6.78532
▁sobre	-6.78863
2	-6.78873
ra	-6.79005
▁R	-6.79776
U	-6.80968
▁tem	-6.81751
▁in	-6.81791
ado	-6.83102
▁m	-6.83299
ando	-6.84341
/	-6.85626
),	-6.8678
p	-6.87275
▁d	-6.87682
ó	-6.89858
L	-6.89991
te	-6.91121
9	-6.93797
▁–	-6.94252
ram	-6.94327
la	-6.94705
D	-6.95161
4	-6.95975
▁nos	-6.97454
B	-6.983
▁são	-6.98437
▁H	-6.98827
lo	-6.98984
h	-6.99442
3	-6.99816
...	-6.99979
▁ter	-7.00639
▁entre	-7.01144
ada	-7.01871
6	-7.03082
▁N	-7.04052
am	-7.042
▁também	-7.05086
das	-7.05287
▁me	-7.05739
▁co	-7.06922
▁está	-7.07794
▁já	-7.0792
▁vi	-7.07932
que	-7.08716
▁G	-7.08896
▁v	-7.09043
mos	-7.09157
▁ele	-7.10058
▁V	-7.10847
d	-7.11024
▁muito	-7.11447
▁con	-7.11725
▁dia	-7.11899
▁No	-7.11967
▁anos	-7.12072
b	-7.12745
▁1	-7.14419
ir	-7.16894
idade	-7.17105
1	-7.18636
▁pode	-7.18862
na	-7.18891
f	-7.20322
▁s	-7.2039
▁L	-7.20977
▁b	-7.21743
z	-7.22201
ro	-7.2375
▁forma	-7.23807
ados	-7.24041
w	-7.24085
io	-7.24144
va	-7.25166
el	-7.2666
▁mesmo	-7.26773
▁até	-7.27275
▁você	-7.27855
mente	-7.27947
▁sem	-7.29307
co	-7.30049
▁quando	-7.30053
F	-7.30092
le	-7.30113
?	-7.30564
▁nas	-7.30934
ca	-7.32235
▁ainda	-7.33899
G	-7.33903
rá	-7.34271
▁3	-7.34404
ais	-7.34481
▁eu	-7.34953
",	-7.36219
ma	-7.36447
V	-7.36599
il	-7.37573
g	-7.37784
▁Re	-7.38086
in	-7.3823
▁J	-7.3881
ria	-7.39603
▁Em	-7.4123
▁Brasil	-7.41825
▁bem	-7.43122
▁seus	-7.43529
).	-7.4374
ões	-7.4394
no	-7.44337
us	-7.44679
or	-7.45216
▁i	-7.45544
▁per	-7.46046
nte	-7.46295
x	-7.46429
▁t	-7.46468
▁201	-7.4851
re	-7.48831
▁n	-7.48963
tos	-7.49114
agem	-7.50122
▁di	-7.50328
▁esta	-7.5149
▁todos	-7.51511
▁Co	-7.5155
▁De	-7.53254
en	-7.5356
▁aos	-7.54176
▁des	-7.54528
adas	-7.54811
ina	-7.55931
▁tempo	-7.56394
▁Para	-7.56411
▁Na	-7.56525
▁19	-7.57107
res	-7.57949
tar	-7.58004
ações	-7.58209
▁ano	-7.58331
!	-7.58422
▁pro	-7.59135
%	-7.59168
▁ex	-7.59301
▁ver	-7.59349
▁ca	-7.59556
▁fa	-7.60364
feira	-7.6079
▁só	-7.6101
▁Se	-7.61183
▁Ma	-7.61193
ário	-7.6126
amente	-7.61585
▁contra	-7.61812
▁pessoas	-7.61838
▁4	-7.61997
▁Os	-7.62633
ja	-7.62886
ida	-7.63572
ente	-7.64176
▁parte	-7.64317
ri	-7.64783
li	-7.65038
▁fazer	-7.65823
▁São	-7.66423
ido	-7.66693
mo	-7.6687
▁isso	-7.67647
ter	-7.68654
▁às	-7.68687
▁ma	-7.69022
▁seja	-7.69184
▁te	-7.6965
pa	-7.69776
▁onde	-7.70032
▁pa	-7.70194
00	-7.70757
'	-7.70781
ntes	-7.71464
amento	-7.71771
▁cada	-7.71834
▁U	-7.71979
▁Ca	-7.72227
▁g	-7.7275
▁5	-7.73121
▁l	-7.73778
ce	-7.73926
▁Di	-7.74283
▁há	-7.74332
ito	-7.74434
▁trabalho	-7.74677
▁vida	-7.74995
on	-7.7555
mento	-7.75594
▁su	-7.75653
ve	-7.75794
▁pre	-7.75839
▁Ro	-7.75939
ur	-7.76377
▁suas	-7.76388
ei	-7.77111
▁foram	-7.77614
▁Com	-7.77665
▁este	-7.77791
▁al	-7.77838
ns	-7.77974
ência	-7.78105
um	-7.78596
▁200	-7.78682
me	-7.79133
▁outros	-7.7944
eira	-7.79582
go	-7.79786
ân	-7.79907
iz	-7.80432
▁deve	-7.8067
ch	-7.80971
▁vez	-7.81048
▁grande	-7.81319
▁en	-7.81583
▁melhor	-7.8183
eiro	-7.83182
ista	-7.83277
É	-7.8413
▁vai	-7.84289
▁pra	-7.84585
tas	-7.84999
▁W	-7.8536
▁meio	-7.855
▁conta	-7.85528
an	-7.85609
ne	-7.85813
im	-7.8588
▁sa	-7.85966
▁r	-7.86499
sa	-7.86653
RA	-7.86912
▁casa	-7.87378
H	-7.88816
▁sempre	-7.89101
▁Paulo	-7.89137
ba	-7.89271
▁meu	-7.89334
▁Al	-7.89395
X	-7.89641
▁maior	-7.89994
▁cri	-7.90155
ça	-7.90303
qui	-7.90478
▁mundo	-7.90994
▁apenas	-7.91417
ú	-7.91959
▁pr	-7.9236
▁estão	-7.92446
▁era	-7.93477
▁será	-7.93483
▁Estado	-7.93605
▁dois	-7.93614
".	-7.93742
▁esse	-7.93981
ável	-7.94025
ES	-7.94443
▁pois	-7.94592
ás	-7.94755
ing	-7.94847
▁fe	-7.94939
▁pe	-7.95206
▁ela	-7.95768
▁est	-7.95773
▁ve	-7.96146
ul	-7.96591
▁faz	-7.96758
▁li	-7.96843
ica	-7.97102
ço	-7.97386
▁essa	-7.97412
ês	-7.97872
ante	-7.97897
▁sendo	-7.97971
▁Con	-7.98559
▁cidade	-7.98641
▁Vi	-7.98779
▁assim	-7.98904
ismo	-7.99093
▁fo	-7.99102
rem	-7.99129
▁inter	-7.99218
ê	-7.99278
▁aqui	-7.99826
▁minha	-7.99852
▁mo	-8.00155
▁bo	-8.00313
▁K	-8.0097
ti	-8.01104
ho	-8.01317
▁mar	-8.01348
▁todo	-8.01655
▁governo	-8.0166
▁porque	-8.01822
ador	-8.02692
bo	-8.03351
istas	-8.03464
▁fi	-8.03682
tura	-8.03702
tiva	-8.03745
▁qual	-8.03874
bi	-8.04037
tivo	-8.04101
▁car	-8.04194
▁sistema	-8.04682
dores	-8.04974
▁hoje	-8.05053
lá	-8.05169
dio	-8.05388
▁qualquer	-8.05559
▁Lu	-8.05811
▁As	-8.05874
▁sal	-8.06006
▁final	-8.06069
▁Pa	-8.06299
$	-8.06759
▁podem	-8.06815
▁6	-8.071
▁po	-8.07191
▁ju	-8.07311
▁cr	-8.07433
▁tudo	-8.0748
▁In	-8.07501
▁so	-8.07647
▁Mar	-8.07789
▁cons	-8.07957
amos	-8.07974
▁primeira	-8.08105
vo	-8.082
▁10	-8.08801
▁ro	-8.08853
▁20	-8.09444
it	-8.09633
▁depois	-8.09826
ga	-8.1029
▁primeiro	-8.10338
▁dias	-8.10352
▁caso	-8.1039
pi	-8.10445
tal	-8.10634
▁h	-8.10693
▁empresa	-8.11453
▁Ba	-8.11557
dor	-8.11994
▁processo	-8.12272
▁Mo	-8.12468
di	-8.12617
▁ch	-8.12892
ol	-8.13158
inho	-8.13283
▁presidente	-8.13298
▁durante	-8.14014
▁quem	-8.14276
▁tra	-8.14285
ôni	-8.1445
▁Ch	-8.14478
▁estava	-8.14661
Z	-8.14858
▁além	-8.15448
inha	-8.15849
▁segundo	-8.16212
▁desta	-8.16328
las	-8.16743
▁DE	-8.1678
lí	-8.16825
▁ir	-8.16869
vi	-8.17164
▁inf	-8.17264
ós	-8.17276
▁poder	-8.17344
jo	-8.17349
▁Rio	-8.17664
▁Me	-8.17714
▁acordo	-8.17737
▁país	-8.18233
▁disse	-8.18502
car	-8.1879
idos	-8.18804
▁cont	-8.18952
cha	-8.19199
▁cor	-8.1936
v	-8.19433
▁nome	-8.19598
▁ab	-8.19658
DO	-8.19676
▁lei	-8.1995
sta	-8.19991
▁pouco	-8.20119
lhe	-8.20195
ico	-8.20811
são	-8.20974
tor	-8.21085
▁menos	-8.21138
▁pelos	-8.21204
▁outras	-8.21253
ária	-8.21374
ém	-8.21711
nha	-8.21978
▁outro	-8.22357
▁desde	-8.22365
ic	-8.23231
12	-8.23378
eu	-8.23557
▁grupo	-8.23775
▁Por	-8.23875
30	-8.24113
▁Pe	-8.2441
▁momento	-8.2448
▁alguns	-8.24643
sse	-8.24682
▁fato	-8.24707
▁im	-8.25099
▁imp	-8.25137
lho	-8.25163
▁três	-8.25851
▁tr	-8.26082
▁va	-8.26231
ver	-8.26337
▁tipo	-8.26437
▁volta	-8.26484
entes	-8.26544
ava	-8.26937
▁partir	-8.27009
ven	-8.27442
pe	-8.27677
▁após	-8.27699
he	-8.27877
▁nossa	-8.28278
▁mil	-8.28302
za	-8.28381
▁todas	-8.28778
▁Federal	-8.28788
▁história	-8.29447
▁mercado	-8.2952
tes	-8.29743
▁sub	-8.29781
cia	-8.29796
so	-8.30049
▁novo	-8.30393
▁relação	-8.30609
CO	-8.30879
▁mod	-8.31286
▁nesta	-8.31374
▁duas	-8.31495
RE	-8.3156
▁Ju	-8.31819
▁nem	-8.32659
▁deste	-8.32778
▁par	-8.32944
cas	-8.33061
▁projeto	-8.33726
▁semana	-8.3377
J	-8.33795
az	-8.33853
▁ba	-8.34345
▁gra	-8.34463
ig	-8.34638
▁jogo	-8.34906
▁área	-8.35157
▁fica	-8.35159
posição	-8.35482
min	-8.35874
▁base	-8.35887
▁ru	-8.36331
▁agora	-8.36552
▁através	-8.36557
lu	-8.36644
gue	-8.36721
▁Nacional	-8.36997
ino	-8.37062
▁bom	-8.37195
▁diz	-8.37975
▁Jo	-8.38277
nho	-8.38373
gu	-8.38623
tação	-8.38756
fa	-8.38793
erra	-8.39016
▁Car	-8.3911
▁estar	-8.39121
▁valor	-8.39464
ização	-8.39699
ias	-8.39749
aram	-8.39895
▁marca	-8.39941
▁programa	-8.40021
▁Bo	-8.4018
ras	-8.40181
▁toda	-8.40443
ín	-8.40486
▁tinha	-8.40685
j	-8.40977
▁antes	-8.4108
▁Eu	-8.41106
qu	-8.41161
nda	-8.41339
bra	-8.41409
nos	-8.41463
imento	-8.41471
▁quanto	-8.41728
et	-8.41733
▁eles	-8.41815
▁can	-8.41893
ô	-8.41895
▁Gu	-8.42517
ios	-8.42803
▁nova	-8.42803
11	-8.42844
ários	-8.42877
▁público	-8.43127
ual	-8.43272
▁uso	-8.43337
adores	-8.43572
▁ga	-8.43945
eza	-8.44256
▁causa	-8.44866
▁esp	-8.44958
indo	-8.44986
nd	-8.45104
▁inc	-8.45127
▁vo	-8.45176
!!	-8.45363
▁rec	-8.45507
▁neg	-8.459
tores	-8.45932
▁fim	-8.46281
▁social	-8.46319
▁Não	-8.46401
▁pesquisa	-8.46439
íd	-8.46578
▁Es	-8.46681
ita	-8.46686
▁Est	-8.46688
▁objetivo	-8.46829
▁vezes	-8.46865
cho	-8.46938
endo	-8.4702
▁número	-8.47082
▁Um	-8.47278
▁lugar	-8.47375
0,	-8.47475
idas	-8.47575
Á	-8.47653
▁cert	-8.47798
ér	-8.48017
▁lu	-8.48207
▁18	-8.48355
▁tanto	-8.48408
▁15	-8.48527
16	-8.48697
tica	-8.48765
lar	-8.48786
▁trans	-8.48817
▁mostra	-8.48998
mas	-8.49015
ci	-8.49022
▁pessoa	-8.49102
▁for	-8.49112
▁passa	-8.49286
▁saúde	-8.49438
ela	-8.49457
▁importante	-8.49488
▁local	-8.49878
▁exemplo	-8.49985
▁segunda	-8.50132
▁busca	-8.50234
▁lado	-8.50289
▁Le	-8.50606
▁corpo	-8.50823
▁empresas	-8.50935
▁informações	-8.51016
▁tal	-8.51102
▁super	-8.51283
▁Li	-8.51422
ura	-8.51512
▁nosso	-8.51662
▁fal	-8.51664
dia	-8.51665
▁tão	-8.51846
icos	-8.5188
des	-8.51908
▁escola	-8.51952
▁fr	-8.52295
▁Te	-8.52378
uro	-8.52634
eiros	-8.5282
uz	-8.52979
▁Go	-8.52981
dro	-8.53175
▁mesma	-8.53238
▁direito	-8.53258
los	-8.53362
▁la	-8.53494
▁ac	-8.53507
14	-8.53517
▁neste	-8.53544
▁prote	-8.53553
lha	-8.53613
▁dentro	-8.5375
at	-8.53765
ge	-8.53808
▁ví	-8.53837
▁Ar	-8.53857
br	-8.53955
elo	-8.54017
gi	-8.5404
fe	-8.54128
âm	-8.54314
▁ob	-8.54363
▁então	-8.54482
▁cu	-8.5472
▁equipe	-8.54748
▁j	-8.54753
bate	-8.54794
ad	-8.5485
tória	-8.54963
▁ad	-8.54997
cio	-8.55051
nas	-8.55297
▁desenvolvimento	-8.55419
▁evento	-8.55438
Ã	-8.55714
tro	-8.55805
▁Mi	-8.55853
rte	-8.55977
pós	-8.5604
▁int	-8.56232
13	-8.56482
cer	-8.56534
ança	-8.56681
der	-8.56752
▁fra	-8.56793
▁algumas	-8.57008
▁região	-8.57089
▁livro	-8.57144
▁La	-8.57355
▁sol	-8.57444
▁qualidade	-8.5751
▁Fi	-8.57525
ha	-8.57673
▁água	-8.57738
▁es	-8.58073
▁num	-8.5836
▁To	-8.58506
ros	-8.58847
▁ta	-8.58946
▁auto	-8.59103
▁to	-8.59119
emos	-8.5956
▁sociedade	-8.59629
▁têm	-8.59731
▁nada	-8.59935
▁artigo	-8.59946
▁Deus	-8.59961
▁estudo	-8.60055
▁serviços	-8.60065
▁Lei	-8.60128
▁sido	-8.60153
▁família	-8.60184
▁período	-8.60239
▁esc	-8.60348
logo	-8.60399
▁bi	-8.60506
itos	-8.60564
gas	-8.60651
agens	-8.60682
DE	-8.608
▁boa	-8.60878
▁lo	-8.60944
antes	-8.61
eja	-8.61044
▁outra	-8.6112
êm	-8.6114
ivil	-8.61201
▁sabe	-8.61238
ula	-8.61404
▁filme	-8.61479
ância	-8.61522
▁mor	-8.6157
▁cabe	-8.61669
ng	-8.61674
▁autor	-8.61801
▁sim	-8.62011
▁site	-8.62141
▁fac	-8.62333
▁cl	-8.62403
▁cultura	-8.62405
ição	-8.62501
tado	-8.62641
▁Ex	-8.62783
▁espaço	-8.63217
▁possível	-8.63305
[	-8.63351
▁corre	-8.63358
gência	-8.63367
▁res	-8.63508
▁política	-8.63511
▁presente	-8.63896
▁Pro	-8.64317
▁Ne	-8.64366
▁ajuda	-8.64435
tamente	-8.64521
ni	-8.64608
▁le	-8.64632
▁existe	-8.64714
tivos	-8.64718
▁total	-8.64903
▁sob	-8.64909
▁milhões	-8.65055
]	-8.65135
▁post	-8.65304
▁escolh	-8.65365
and	-8.65547
gar	-8.65722
ível	-8.6599
tu	-8.66234
▁vem	-8.66427
po	-8.66492
ense	-8.67092
▁tenha	-8.67109
▁Fa	-8.67174
id	-8.67276
▁Be	-8.67294
▁cur	-8.67309
▁vis	-8.67355
je	-8.67357
▁teve	-8.67472
▁conf	-8.67569
rão	-8.67575
ã	-8.67671
▁precisa	-8.67777
▁muitos	-8.67805
▁mon	-8.67813
▁produção	-8.68058
▁Su	-8.68063
▁fez	-8.68231
▁hi	-8.68283
ór	-8.68361
▁Sa	-8.68478
xa	-8.68664
▁Segundo	-8.68701
▁ja	-8.68711
che	-8.68836
▁prov	-8.68919
icas	-8.69063
tir	-8.69112
▁Como	-8.69845
▁apresenta	-8.69864
▁José	-8.69881
fo	-8.70114
ting	-8.70145
▁Uma	-8.70277
áveis	-8.70292
▁mu	-8.70316
▁início	-8.70415
▁si	-8.70426
cos	-8.70481
inas	-8.70768
▁mã	-8.7081
▁Po	-8.70899
▁seria	-8.71081
▁próprio	-8.71103
▁Mas	-8.71112
▁estado	-8.71148
▁muitas	-8.71217
▁produtos	-8.71365
este	-8.71426
▁So	-8.71766
▁An	-8.71777
ssa	-8.7182
▁cria	-8.71823
iu	-8.71961
ube	-8.72071
míni	-8.72123
st	-8.72148
▁sin	-8.7224
▁ficar	-8.72315
visão	-8.72394
▁Cor	-8.72457
▁ref	-8.72477
▁tive	-8.7248
▁coisa	-8.7273
mar	-8.72832
▁cal	-8.72969
▁Par	-8.72973
tório	-8.73064
▁quase	-8.7351
▁extr	-8.73533
▁prova	-8.73628
▁únic	-8.73671
▁defini	-8.73901
▁recursos	-8.73904
ças	-8.74152
vel	-8.74159
▁sur	-8.74177
ologia	-8.74212
▁conce	-8.74271
son	-8.74499
▁noite	-8.74554
▁dis	-8.7464
▁falta	-8.74677
tr	-8.74837
▁pass	-8.74907
▁usa	-8.75091
▁atividades	-8.75107
(	-8.75251
▁modelo	-8.75427
▁filho	-8.75436
▁at	-8.75526
gre	-8.75536
pesar	-8.75564
▁abri	-8.75576
▁Ja	-8.75666
▁fu	-8.75762
▁próximo	-8.75775
▁produto	-8.75899
▁discu	-8.76178
lé	-8.76263
zo	-8.7633
gua	-8.76363
tá	-8.76453
nto	-8.76519
▁Ho	-8.76533
▁grandes	-8.76669
▁ponto	-8.76851
▁ho	-8.76949
▁representa	-8.77103
baixo	-8.77388
▁Va	-8.77801
▁devem	-8.7814
▁dizer	-8.78336
▁be	-8.78363
▁Ministério	-8.78366
mentos	-8.78427
▁horas	-8.78457
▁feito	-8.7896
les	-8.79044
▁brasileira	-8.79097
▁op	-8.79131
rito	-8.79192
orte	-8.7932
Ç	-8.79358
▁conhecimento	-8.7936
íveis	-8.79664
▁desse	-8.79708
ine	-8.79756
▁bar	-8.79773
mes	-8.79869
▁pelas	-8.79901
val	-8.80087
▁199	-8.80088
▁men	-8.80094
▁saber	-8.80175
▁art	-8.80249
▁Bar	-8.80308
▁geral	-8.8068
▁acontece	-8.80742
ira	-8.80877
ec	-8.8092
*	-8.81041
▁prática	-8.81166
tima	-8.81213
▁rede	-8.81236
sto	-8.81296
▁Sul	-8.81414
nta	-8.8147
▁pres	-8.81613
▁força	-8.81614
▁quais	-8.81721
▁compra	-8.82046
nge	-8.82061
▁atua	-8.82112
ele	-8.82122
▁nenhum	-8.82186
▁Que	-8.82429
▁passado	-8.82431
▁sai	-8.82488
▁atual	-8.82525
▁dados	-8.82622
▁última	-8.82636
ag	-8.82654
▁Fo	-8.82709
▁segurança	-8.82751
▁Do	-8.82754
▁problemas	-8.82907
xi	-8.83013
▁recebe	-8.83225
ru	-8.83279
▁Lo	-8.83287
igi	-8.8329
gem	-8.83317
▁clar	-8.83366
▁medi	-8.83412
▁homem	-8.83568
▁garanti	-8.83668
▁medida	-8.83754
▁torn	-8.8386
▁carro	-8.83939
▁go	-8.83959
▁norma	-8.8396
ap	-8.84018
▁meses	-8.84028
▁terr	-8.84133
tou	-8.84419
berto	-8.84518
ará	-8.8455
▁grav	-8.84685
▁tenta	-8.84802
▁Santa	-8.84861
▁frente	-8.84928
▁trata	-8.84993
eram	-8.85085
▁quatro	-8.85203
ord	-8.85307
▁exp	-8.85361
ll	-8.85447
igo	-8.85474
▁população	-8.85503
▁situação	-8.85525
▁Quando	-8.85649
▁esque	-8.8574
cr	-8.8577
gosto	-8.85818
per	-8.85821
▁jove	-8.8584
ré	-8.85878
▁nunca	-8.85888
▁encontra	-8.86012
gio	-8.86058
▁problema	-8.86077
▁algo	-8.86097
▁diretor	-8.86109
▁feita	-8.86224
tanto	-8.86305
▁ambiente	-8.8639
lma	-8.86431
ub	-8.8651
▁enquanto	-8.86531
▁integra	-8.86572
com	-8.86747
▁ocorre	-8.86866
▁agr	-8.86876
ração	-8.86977
▁nacional	-8.86984
19	-8.87011
▁Mu	-8.87249
▁exce	-8.87262
ssão	-8.87288
▁Cl	-8.87372
zinh	-8.87525
▁numa	-8.87525
▁Municipal	-8.8778
▁tur	-8.87819
▁quadr	-8.87914
▁serão	-8.8793
▁parece	-8.87988
ilha	-8.88023
▁médi	-8.88105
▁jul	-8.8815
ências	-8.88182
idades	-8.88196
lhos	-8.8835
rar	-8.88375
xo	-8.88457
via	-8.88462
▁dessa	-8.88538
▁fora	-8.88613
bu	-8.88689
▁ar	-8.88717
un	-8.88799
▁principalmente	-8.89066
ger	-8.89144
▁cerca	-8.89164
▁torna	-8.89369
lex	-8.89588
uma	-8.89695
cional	-8.89732
iva	-8.89758
▁blog	-8.89831
guém	-8.89856
ores	-8.89992
▁dele	-8.90192
▁lev	-8.90296
201	-8.90373
▁diferentes	-8.90445
▁ger	-8.90451
▁professor	-8.90509
▁Pr	-8.90557
▁ass	-8.90566
▁indica	-8.9075
▁segui	-8.90765
zes	-8.90939
▁cole	-8.90945
izar	-8.90977
mp	-8.91047
eta	-8.91119
▁man	-8.91138
▁tenho	-8.91153
▁Além	-8.91206
▁Uni	-8.91334
▁havia	-8.91413
▁serviço	-8.91546
▁própria	-8.91603
▁tele	-8.91627
▁sofr	-8.91798
▁Justiça	-8.91927
▁ven	-8.92003
▁crianças	-8.92037
▁cheg	-8.9225
▁coisas	-8.92324
▁verdade	-8.92341
▁mulheres	-8.92494
ên	-8.92501
▁brasileiro	-8.9253
▁Universidade	-8.92597
lista	-8.92714
▁mi	-8.92892
missão	-8.9292
▁países	-8.92945
▁realizada	-8.92979
rro	-8.93045
▁chega	-8.93067
▁regi	-8.93073
▁mudança	-8.93364
▁curso	-8.93422
▁texto	-8.93426
▁junto	-8.93432
iano	-8.93434
▁maneira	-8.93716
▁ped	-8.93749
20	-8.93774
▁oferece	-8.93884
bora	-8.93946
▁interesse	-8.94025
▁linha	-8.94145
▁setor	-8.94329
be	-8.94388
▁quer	-8.94586
▁pública	-8.94648
▁ci	-8.94653
▁anterior	-8.9469
▁via	-8.94726
▁favor	-8.94881
▁an	-8.94952
▁Per	-8.95037
▁sociais	-8.95044
▁Câmara	-8.95048
▁dire	-8.95205
lmente	-8.95222
▁vários	-8.95418
ól	-8.95461
isto	-8.95478
▁capital	-8.95482
▁vir	-8.95497
▁col	-8.95504
▁traz	-8.95507
tico	-8.95588
▁quarta	-8.95742
▁gu	-8.95781
▁físic	-8.95895
▁principal	-8.95918
▁amigo	-8.95926
▁sentido	-8.9593
▁Cas	-8.95999
▁Saúde	-8.96
ton	-8.96032
ac	-8.96158
▁leva	-8.96206
ssim	-8.96242
▁empreg	-8.96269
▁deix	-8.9635
ráfic	-8.96362
tando	-8.96392
iam	-8.96476
▁mal	-8.96493
▁constru	-8.96502
▁consegui	-8.96549
▁estrutura	-8.96704
raz	-8.96811
▁pla	-8.96813
▁proposta	-8.96815
▁necessário	-8.96861
▁risco	-8.96873
▁especial	-8.96986
pção	-8.97036
▁Da	-8.97054
▁afirma	-8.97074
▁principais	-8.97077
▁gr	-8.9716
ares	-8.97167
dem	-8.97175
▁prazo	-8.97277
▁gente	-8.97302
▁maioria	-8.97435
▁ra	-8.97447
bal	-8.97486
▁acesso	-8.97579
▁Br	-8.97617
▁série	-8.97754
▁questão	-8.97777
▁vive	-8.97787
eiras	-8.97822
forma	-8.97828
rou	-8.97869
bri	-8.979
▁vari	-8.97901
▁experiência	-8.97987
▁movimento	-8.98016
rop	-8.98049
▁seguinte	-8.98121
▁Camp	-8.98236
▁Des	-8.98429
liz	-8.98573
▁pontos	-8.98574
alidade	-8.98602
▁povo	-8.98741
▁toma	-8.98768
▁senti	-8.98879
ivo	-8.99042
▁longo	-8.99084
▁Ve	-8.99105
▁profissionais	-8.99119
▁Secretaria	-8.9914
▁esti	-8.99182
▁mulher	-8.99286
▁tarde	-8.99296
ular	-8.99344
▁condições	-8.99383
▁amor	-8.99443
ições	-8.99463
▁município	-8.99599
▁ti	-8.99658
▁banc	-8.99786
▁Maria	-8.99791
▁apoio	-8.99864
▁Ga	-8.99961
▁san	-9.00051
ima	-9.00117
ze	-9.00278
ut	-9.00328
ano	-9.004
▁aplica	-9.00473
▁realizado	-9.00507
▁cap	-9.00536
ex	-9.00555
▁Polícia	-9.00558
▁campo	-9.00576
▁ins	-9.00597
▁ampl	-9.00602
▁obriga	-9.00702
▁ap	-9.00767
▁construção	-9.00814
▁Cu	-9.00825
▁human	-9.00958
▁tri	-9.00971
▁limit	-9.0102
étic	-9.01054
vis	-9.01056
ens	-9.01149
▁Qu	-9.01164
▁música	-9.01375
▁alunos	-9.01429
▁Ant	-9.01464
▁Janeiro	-9.016
má	-9.01622
▁aprend	-9.01825
▁controle	-9.01834
▁visita	-9.01871
▁Marc	-9.02182
ste	-9.02187
ves	-9.02263
rio	-9.02296
ona	-9.02407
almente	-9.02492
▁fala	-9.02521
▁espera	-9.02573
bre	-9.02573
▁forte	-9.0264
▁Q	-9.02786
uais	-9.0285
▁rel	-9.02885
▁falar	-9.02913
▁Cri	-9.02961
▁utiliza	-9.02989
▁preço	-9.03004
▁infl	-9.03083
▁Estados	-9.03131
▁crim	-9.03139
▁considera	-9.03146
▁pu	-9.03154
adora	-9.0316
és	-9.03187
▁João	-9.03395
▁Cr	-9.03404
aria	-9.03426
▁quinta	-9.03528
▁exig	-9.03556
gn	-9.03667
▁gera	-9.037
▁ações	-9.03704
▁aumento	-9.03705
▁dar	-9.03715
oria	-9.03732
▁inicia	-9.04039
▁obra	-9.04069
▁som	-9.04167
▁tratamento	-9.04205
▁último	-9.04243
spir	-9.04301
▁ban	-9.04319
▁rep	-9.04321
▁passar	-9.04357
estre	-9.04421
▁Esp	-9.04487
▁sen	-9.04494
▁deixar	-9.04503
▁Grande	-9.04649
▁profissional	-9.04685
▁cart	-9.04792
▁exa	-9.04817
abilidade	-9.0488
▁educação	-9.04915
▁sele	-9.05019
▁Educação	-9.05052
▁apo	-9.0511
▁hora	-9.05126
lega	-9.05262
▁sexta	-9.05346
▁algum	-9.05398
▁respeito	-9.05418
▁possui	-9.0556
▁Ra	-9.05567
▁cha	-9.05603
mi	-9.05624
udi	-9.0565
leg	-9.0567
▁novos	-9.0568
▁época	-9.05751
undial	-9.05805
gr	-9.05901
▁qu	-9.0598
▁fl	-9.06026
▁corr	-9.06051
▁pal	-9.06111
sso	-9.06264
▁decisão	-9.06277
tados	-9.06398
▁livr	-9.0651
▁anima	-9.06519
tual	-9.06528
tada	-9.06578
▁áreas	-9.06611
▁técnica	-9.06691
▁cinco	-9.06697
▁foto	-9.06868
▁contribui	-9.06888
gen	-9.06974
tais	-9.07045
vam	-9.07054
▁doença	-9.07076
▁express	-9.07112
▁papel	-9.07203
▁tro	-9.07311
nt	-9.07391
▁dinheiro	-9.07431
curso	-9.07472
▁che	-9.07497
titu	-9.07529
▁deputado	-9.07539
▁poderia	-9.07544
▁Centro	-9.07619
▁começa	-9.07674
▁demais	-9.0768
▁participação	-9.07794
▁habi	-9.07822
▁antig	-9.07839
▁ficou	-9.07938
▁Conselho	-9.08028
tel	-9.08147
▁Ele	-9.08168
10	-9.08219
tra	-9.08259
tido	-9.08448
ana	-9.08451
▁procura	-9.08453
par	-9.0847
▁resultado	-9.08496
▁pensa	-9.08553
▁Man	-9.08619
200	-9.08838
rica	-9.08889
hi	-9.08897
rada	-9.08915
▁pi	-9.09013
▁leg	-9.09068
▁direitos	-9.09137
sões	-9.09175
▁suspe	-9.09188
▁assunto	-9.09234
▁acompanha	-9.0931
▁estou	-9.09318
▁pes	-9.09393
▁somente	-9.09499
▁pai	-9.09528
▁desej	-9.09615
indica	-9.09638
▁possa	-9.09886
▁cin	-9.10074
duzi	-9.10185
por	-9.1019
▁importância	-9.10245
▁univers	-9.10318
▁imag	-9.10475
▁just	-9.10579
▁adv	-9.10829
õe	-9.1088
▁formação	-9.10907
▁manhã	-9.10998
cil	-9.11082
▁campanha	-9.11094
▁casos	-9.11098
▁ouvi	-9.11109
▁técnico	-9.11164
urante	-9.11362
ensa	-9.11397
lin	-9.11484
q	-9.11506
iro	-9.11534
K	-9.11547
▁efe	-9.11785
▁disso	-9.11889
mão	-9.1198
▁liga	-9.11995
▁public	-9.12044
▁morte	-9.1208
port	-9.12121
▁meta	-9.12143
▁órgão	-9.12144
▁us	-9.1228
▁lin	-9.12352
▁et	-9.12441
para	-9.12446
▁título	-9.12658
▁resultados	-9.12745
vio	-9.12752
ler	-9.12793
▁prefeito	-9.12793
▁baix	-9.12794
bol	-9.12821
▁veículo	-9.12927
dig	-9.12953
▁conclu	-9.12987
▁deixa	-9.12988
▁br	-9.12995
aixa	-9.12997
ncia	-9.13095
metros	-9.13145
▁Gr	-9.13153
▁Tribunal	-9.13242
rado	-9.13482
édi	-9.13522
ilo	-9.13523
▁convi	-9.13753
▁médico	-9.13879
▁reg	-9.13948
▁fosse	-9.13966
▁possibilidade	-9.14048
▁plano	-9.14116
▁futur	-9.14291
▁impe	-9.1434
▁diversos	-9.1434
▁tecnologia	-9.14369
▁au	-9.1461
ite	-9.14651
▁energia	-9.14661
▁q	-9.148
▁oportunidade	-9.14815
▁ideia	-9.14992
▁sucesso	-9.15013
ema	-9.15072
▁atenção	-9.15152
tribu	-9.1523
▁funciona	-9.15238
▁século	-9.15257
tin	-9.15463
solução	-9.15509
tivas	-9.15519
mb	-9.15686
▁superior	-9.15758
ál	-9.15772
▁receber	-9.15836
▁várias	-9.15844
▁perde	-9.15846
cel	-9.15858
▁Silva	-9.15881
▁nível	-9.159
▁acaba	-9.15902
▁alguma	-9.15906
▁ne	-9.15929
▁ali	-9.16029
▁tendo	-9.1617
▁bastante	-9.16287
▁obras	-9.16351
▁simples	-9.16491
og	-9.165
▁gen	-9.16507
▁Am	-9.16507
▁vista	-9.16626
ua	-9.16712
▁muita	-9.16767
nia	-9.16782
▁revel	-9.16848
▁ensino	-9.17071
▁terça	-9.1708
lia	-9.17172
lidade	-9.172
ero	-9.17205
▁gestão	-9.17229
izado	-9.17258
cul	-9.17338
▁inten	-9.17359
▁comunidade	-9.17405
ória	-9.17433
▁menor	-9.17628
▁novas	-9.17664
ciência	-9.17675
torno	-9.17718
▁pagamento	-9.17813
▁arma	-9.17912
▁fisca	-9.18013
▁af	-9.1803
▁alta	-9.18048
▁diversas	-9.1806
▁Esta	-9.18064
▁projetos	-9.18065
▁necessidade	-9.18094
ícia	-9.18119
gên	-9.18185
▁capacidade	-9.18186
nco	-9.18187
ático	-9.18242
lhas	-9.18303
ora	-9.18326
ativa	-9.18443
itar	-9.18459
aça	-9.1849
▁(1	-9.18652
▁prev	-9.18729
pas	-9.18799
tina	-9.18885
▁centro	-9.19012
▁long	-9.19032
▁presença	-9.191
▁significa	-9.19121
▁For	-9.19136
árias	-9.19237
▁ag	-9.19267
▁gosta	-9.19359
▁domingo	-9.1936
▁poss	-9.19363
▁fil	-9.19379
▁chama	-9.19455
osa	-9.19517
▁Instituto	-9.19539
bar	-9.19601
▁acima	-9.19692
inhos	-9.19757
▁viv	-9.19786
▁análise	-9.19857
ago	-9.19862
▁circu	-9.19869
▁poderá	-9.19888
▁Carlos	-9.19915
▁homens	-9.19998
▁temos	-9.20074
▁perceb	-9.20111
▁nesse	-9.20143
▁realizar	-9.20342
inda	-9.20417
bertura	-9.20481
▁devido	-9.20489
▁pedi	-9.20538
▁explica	-9.20618
man	-9.20631
▁produzi	-9.20709
▁ganh	-9.2073
encia	-9.20778
tária	-9.20949
ssem	-9.2101
▁env	-9.21064
▁ach	-9.21068
▁nossos	-9.2109
▁enc	-9.21095
guarda	-9.21242
▁receb	-9.21306
▁cen	-9.21333
▁edição	-9.21365
▁pedido	-9.21423
ferência	-9.21482
▁tema	-9.21501
▁esses	-9.21563
▁atividade	-9.21641
quer	-9.21691
grad	-9.21748
▁arqui	-9.21777
▁resolv	-9.21893
▁test	-9.21898
▁reuni	-9.21925
óp	-9.22026
gl	-9.22121
▁atra	-9.22154
▁coloca	-9.22192
▁execu	-9.22239
▁efeito	-9.22294
til	-9.22318
nça	-9.22399
▁manter	-9.22451
esta	-9.22597
posto	-9.22609
enda	-9.22623
▁chegar	-9.22661
▁entrevista	-9.227
damente	-9.22893
▁crescimento	-9.22934
figura	-9.23037
▁categoria	-9.23096
ifica	-9.23229
rei	-9.23232
cionais	-9.23333
▁not	-9.23344
▁preciso	-9.23359
▁últimos	-9.2339
▁cargo	-9.23425
ance	-9.23547
gos	-9.23618
▁economia	-9.23667
▁humano	-9.23693
▁evi	-9.2372
reserva	-9.23847
▁maiores	-9.23885
▁fazendo	-9.23945
ços	-9.23951
▁sábado	-9.23965
sistência	-9.2398
▁Governo	-9.24028
▁paciente	-9.24043
▁opera	-9.24088
▁hor	-9.24103
vida	-9.24133
enhor	-9.24133
om	-9.24181
▁observa	-9.24203
ificação	-9.24276
▁ministro	-9.24302
▁Ter	-9.24405
▁negócio	-9.24493
▁pat	-9.24546
▁material	-9.24643
▁militar	-9.24731
▁pessoal	-9.24754
obre	-9.24789
▁arr	-9.24831
▁responsável	-9.24838
▁Direito	-9.24849
fi	-9.24986
▁tor	-9.24986
▁Ta	-9.25275
▁Port	-9.25322
▁certo	-9.2541
tri	-9.25433
ntar	-9.25477
▁tu	-9.2548
isso	-9.25488
▁regula	-9.25597
▁tom	-9.2563
▁fornec	-9.25638
oso	-9.25651
▁val	-9.2566
▁pena	-9.25684
▁custo	-9.25709
icamente	-9.25971
sas	-9.26049
difíci	-9.26174
oca	-9.26179
culo	-9.26277
▁cumpri	-9.26281
▁manda	-9.26354
▁vot	-9.26379
▁ide	-9.26394
▁criação	-9.26424
tim	-9.26523
▁Programa	-9.26639
▁fund	-9.26745
▁princípio	-9.26773
▁década	-9.2692
atório	-9.2694
uí	-9.26983
ológico	-9.27071
▁próxima	-9.27083
▁vol	-9.27131
nal	-9.27158
ento	-9.27173
und	-9.27175
▁função	-9.27234
▁conv	-9.27267
▁anunci	-9.27287
▁permiti	-9.27294
▁termo	-9.27468
ang	-9.27502
atura	-9.27514
▁constitu	-9.2757
▁organização	-9.27624
▁Público	-9.27651
tam	-9.27666
▁,	-9.27719
uta	-9.2781
igu	-9.27929
▁encontro	-9.27958
▁bairro	-9.28027
▁passou	-9.28107
avam	-9.28143
▁Unidos	-9.28145
fer	-9.28162
▁valores	-9.28333
▁ha	-9.28344
ques	-9.28374
▁divulga	-9.28569
▁vend	-9.28599
tur	-9.28674
van	-9.28719
▁membro	-9.28733
iana	-9.28739
▁começou	-9.28863
ônic	-9.28865
▁exist	-9.29101
▁continua	-9.29146
▁Fe	-9.29187
▁matéria	-9.29199
▁inclui	-9.29341
▁prop	-9.29348
ospital	-9.2935
▁u	-9.29361
▁plan	-9.2946
bus	-9.29529
▁melhores	-9.29601
ber	-9.29789
▁Fernand	-9.29854
▁du	-9.3012
▁entidade	-9.3013
ilitar	-9.3013
▁min	-9.30163
▁inici	-9.30183
▁assist	-9.30213
ix	-9.30227
▁Ass	-9.30251
▁divi	-9.30449
▁realidade	-9.30539
stância	-9.3055
▁inte	-9.30572
riz	-9.30578
ab	-9.3067
▁Depois	-9.30693
time	-9.30703
▁En	-9.30871
▁dúvida	-9.30875
▁conforme	-9.30974
cl	-9.30998
▁caminho	-9.31018
▁exercício	-9.3105
vez	-9.31065
▁decidi	-9.31066
▁expl	-9.31112
▁atendimento	-9.31189
▁instala	-9.31222
ntre	-9.31492
▁jurídic	-9.3152
elas	-9.316
ult	-9.31601
▁conjunto	-9.31637
fica	-9.31667
▁comple	-9.3173
essa	-9.31741
▁inform	-9.31773
aí	-9.31791
▁colo	-9.31803
▁venda	-9.31873
ban	-9.31971
rim	-9.32045
▁cli	-9.32059
pressão	-9.3213
▁parceria	-9.32143
sic	-9.32198
tário	-9.3226
▁partido	-9.32298
▁mul	-9.3236
▁Ge	-9.324
rias	-9.32409
leta	-9.32422
▁rela	-9.32586
▁jogador	-9.32605
▁Ri	-9.32638
▁demo	-9.32639
ete	-9.32717
▁competi	-9.32765
int	-9.32776
gado	-9.32844
▁comunicação	-9.3287
▁comprom	-9.32875
▁comb	-9.32998
▁Ad	-9.33
▁bri	-9.33047
▁disc	-9.3311
▁moto	-9.3314
▁liber	-9.33185
▁promove	-9.33227
▁bat	-9.33247
▁levar	-9.33249
lização	-9.33321
raça	-9.33417
▁contato	-9.3344
cidente	-9.3346
up	-9.33464
▁pequeno	-9.33491
▁identifica	-9.33566
▁diferença	-9.33577
Q	-9.33584
▁lança	-9.336
lhar	-9.33632
onta	-9.33657
hia	-9.33668
anda	-9.33693
gada	-9.33768
ecimento	-9.33768
▁informação	-9.3382
ificar	-9.33883
▁organiza	-9.33927
gentes	-9.34055
eio	-9.34104
▁descob	-9.3414
▁perd	-9.34148
▁El	-9.34323
▁inv	-9.34355
ud	-9.34366
ment	-9.3438
▁sustent	-9.34404
▁compet	-9.34468
stas	-9.34488
eb	-9.34488
▁adequa	-9.34528
▁participar	-9.3464
▁usuário	-9.34881
▁defesa	-9.34916
▁realmente	-9.34916
▁lembra	-9.35151
era	-9.35158
tualmente	-9.35182
▁conhecido	-9.35202
ís	-9.35291
tão	-9.35309
▁fre	-9.35315
▁dist	-9.3532
▁sei	-9.35351
▁inclusive	-9.35367
ião	-9.35391
▁prepara	-9.35549
log	-9.35659
▁contrato	-9.35699
▁realização	-9.35731
▁comp	-9.35743
gente	-9.35762
▁sup	-9.35811
▁ce	-9.35827
agrad	-9.3586
▁sex	-9.35898
▁Social	-9.35955
jud	-9.35994
ografia	-9.36058
▁disputa	-9.36072
▁mora	-9.36176
▁priva	-9.36245
▁cas	-9.36295
édio	-9.36299
▁Santos	-9.36313
▁informa	-9.36399
▁internet	-9.36406
▁pens	-9.36484
▁popular	-9.36488
toria	-9.36525
▁natural	-9.36616
▁federal	-9.36624
▁atr	-9.36733
▁cidad	-9.36738
▁policia	-9.36798
▁aumenta	-9.36813
▁resposta	-9.36875
versão	-9.36882
iza	-9.36931
▁Ent	-9.37037
adeira	-9.37056
ocê	-9.37143
ró	-9.37153
▁estive	-9.37224
▁pri	-9.3739
gra	-9.37397
▁diante	-9.37453
lic	-9.37487
bit	-9.37492
▁Portug	-9.37492
▁resta	-9.37497
gir	-9.37615
▁consult	-9.3762
ná	-9.37692
ticos	-9.37797
▁específic	-9.37798
▁aspecto	-9.37805
ceu	-9.37815
▁verdadeir	-9.3787
esa	-9.37947
sign	-9.37951
ib	-9.38007
her	-9.38097
▁processos	-9.38166
ibi	-9.38193
▁acab	-9.38193
graf	-9.38225
one	-9.38247
ensão	-9.38362
var	-9.387
▁assina	-9.3882
mática	-9.38857
▁determina	-9.38865
ág	-9.38896
ara	-9.3891
▁legisla	-9.38925
▁sab	-9.39034
▁futebol	-9.3904
cu	-9.39097
▁estre	-9.39148
▁públicos	-9.39359
rgu	-9.39373
▁brasileiros	-9.39408
▁relat	-9.39537
ampeonato	-9.39729
▁consum	-9.39734
▁benefício	-9.39751
eno	-9.39828
tividade	-9.39886
▁Pre	-9.39985
▁mis	-9.40072
▁completa	-9.40156
ificado	-9.40188
ológica	-9.40208
stico	-9.40212
▁encontrar	-9.40239
ontem	-9.4026
▁quantidade	-9.40277
▁cara	-9.40364
ital	-9.4071
▁cer	-9.40728
▁pequena	-9.40815
uto	-9.40877
▁envolve	-9.40884
ior	-9.40895
cultura	-9.40951
velmente	-9.40982
esse	-9.40998
▁pol	-9.41148
▁natureza	-9.41213
▁confirm	-9.4122
▁desc	-9.41297
▁oficial	-9.41322
ral	-9.41508
ent	-9.41661
manda	-9.41687
ssões	-9.41706
▁aquela	-9.41806
onte	-9.4182
nú	-9.41943
▁inscri	-9.41959
rit	-9.41975
ini	-9.42015
mula	-9.42041
ixa	-9.42051
▁associa	-9.4206
eral	-9.42148
▁importantes	-9.42209
▁históric	-9.42231
▁professores	-9.42254
▁Cultura	-9.42262
▁unidade	-9.42284
▁políticas	-9.423
▁aparece	-9.42405
ez	-9.42449
acho	-9.42464
rir	-9.42492
ceita	-9.4255
▁ganha	-9.42575
▁pergunta	-9.42643
tem	-9.427
▁minutos	-9.42781
▁portugu	-9.42831
▁uni	-9.42835
▁hav	-9.42924
entemente	-9.42951
evolução	-9.43069
▁registro	-9.43087
▁bra	-9.43121
ocupa	-9.43147
▁apresent	-9.43266
▁escreve	-9.43349
▁Comissão	-9.43395
▁recente	-9.43484
W	-9.43505
riam	-9.43689
dora	-9.43722
▁ext	-9.43725
▁conteúdo	-9.43728
dução	-9.43749
▁porta	-9.4381
cola	-9.4382
ena	-9.43921
cina	-9.43973
▁reunião	-9.44051
ata	-9.44105
inhas	-9.44152
▁cresce	-9.44243
▁milh	-9.44408
▁América	-9.44457
▁diferente	-9.4448
ume	-9.44652
quei	-9.4466
▁Fu	-9.44674
▁chamado	-9.44757
té	-9.44813
▁espécie	-9.44871
elho	-9.44939
▁acredita	-9.44967
▁equi	-9.44974
▁motivo	-9.45011
ran	-9.45044
▁av	-9.45238
▁trabalha	-9.45259
dr	-9.45319
▁mé	-9.45356
itas	-9.45411
sico	-9.45638
▁aprova	-9.45673
▁conceito	-9.45686
▁deveria	-9.45721
cursos	-9.45799
ner	-9.45878
rg	-9.45905
residência	-9.46006
alto	-9.46136
labora	-9.46178
cto	-9.46198
▁real	-9.4623
▁dever	-9.46271
▁entrar	-9.46357
ugu	-9.4649
15	-9.46532
▁refer	-9.46581
▁ge	-9.46716
▁preocupa	-9.46723
quil	-9.46816
▁político	-9.46825
▁permite	-9.46851
▁clientes	-9.46887
▁internacional	-9.46998
▁confi	-9.4704
▁Ser	-9.47079
dura	-9.47152
ju	-9.47207
pla	-9.47262
nder	-9.47284
ard	-9.47293
▁conc	-9.47328
▁transforma	-9.47385
veis	-9.47442
01	-9.47449
▁muda	-9.47471
▁maio	-9.47485
cionado	-9.47589
lica	-9.47745
▁relacionad	-9.47758
riamente	-9.47913
pó	-9.48032
▁defende	-9.48144
▁exclusiv	-9.48193
▁ind	-9.48252
▁class	-9.48316
▁disp	-9.48317
▁compr	-9.4834
▁Prefeitura	-9.48425
enta	-9.48427
lor	-9.48435
anos	-9.4846
▁setembro	-9.48465
▁orig	-9.48475
tudo	-9.48482
oc	-9.48494
▁transporte	-9.4852
▁cul	-9.48521
▁outubro	-9.4868
zi	-9.48746
▁gost	-9.48849
alha	-9.49141
nio	-9.49221
cra	-9.49255
ndustria	-9.49267
osso	-9.49413
▁dezembro	-9.49475
▁afirmou	-9.49502
cada	-9.49551
ign	-9.49594
▁ação	-9.49652
▁Ci	-9.49663
erá	-9.49687
ach	-9.49696
▁Estadual	-9.49697
stro	-9.49712
reto	-9.49734
ún	-9.49748
vid	-9.49749
inal	-9.49886
▁colocar	-9.49916
mã	-9.49918
▁Presidente	-9.49919
▁substitu	-9.49982
dica	-9.50054
vos	-9.50094
▁Min	-9.50154
▁mant	-9.50228
▁Sen	-9.50233
lan	-9.50275
quis	-9.50298
culos	-9.50332
rança	-9.50353
▁of	-9.50572
vas	-9.5061
sica	-9.50645
▁cidades	-9.50668
▁paga	-9.50738
▁acess	-9.50813
▁governador	-9.50977
▁Pi	-9.50988
ato	-9.51012
▁República	-9.51043
encial	-9.51086
▁lembr	-9.5109
▁fer	-9.51095
▁Ale	-9.51207
vent	-9.51223
vidência	-9.51317
▁aquele	-9.5132
lig	-9.51442
▁publica	-9.51658
▁econômica	-9.51771
▁Si	-9.51783
ude	-9.51822
ardo	-9.51843
▁capa	-9.5186
▁interior	-9.51985
▁disponíve	-9.51986
tion	-9.52014
▁palavras	-9.52034
melh	-9.52054
can	-9.52137
▁aqueles	-9.52178
▁bu	-9.52226
cial	-9.52248
anho	-9.52353
turas	-9.52573
ed	-9.52607
corrente	-9.52612
▁particular	-9.52633
▁cuidado	-9.52659
rge	-9.52666
ídi	-9.52695
mica	-9.527
terior	-9.52744
eito	-9.52751
iga	-9.52772
▁rece	-9.52806
▁jur	-9.5281
coração	-9.52891
▁criança	-9.529
▁partida	-9.5291
lh	-9.52945
lores	-9.52971
▁objet	-9.53082
▁consumidor	-9.5332
utor	-9.5333
luta	-9.53341
▁apresentar	-9.53379
▁avaliação	-9.53393
▁fun	-9.53407
▁jornal	-9.53428
▁At	-9.53431
▁vereador	-9.53457
si	-9.53472
▁enf	-9.53511
▁personage	-9.5356
▁nu	-9.53601
responsabilidade	-9.53636
ativas	-9.5365
▁Tr	-9.53656
▁recomend	-9.5366
▁Trabalho	-9.53747
ecer	-9.5391
tadas	-9.53914
▁Rec	-9.5407
tamento	-9.54073
ani	-9.54119
▁gar	-9.54209
▁perf	-9.54306
rig	-9.54422
eve	-9.5459
▁amb	-9.54772
forç	-9.54792
▁previst	-9.54818
▁fundamental	-9.54886
minar	-9.54923
leitoral	-9.54948
▁investiga	-9.54999
▁pl	-9.55014
ivos	-9.5504
posta	-9.5507
▁Ed	-9.55076
aço	-9.55093
▁iniciativa	-9.55117
▁anti	-9.55172
liv	-9.55186
▁utilizado	-9.5528
▁Regi	-9.55288
▁secretário	-9.55308
▁admi	-9.55393
op	-9.55415
teria	-9.55498
▁questões	-9.55509
▁começar	-9.55547
▁entr	-9.55614
▁Paul	-9.55777
▁caminh	-9.55799
▁investi	-9.55826
ixo	-9.5585
scola	-9.55884
ciais	-9.55936
▁novembro	-9.55979
▁trein	-9.5599
▁instituições	-9.56039
▁continu	-9.56068
▁esca	-9.56075
▁públicas	-9.56143
lam	-9.56153
▁escrito	-9.56178
lado	-9.56213
não	-9.56223
let	-9.56334
▁Ag	-9.56436
▁Gera	-9.56513
nes	-9.5658
operação	-9.56581
▁administração	-9.56642
▁respectiv	-9.56709
▁Tra	-9.56722
▁pretend	-9.56724
▁avalia	-9.56749
▁carreira	-9.56857
▁familiar	-9.56904
nel	-9.56975
tidos	-9.56983
▁entrega	-9.56991
▁form	-9.57045
▁pratica	-9.57089
ística	-9.57166
dar	-9.5724
▁destin	-9.57345
rial	-9.57418
dade	-9.57503
▁conhecer	-9.57513
▁posi	-9.57574
▁entender	-9.57595
▁trabalhadores	-9.57614
cidade	-9.57665
▁Associação	-9.57747
nce	-9.57774
revista	-9.57817
▁especialmente	-9.57929
▁aplicação	-9.58088
▁loca	-9.58089
▁segu	-9.58264
len	-9.584
▁estabelece	-9.58405
minação	-9.58432
▁ocorr	-9.58464
▁tam	-9.58467
▁destaca	-9.58546
▁aut	-9.58548
▁Brasília	-9.5856
▁mat	-9.58613
ôn	-9.58641
▁comentário	-9.58697
▁prim	-9.58756
▁interessante	-9.5897
alização	-9.5905
inos	-9.59107
dir	-9.59251
mbiental	-9.59252
correr	-9.59259
▁orienta	-9.59286
▁olh	-9.59454
anco	-9.59576
▁recupera	-9.59651
▁liberdade	-9.59875
nciamento	-9.59916
cele	-9.59932
▁permane	-9.59993
ola	-9.60028
▁trabalhar	-9.60045
▁enca	-9.6005
bel	-9.60068
▁estadual	-9.60114
▁realiza	-9.60116
istema	-9.60145
ática	-9.60335
▁municípios	-9.60357
ant	-9.60394
tivamente	-9.60424
▁promo	-9.60468
▁presta	-9.60481
▁cre	-9.60491
▁id	-9.60496
mentar	-9.60772
tric	-9.60823
nde	-9.60827
tista	-9.60852
dição	-9.60912
od	-9.60933
▁Qua	-9.61073
▁desempenho	-9.61127
ilhões	-9.61148
xe	-9.61307
▁possu	-9.61388
▁control	-9.61483
▁Ce	-9.61484
ob	-9.61486
dão	-9.61559
▁Brasileiro	-9.61595
▁entra	-9.61595
▁disposi	-9.61624
▁comemora	-9.61654
▁candidato	-9.61701
▁fin	-9.61753
emb	-9.61899
▁conquista	-9.62028
▁Públic	-9.62078
anto	-9.62147
lio	-9.62186
dá	-9.62217
rt	-9.62224
atro	-9.62246
▁conse	-9.62256
▁marc	-9.62267
udo	-9.62281
▁relativ	-9.62308
▁consider	-9.62333
▁cob	-9.62376
▁elemento	-9.62493
▁municipa	-9.62546
....	-9.62586
▁Dire	-9.62734
▁trabalhos	-9.62823
▁demonstra	-9.62828
▁indústria	-9.62973
como	-9.6305
▁enfrenta	-9.63181
usado	-9.63355
▁autoridade	-9.63365
str	-9.63406
▁propriedade	-9.63462
▁ben	-9.63463
ritório	-9.63484
equência	-9.63525
▁Brasileira	-9.63563
uc	-9.63602
taque	-9.63602
▁cris	-9.63685
▁manifesta	-9.637
▁mostr	-9.63741
▁primeiros	-9.63743
aud	-9.63793
▁quart	-9.64064
▁centr	-9.64201
tida	-9.64276
rido	-9.64334
afi	-9.6441
▁Inter	-9.64526
cido	-9.64555
nsão	-9.64626
▁volt	-9.64784
▁cab	-9.64956
▁gest	-9.64973
▁apresentado	-9.65091
▁compar	-9.65143
▁programas	-9.65171
▁viol	-9.65261
▁conseguir	-9.65289
vesti	-9.65292
mais	-9.65301
gresso	-9.65402
▁depende	-9.65595
bras	-9.65631
uns	-9.65633
▁companh	-9.65678
enção	-9.65682
▁Francisco	-9.65701
du	-9.65785
zer	-9.65791
usar	-9.65802
media	-9.65825
▁comercial	-9.65854
▁or	-9.65867
▁vin	-9.65935
▁terceiro	-9.65954
▁fina	-9.65967
▁levan	-9.65994
▁econômico	-9.66044
▁Desenvolvimento	-9.66087
amentos	-9.6631
▁conversa	-9.66327
▁impress	-9.66335
pul	-9.66356
nário	-9.66583
▁despe	-9.66639
▁violência	-9.66721
▁constante	-9.66793
▁Internacional	-9.66795
ncer	-9.66855
▁aconteceu	-9.66859
▁características	-9.66889
sito	-9.66956
regular	-9.67041
▁localizad	-9.67041
mor	-9.67066
egional	-9.67082
ngresso	-9.67096
▁situa	-9.67194
iros	-9.67282
▁consegu	-9.67334
▁refor	-9.67343
lares	-9.67356
▁complet	-9.67401
timo	-9.67538
tora	-9.67735
dito	-9.67796
▁pert	-9.67936
rog	-9.67941
▁reconhec	-9.68013
▁aproxima	-9.68024
feitos	-9.68026
▁responde	-9.68139
smo	-9.68222
ot	-9.68288
▁impl	-9.68313
▁experi	-9.68346
nc	-9.6839
▁jornalista	-9.68398
▁pont	-9.68483
▁considerado	-9.68484
▁exter	-9.68491
▁contrário	-9.68534
▁passage	-9.68626
▁indivíduo	-9.68666
pon	-9.68694
▁altera	-9.68788
▁exerc	-9.68827
ativo	-9.6884
ença	-9.68845
▁cliente	-9.68848
▁refere	-9.68908
nismo	-9.68926
ide	-9.69003
disciplina	-9.69029
stos	-9.69236
gados	-9.69252
▁ferramenta	-9.69462
▁analisa	-9.69503
roc	-9.6958
▁temporada	-9.69633
ndr	-9.6968
corrência	-9.69689
fr	-9.69707
▁mens	-9.69826
▁sof	-9.70093
sal	-9.70104
aneiro	-9.70227
▁referência	-9.70331
▁abert	-9.70344
▁palavra	-9.70388
▁documentos	-9.70456
▁alimentos	-9.7049
▁eletrônic	-9.70527
ect	-9.70584
▁realiz	-9.70678
ug	-9.70849
▁elabora	-9.70856
eração	-9.70911
▁atende	-9.70943
▁científic	-9.70999
rmos	-9.71017
ãos	-9.7109
mic	-9.71105
cida	-9.71189
gamento	-9.71221
▁existência	-9.71259
riedade	-9.71332
gress	-9.71399
estrutura	-9.7143
iv	-9.71464
estra	-9.715
bro	-9.71522
▁Cont	-9.71604
▁hom	-9.71674
▁políticos	-9.71703
▁instrumento	-9.71766
ssas	-9.71807
▁materiais	-9.71936
ust	-9.72001
▁concor	-9.72018
▁lançamento	-9.72076
▁apare	-9.72229
▁Edu	-9.72252
▁funcionários	-9.72259
apa	-9.72279
tários	-9.72317
cular	-9.72319
▁ale	-9.72422
motor	-9.72505
▁servidores	-9.72567
▁lega	-9.72587
izada	-9.72652
rios	-9.72724
▁escrit	-9.72737
▁divulg	-9.72851
just	-9.72993
ntas	-9.72996
hou	-9.73005
ório	-9.73018
mbo	-9.73033
iar	-9.73112
▁seg	-9.73117
anha	-9.7316
▁manutenção	-9.73247
▁financeira	-9.73247
nidade	-9.7329
dici	-9.73374
scri	-9.73461
▁correspond	-9.73481
ovação	-9.73483
▁passo	-9.73532
fas	-9.73691
▁comportamento	-9.73771
▁aprov	-9.7378
cado	-9.7379
cima	-9.73813
est	-9.73884
sporte	-9.73938
rida	-9.73955
▁Fr	-9.73997
ss	-9.74048
tério	-9.74106
▁prom	-9.74116
tis	-9.74144
fic	-9.7416
▁terceir	-9.74296
tenção	-9.74348
▁utilização	-9.7438
▁alternativ	-9.74431
▁esper	-9.74479
edor	-9.74483
fil	-9.74502
▁Bra	-9.74532
▁interna	-9.74551
▁estratégia	-9.74629
▁apresentação	-9.74741
nhos	-9.74793
dri	-9.74817
▁son	-9.74819
▁desa	-9.74931
mul	-9.74976
avi	-9.74983
mon	-9.75031
▁equipamentos	-9.7504
▁declara	-9.75194
lanejamento	-9.75195
▁espe	-9.75269
itor	-9.75294
▁publicad	-9.75316
▁registra	-9.75381
ngu	-9.75384
abe	-9.75413
▁joga	-9.75519
▁alimenta	-9.75602
plo	-9.75638
▁necessária	-9.75813
▁educa	-9.75927
rra	-9.7597
poli	-9.75989
ever	-9.76051
urg	-9.76056
eg	-9.7607
culdade	-9.76215
ip	-9.76258
ingu	-9.7627
▁segur	-9.76286
▁estudantes	-9.76293
▁amig	-9.764
▁empresário	-9.76414
▁impr	-9.76446
▁Santo	-9.76461
art	-9.76524
▁conhece	-9.76543
lei	-9.76797
dados	-9.76799
ins	-9.76986
▁prest	-9.77055
▁ness	-9.7716
ion	-9.77197
▁apoi	-9.77213
nces	-9.77344
▁candidatos	-9.77369
entos	-9.77398
▁estran	-9.7743
nsa	-9.77568
mé	-9.77572
▁computador	-9.77683
▁especialista	-9.77949
▁independente	-9.78027
cula	-9.78045
erta	-9.78068
▁suficiente	-9.78169
abor	-9.78241
americano	-9.7832
▁camp	-9.78346
nuncia	-9.78365
xecutiv	-9.78397
▁edi	-9.78402
rico	-9.78436
prim	-9.78457
una	-9.7852
end	-9.78523
▁process	-9.78572
todo	-9.78761
nião	-9.78817
▁american	-9.78822
gor	-9.78877
uito	-9.78974
▁instituição	-9.79064
▁trabalh	-9.79166
▁condu	-9.7917
dez	-9.79242
adr	-9.79296
▁proporciona	-9.7931
con	-9.79338
▁execut	-9.79402
▁tent	-9.79408
▁San	-9.7947
▁consta	-9.79481
ério	-9.79512
▁dez	-9.79541
▁diretamente	-9.79543
▁determinad	-9.79572
▁servi	-9.79578
▁ante	-9.79585
utro	-9.79595
▁pos	-9.79598
▁junt	-9.79622
ximo	-9.79636
▁Constituição	-9.79723
iti	-9.79868
▁produ	-9.79935
cion	-9.7997
ser	-9.79976
cante	-9.7998
presidente	-9.80061
tec	-9.80081
imentos	-9.80131
gora	-9.80187
bilidade	-9.80272
ece	-9.80293
▁compreend	-9.80483
▁image	-9.80497
solu	-9.80504
▁precisam	-9.80581
ati	-9.8085
tras	-9.80878
▁entend	-9.80909
▁blo	-9.80941
asse	-9.80982
▁procur	-9.81372
▁integr	-9.81401
▁pen	-9.81521
▁desenvolver	-9.81554
rb	-9.81571
▁espec	-9.81588
preende	-9.81644
rupo	-9.81702
▁particip	-9.81716
uração	-9.81717
acional	-9.81743
▁pensamento	-9.81763
▁importa	-9.81774
volu	-9.81851
utra	-9.8186
▁oper	-9.8188
nhas	-9.81933
▁financeiro	-9.81947
fra	-9.82006
▁transmi	-9.82083
▁diferencia	-9.82146
▁esco	-9.82148
eça	-9.82168
ota	-9.8217
▁inclu	-9.82195
▁desen	-9.82284
▁necessidades	-9.82322
nização	-9.82323
abri	-9.82445
rea	-9.82446
lação	-9.82692
▁decis	-9.82711
tân	-9.82758
▁fest	-9.82912
▁un	-9.83126
peti	-9.83302
▁origina	-9.83428
bli	-9.83514
tid	-9.8352
▁cent	-9.83556
▁coloc	-9.83583
ega	-9.83632
íli	-9.83709
ble	-9.83755
api	-9.8381
tens	-9.83873
▁benef	-9.83907
gação	-9.83927
tantes	-9.84097
nga	-9.841
▁ado	-9.8417
rd	-9.84239
ef	-9.84275
ici	-9.84278
corre	-9.84365
▁ent	-9.84528
nca	-9.84581
ont	-9.84764
gal	-9.84842
rí	-9.84857
▁encontr	-9.84898
texto	-9.84952
sumi	-9.84962
ilh	-9.85039
▁explic	-9.85046
cionar	-9.85069
feri	-9.85095
▁caracter	-9.85116
▁desenvolve	-9.85199
amb	-9.85208
ativos	-9.85237
▁homen	-9.85267
erior	-9.85287
▁hum	-9.85289
ogado	-9.85328
▁adolescente	-9.8549
cret	-9.85536
of	-9.85779
▁continuar	-9.85792
gens	-9.85801
▁ace	-9.85831
▁espa	-9.85844
ime	-9.85888
tua	-9.85902
ndic	-9.86036
rup	-9.8608
▁representantes	-9.86167
tuação	-9.86178
▁mort	-9.86203
fund	-9.86222
sco	-9.8631
▁jog	-9.86405
dic	-9.86444
▁documento	-9.86531
▁solicita	-9.8656
mentação	-9.86602
utr	-9.86602
cad	-9.86712
biliza	-9.86758
ai	-9.86765
ui	-9.86778
▁mem	-9.86831
▁cam	-9.86849
▁ár	-9.86899
▁destina	-9.86907
porte	-9.87049
lit	-9.87229
usa	-9.87425
ons	-9.8756
land	-9.8758
rgi	-9.87596
rojeto	-9.87614
pre	-9.87669
ten	-9.87739
▁oferec	-9.87804
bast	-9.87967
sia	-9.87984
iado	-9.88039
etro	-9.88071
dido	-9.88107
ural	-9.8812
erv	-9.88134
▁qui	-9.88174
au	-9.88237
▁rea	-9.88448
▁apar	-9.88478
▁ensin	-9.88499
eus	-9.88563
ulação	-9.88805
▁observ	-9.88849
ilidade	-9.88854
seu	-9.88873
▁sete	-9.8902
eo	-9.89111
▁mensa	-9.89193
▁alter	-9.89248
▁Departamento	-9.89296
▁filh	-9.89305
ecido	-9.89308
▁prec	-9.89327
imo	-9.8939
itação	-9.8954
▁cir	-9.89542
ambém	-9.89566
icial	-9.89589
lano	-9.89612
▁chamad	-9.89637
undo	-9.89677
▁Administração	-9.89786
ique	-9.89837
▁ri	-9.9003
nheiro	-9.90194
ses	-9.90252
rando	-9.90338
gina	-9.90373
▁ame	-9.90448
▁Cam	-9.90456
▁descon	-9.90471
terra	-9.90595
tira	-9.90602
▁participa	-9.90615
▁Ger	-9.90698
▁lig	-9.9088
tenci	-9.9098
mental	-9.91016
cios	-9.91032
▁recurso	-9.91054
lamenta	-9.91077
cente	-9.91211
çar	-9.91229
▁tradicional	-9.91288
scul	-9.91307
icar	-9.91459
▁estra	-9.91776
▁declar	-9.91822
ame	-9.92104
ep	-9.92148
rros	-9.92176
tí	-9.9221
unda	-9.92227
deira	-9.92338
eia	-9.9263
▁ofer	-9.92726
quin	-9.92738
voca	-9.9274
▁investimentos	-9.92871
▁el	-9.92912
mina	-9.92931
endimento	-9.92961
▁sent	-9.93012
só	-9.93079
cal	-9.93131
▁distribuição	-9.93244
egislativ	-9.93291
ron	-9.93473
ficiente	-9.93481
▁prepar	-9.93657
peração	-9.93663
▁estud	-9.93668
osos	-9.9378
ç	-9.93801
vou	-9.94023
▁treina	-9.94099
iram	-9.94156
▁interessa	-9.94275
feito	-9.94283
▁á	-9.94357
▁lanç	-9.94461
▁indi	-9.94494
into	-9.94609
har	-9.94614
▁temp	-9.94717
erro	-9.94845
uras	-9.94893
men	-9.94949
cus	-9.94978
▁leit	-9.95106
entral	-9.95114
alv	-9.95248
essas	-9.95391
▁.	-9.95426
▁simplesmente	-9.95449
briga	-9.95636
dada	-9.95669
ício	-9.95724
rom	-9.95815
▁respeit	-9.95875
▁tre	-9.95936
▁cham	-9.95984
▁pare	-9.96009
mico	-9.96033
iência	-9.96102
▁assu	-9.96173
▁med	-9.96278
if	-9.96364
▁colet	-9.96513
pes	-9.96566
▁Gra	-9.96695
ender	-9.96704
▁classifica	-9.96799
unidades	-9.96834
▁individua	-9.96926
mer	-9.96963
lid	-9.97097
▁pag	-9.97107
rigi	-9.97126
▁prot	-9.9738
▁quest	-9.97502
lida	-9.97555
▁subs	-9.97751
rac	-9.97781
dra	-9.97845
zar	-9.97849
aç	-9.97864
loc	-9.9788
ficiência	-9.97909
ogo	-9.97994
stão	-9.98004
iliar	-9.98059
▁dificuldades	-9.98131
▁desenvolvido	-9.9816
rap	-9.98213
final	-9.98319
▁estabelecid	-9.98397
esquisa	-9.98415
▁Comp	-9.98534
rre	-9.98558
ade	-9.98579
igos	-9.98631
▁tend	-9.98779
▁disponibiliz	-9.98783
cidos	-9.98801
▁interpreta	-9.98812
▁funcionamento	-9.99002
▁desp	-9.99061
reira	-9.99076
ístic	-9.99159
▁pouc	-9.99174
oder	-9.99361
arem	-9.99362
are	-9.99424
vado	-9.99489
▁mes	-9.99489
tan	-9.9949
sentado	-9.99605
tagem	-9.99707
▁confe	-9.99716
▁met	-9.99812
▁participantes	-9.99831
▁diver	-9.99941
rtes	-10.0001
oni	-10.0009
ote	-10.0018
spectiva	-10.0026
rista	-10.0037
▁am	-10.004
▁cust	-10.0042
ian	-10.0042
entar	-10.0057
cou	-10.0062
enci	-10.0067
ist	-10.0077
cri	-10.0081
aqui	-10.0083
▁motiv	-10.0092
Se	-10.01
ris	-10.0101
çam	-10.0118
ld	-10.012
ue	-10.0124
bili	-10.0127
ualmente	-10.0128
parti	-10.014
enas	-10.0142
lógica	-10.0144
rais	-10.0145
eix	-10.0149
cimento	-10.016
erna	-10.0165
nista	-10.0169
lat	-10.018
erança	-10.0192
▁Pol	-10.0199
taria	-10.0206
olícia	-10.0208
ice	-10.0224
▁plane	-10.0225
seguir	-10.024
▁abr	-10.0251
▁indic	-10.0264
▁tant	-10.0276
quele	-10.0278
icidade	-10.0284
▁inde	-10.0286
uel	-10.0286
▁pesquisador	-10.0291
▁rest	-10.0292
▁internacionais	-10.0294
azer	-10.0298
zen	-10.0301
▁utiliz	-10.0302
▁relacionamento	-10.0308
mun	-10.0311
reve	-10.0311
gri	-10.0311
▁ren	-10.0315
essão	-10.0333
nica	-10.034
▁destac	-10.0341
age	-10.0345
izando	-10.0347
▁acontec	-10.0364
partamento	-10.0365
▁ajud	-10.0372
▁basta	-10.0377
pin	-10.0386
▁acompanh	-10.0394
▁jun	-10.0405
arte	-10.041
▁comunica	-10.0411
gia	-10.0414
parecer	-10.0415
ego	-10.0425
positivo	-10.043
pensa	-10.0439
ial	-10.0455
mba	-10.0465
▁acredit	-10.0468
ers	-10.0473
erno	-10.0473
▁ret	-10.048
▁institu	-10.048
tó	-10.048
ompanhia	-10.0492
▁pel	-10.0504
▁significativ	-10.0504
constitucional	-10.0526
ife	-10.0528
colh	-10.0538
deste	-10.0538
av	-10.055
nquanto	-10.0552
▁transform	-10.0554
ama	-10.0576
ence	-10.0581
▁responsáve	-10.0583
▁ú	-10.0587
▁promov	-10.0587
nso	-10.0593
net	-10.0601
alc	-10.0603
ende	-10.0603
▁impos	-10.0605
▁procedimentos	-10.0616
pol	-10.0619
egurança	-10.0635
ét	-10.0652
nais	-10.0652
▁direto	-10.0656
mbi	-10.0666
sul	-10.0666
eses	-10.0677
fia	-10.0688
star	-10.0689
▁Ap	-10.069
ilho	-10.0708
▁empre	-10.0709
izados	-10.0719
anças	-10.0719
▁investimento	-10.0721
▁ato	-10.073
▁estr	-10.0732
rr	-10.0738
dado	-10.074
ntrada	-10.0743
çamento	-10.0745
▁tran	-10.0754
den	-10.0758
ncial	-10.0767
▁soluç	-10.077
▁aproveita	-10.0784
▁lim	-10.0784
arga	-10.0795
▁jorna	-10.0797
▁moviment	-10.0807
▁parce	-10.081
stru	-10.0813
inação	-10.0814
▁atu	-10.0818
uação	-10.0822
ate	-10.0831
ndas	-10.0832
sor	-10.0844
▁alt	-10.0845
oje	-10.0872
▁especializad	-10.0886
lada	-10.0886
rados	-10.0897
▁especi	-10.0909
éri	-10.0918
sos	-10.0918
berta	-10.0919
sou	-10.0931
planta	-10.0932
adamente	-10.0938
pt	-10.0949
▁ama	-10.0952
sc	-10.0957
tações	-10.0981
▁contrat	-10.0987
rcio	-10.0992
rej	-10.0995
▁estuda	-10.1032
act	-10.1033
▁document	-10.1042
olha	-10.105
estão	-10.1062
fl	-10.1071
gou	-10.1074
rot	-10.1081
▁intern	-10.1084
▁carg	-10.1093
iados	-10.1099
logia	-10.1114
tic	-10.1121
rma	-10.1124
vido	-10.1141
taram	-10.1158
▁poli	-10.1159
nci	-10.1169
ítica	-10.1173
erem	-10.1174
edi	-10.1203
uni	-10.1211
▁estabelecimento	-10.1213
su	-10.1217
vidas	-10.1219
efesa	-10.1229
▁compara	-10.1243
tava	-10.1246
ren	-10.1257
ale	-10.1258
uência	-10.126
▁condi	-10.1261
cent	-10.1261
metro	-10.1263
â	-10.1294
ôm	-10.1298
▁garant	-10.1302
conhecida	-10.1323
▁aplic	-10.1333
ranc	-10.1333
oração	-10.1338
▁planeja	-10.1343
▁manifest	-10.1348
ceb	-10.1351
çado	-10.1368
erg	-10.1368
ea	-10.1368
▁redu	-10.137
festa	-10.1374
nôm	-10.1382
sí	-10.1385
minu	-10.1393
▁ten	-10.1396
▁eleitor	-10.1407
▁impre	-10.1416
▁comercia	-10.1418
etas	-10.1421
endência	-10.1435
▁Assi	-10.1438
enho	-10.144
preend	-10.1455
▁vá	-10.1457
nsino	-10.1463
enso	-10.1466
▁cond	-10.1469
ech	-10.1471
cionamento	-10.1476
▁direta	-10.1478
ulo	-10.1479
iciais	-10.1487
lina	-10.1488
uição	-10.1489
▁esqu	-10.1492
ile	-10.1498
▁mud	-10.1498
aga	-10.1511
orme	-10.1518
▁emb	-10.1521
▁instal	-10.1532
nico	-10.1534
err	-10.1546
aís	-10.1566
lidades	-10.1568
ortal	-10.1592
stu	-10.1596
bas	-10.1612
rin	-10.1613
imin	-10.1614
▁event	-10.1632
▁determin	-10.1633
▁resulta	-10.1641
rece	-10.1643
eto	-10.1645
stica	-10.1647
▁conte	-10.166
uperior	-10.1661
sses	-10.1664
ltura	-10.1666
nin	-10.1698
▁nove	-10.1699
▁prefe	-10.1701
rda	-10.1705
nato	-10.1725
uri	-10.1731
▁Fer	-10.1732
▁entende	-10.1753
cionada	-10.1755
gador	-10.1757
lv	-10.1759
ibilidade	-10.176
▁dificuldade	-10.1762
▁mode	-10.1766
Não	-10.1772
uca	-10.1772
anti	-10.178
▁emp	-10.1784
mbiente	-10.1786
▁fot	-10.1786
ustr	-10.1797
dim	-10.1802
▁perce	-10.1809
▁possibili	-10.1809
▁apre	-10.1811
vers	-10.1838
dação	-10.1842
ficial	-10.1847
ítulo	-10.1848
bé	-10.1848
corpo	-10.185
ocar	-10.1875
bil	-10.1883
ntemente	-10.1888
gent	-10.1893
▁envolvi	-10.1896
met	-10.1907
▁carre	-10.1908
▁aproveit	-10.191
sol	-10.1942
▁administrativa	-10.1944
▁conve	-10.1953
ern	-10.1956
levant	-10.1968
▁direit	-10.1968
▁mante	-10.1973
▁candidat	-10.1988
▁confor	-10.2016
osto	-10.2016
ntos	-10.203
alh	-10.2044
minado	-10.205
lis	-10.2051
mia	-10.2053
eço	-10.2061
pera	-10.2066
ulares	-10.2067
ús	-10.2068
ticamente	-10.2073
refeitura	-10.2076
feita	-10.21
presa	-10.21
linha	-10.2124
▁aliment	-10.2127
af	-10.2127
▁compos	-10.2131
vant	-10.2135
onal	-10.214
cando	-10.2158
stre	-10.2164
visto	-10.2171
▁criad	-10.2173
pos	-10.2197
quela	-10.22
eli	-10.2203
spe	-10.2211
ár	-10.2219
ciona	-10.2232
eria	-10.2235
cord	-10.2246
▁perman	-10.2252
plica	-10.2257
▁estratégi	-10.226
▁arti	-10.226
nças	-10.2261
itora	-10.2262
inar	-10.2263
remo	-10.2268
▁administra	-10.227
ans	-10.2299
▁comun	-10.2303
pu	-10.2311
uco	-10.2312
sti	-10.2318
▁rem	-10.2325
▁federa	-10.2325
▁previ	-10.2344
▁origin	-10.2347
áticas	-10.2349
vem	-10.2357
ientes	-10.2358
omb	-10.2364
deu	-10.2382
éria	-10.2388
▁fic	-10.2394
▁compro	-10.2395
▁cuida	-10.2404
▁dura	-10.241
orar	-10.2413
ind	-10.2419
ejam	-10.242
pat	-10.2427
▁govern	-10.2431
vil	-10.2431
tador	-10.2433
bran	-10.2445
▁proprie	-10.2451
unicípio	-10.2456
ivas	-10.2459
icul	-10.2459
rol	-10.2464
tempor	-10.2478
iências	-10.2482
iada	-10.2484
▁utilizad	-10.2485
ess	-10.2487
▁aluno	-10.25
radas	-10.2503
▁começo	-10.2507
▁capaci	-10.2512
nacionais	-10.2518
itado	-10.2537
paga	-10.254
vação	-10.2543
istente	-10.2559
▁procedimento	-10.2566
▁persona	-10.2566
conhecimento	-10.257
nada	-10.2593
fim	-10.2594
▁ofici	-10.2605
neiro	-10.2619
▁voc	-10.2622
ustiça	-10.2622
enha	-10.2628
eter	-10.2634
rações	-10.2637
▁is	-10.2641
estim	-10.2643
oto	-10.2645
duzid	-10.2647
bor	-10.2649
▁administrativ	-10.2657
olo	-10.2664
termina	-10.2678
ecnologia	-10.2686
caminha	-10.2687
funda	-10.2716
labor	-10.2716
▁séri	-10.2716
▁Segu	-10.2717
▁faze	-10.2719
siva	-10.2725
▁elei	-10.2726
mplementa	-10.2727
▁objetiv	-10.2739
mada	-10.2744
aca	-10.2746
dida	-10.2779
istória	-10.278
abel	-10.2784
▁on	-10.2784
▁cient	-10.2786
icia	-10.2788
cade	-10.279
tendimento	-10.2797
rante	-10.2799
▁produz	-10.2811
▁eleito	-10.2817
cias	-10.2818
ater	-10.2819
▁Franc	-10.2821
isti	-10.2825
eceu	-10.2832
▁Mari	-10.2836
íti	-10.2838
cerca	-10.2846
cí	-10.2848
ntou	-10.285
dência	-10.285
mat	-10.2869
mag	-10.287
hora	-10.2874
inári	-10.2884
deia	-10.2891
segura	-10.2911
ric	-10.2912
tadores	-10.2913
▁sec	-10.2923
ov	-10.295
cendo	-10.2967
itu	-10.2967
gan	-10.2971
íni	-10.2995
eis	-10.3009
miss	-10.3009
sur	-10.3016
▁cami	-10.3048
fíci	-10.3062
scal	-10.3062
▁aten	-10.3072
guar	-10.3074
tros	-10.308
ific	-10.3089
sf	-10.3092
eri	-10.3098
▁necessi	-10.3099
▁trabalhador	-10.3102
lismo	-10.3104
tência	-10.3105
tre	-10.3109
aix	-10.3114
ntem	-10.3124
cesso	-10.3125
lim	-10.3125
ene	-10.3126
tante	-10.3127
▁Reg	-10.3128
▁propor	-10.3131
▁segura	-10.3148
screve	-10.3149
viv	-10.3156
▁compreen	-10.3158
ldade	-10.3158
fre	-10.3158
radic	-10.3164
onomia	-10.3165
centes	-10.3171
▁médic	-10.3177
tativa	-10.3206
▁anim	-10.3212
colo	-10.3215
rita	-10.3236
▁rev	-10.3239
▁organiz	-10.3239
urso	-10.3256
▁registr	-10.3259
utores	-10.3259
ane	-10.326
▁fundament	-10.3262
▁Un	-10.3263
▁equipa	-10.3273
eficiência	-10.3282
iais	-10.3284
cen	-10.3292
sição	-10.3302
gura	-10.3303
radi	-10.3322
valo	-10.3327
arg	-10.3328
fício	-10.3332
alidades	-10.3368
propri	-10.3377
cana	-10.3386
▁Cons	-10.3389
▁fundamenta	-10.3389
ple	-10.3394
dentes	-10.3402
▁natura	-10.3412
rne	-10.3415
▁coordena	-10.3419
▁hist	-10.3432
esmo	-10.3438
▁nov	-10.3467
isão	-10.3482
baix	-10.349
inta	-10.3491
diante	-10.3495
rodução	-10.3499
ham	-10.3528
terna	-10.353
lações	-10.3533
▁contrata	-10.3533
serva	-10.354
itári	-10.354
bert	-10.3541
estiv	-10.3547
cident	-10.3549
iso	-10.356
▁expo	-10.3572
▁org	-10.3577
lizar	-10.3589
iste	-10.3592
nado	-10.3594
▁tecn	-10.3596
ssi	-10.3625
ridade	-10.3632
rador	-10.3636
alizado	-10.364
▁contin	-10.3647
assina	-10.3655
▁fam	-10.3656
han	-10.3664
Que	-10.3665
stra	-10.3666
pro	-10.3668
rganização	-10.3672
termin	-10.3697
ífic	-10.3699
iversidade	-10.3703
amar	-10.3709
▁pod	-10.3714
ecisão	-10.3727
riva	-10.3734
ipe	-10.3748
▁parec	-10.375
melho	-10.3753
urado	-10.3753
tei	-10.3764
▁organizad	-10.3765
▁din	-10.3773
▁analis	-10.378
ulos	-10.3785
cialmente	-10.3788
Com	-10.3794
ave	-10.3808
lico	-10.3816
nham	-10.3816
manhã	-10.3827
ngo	-10.3837
▁identific	-10.3863
iação	-10.3872
iri	-10.3878
nivers	-10.3878
todos	-10.3887
vada	-10.3891
vendo	-10.3893
vin	-10.3896
rreira	-10.3896
▁orient	-10.3897
queles	-10.3902
▁proje	-10.3907
scimento	-10.3909
lec	-10.3912
atos	-10.3912
▁represent	-10.3914
ls	-10.3925
▁localiza	-10.3932
ítico	-10.3945
nam	-10.3974
boa	-10.3983
ila	-10.3984
▁parti	-10.3991
▁soci	-10.3991
iente	-10.3995
din	-10.4004
▁instru	-10.4015
De	-10.4021
▁pac	-10.4026
duz	-10.4028
..	-10.4031
siste	-10.4031
sível	-10.4043
▁recu	-10.4048
▁conquist	-10.4054
▁parc	-10.406
mini	-10.4063
dente	-10.4073
efe	-10.409
ront	-10.4098
teve	-10.4099
▁sig	-10.4122
dimen	-10.4131
▁acord	-10.4131
sidade	-10.4131
ticas	-10.4137
american	-10.4151
agr	-10.4156
▁dur	-10.4179
▁funda	-10.4182
essor	-10.4189
camp	-10.4191
▁come	-10.4197
▁algu	-10.4197
gam	-10.4199
aj	-10.4209
▁representante	-10.4212
ícul	-10.4236
ole	-10.4239
▁coordenad	-10.4243
cre	-10.4243
alizar	-10.4256
onde	-10.4264
strado	-10.4268
rdo	-10.4274
▁prof	-10.4278
▁expe	-10.4279
▁interess	-10.428
gui	-10.4284
aticamente	-10.4295
uper	-10.4299
rm	-10.4304
ntado	-10.4308
alismo	-10.431
prova	-10.4323
▁pergunt	-10.4323
▁Federa	-10.4324
íticas	-10.4324
lência	-10.4328
uv	-10.4331
aú	-10.4337
▁domin	-10.434
lac	-10.4346
sp	-10.4346
▁part	-10.4347
▁mini	-10.4354
ie	-10.4355
▁preocup	-10.4359
erviço	-10.4371
ibe	-10.4383
vela	-10.4387
trá	-10.4394
pula	-10.4395
lva	-10.4399
stante	-10.4399
▁solicit	-10.4412
Os	-10.442
ev	-10.4423
jam	-10.4428
enos	-10.4431
rofessor	-10.4444
▁distribu	-10.4454
▁aju	-10.4464
▁contribu	-10.4474
rinc	-10.4485
▁person	-10.4486
cei	-10.4495
rs	-10.4497
▁considerad	-10.4498
▁profiss	-10.4503
fet	-10.4515
iário	-10.4519
ânc	-10.4519
vamente	-10.4522
ortanto	-10.4524
pel	-10.4537
ova	-10.4538
emo	-10.4539
▁reconheci	-10.4542
erto	-10.4566
cadas	-10.4576
▁dispos	-10.4577
▁dize	-10.4582
leiro	-10.4584
leitor	-10.4589
No	-10.4592
▁priv	-10.4595
▁port	-10.4624
ncias	-10.4634
▁ev	-10.4649
▁tradiciona	-10.4654
nov	-10.4663
dê	-10.4677
eir	-10.4678
egar	-10.4679
rav	-10.4682
rag	-10.469
rto	-10.4704
vul	-10.4712
Em	-10.4712
estes	-10.4726
ala	-10.4727
porta	-10.4731
rocesso	-10.4737
aval	-10.475
▁pap	-10.4757
▁encontrad	-10.4761
▁mer	-10.4769
Re	-10.4769
▁red	-10.4769
cação	-10.4773
▁defen	-10.4782
ramento	-10.4789
issão	-10.4801
hos	-10.4803
ículo	-10.4809
cip	-10.4817
entou	-10.4818
argo	-10.4819
▁norm	-10.4821
▁depend	-10.4824
▁autori	-10.4829
bat	-10.4849
rna	-10.4852
▁desenvolvid	-10.4853
ulta	-10.4857
menta	-10.488
rã	-10.4881
ref	-10.4881
lguns	-10.4882
vento	-10.4895
▁Silv	-10.4895
orre	-10.4901
▁Centr	-10.4902
▁previs	-10.4908
tabel	-10.4909
inado	-10.4929
ociedade	-10.4941
istem	-10.4958
▁ess	-10.4961
▁possíve	-10.4971
sar	-10.4972
tê	-10.4978
ede	-10.4982
ísticas	-10.4982
gestão	-10.4983
▁exclu	-10.4987
nar	-10.4988
aquele	-10.4992
▁servidor	-10.4993
inc	-10.5001
teira	-10.5006
▁transport	-10.5008
Para	-10.501
▁funcion	-10.5013
anc	-10.5018
tração	-10.5018
▁relaciona	-10.5022
▁Tri	-10.5027
ciente	-10.5032
▁alu	-10.504
tender	-10.5046
elha	-10.5048
mit	-10.5056
voc	-10.506
tribui	-10.5083
▁inve	-10.5087
mado	-10.5102
divid	-10.5105
quem	-10.5135
▁fort	-10.5138
▁convers	-10.5142
▁especia	-10.5143
ndido	-10.5143
cionário	-10.5147
medi	-10.5161
cano	-10.5173
arqui	-10.5176
▁precis	-10.5177
▁cad	-10.5177
▁ambienta	-10.5183
▁Intern	-10.5184
▁insta	-10.5184
ícios	-10.5189
hu	-10.519
ndes	-10.5198
rgia	-10.5206
grav	-10.5207
ossa	-10.5226
estar	-10.5232
orto	-10.5247
▁mani	-10.5254
▁pou	-10.5256
▁dado	-10.5258
reu	-10.5262
oordenador	-10.527
▁mand	-10.5272
cin	-10.5298
ome	-10.5304
▁Fran	-10.5305
idência	-10.5313
tinha	-10.5314
ilhos	-10.5317
serv	-10.5323
ualidade	-10.5326
▁melhora	-10.5326
erais	-10.5331
azend	-10.5335
▁caus	-10.5348
mbra	-10.5351
▁partid	-10.536
fu	-10.5372
▁tradi	-10.5374
ostos	-10.5383
miti	-10.5392
ndi	-10.5399
vidade	-10.5401
érie	-10.5403
anç	-10.5404
▁aument	-10.5407
for	-10.5409
reg	-10.541
stes	-10.5445
rdi	-10.5462
mostra	-10.5473
▁exi	-10.5473
centra	-10.5474
nova	-10.5479
eros	-10.5481
tera	-10.5481
libera	-10.5483
ori	-10.5499
lon	-10.5502
nador	-10.5507
mátic	-10.551
iança	-10.5519
▁investig	-10.5524
nunci	-10.553
lus	-10.5538
▁governa	-10.5552
ecu	-10.5554
radores	-10.5561
rist	-10.5568
timos	-10.557
oriz	-10.5591
gest	-10.5593
mpa	-10.5596
uno	-10.563
col	-10.5634
ali	-10.5645
abi	-10.5675
imp	-10.5683
cados	-10.5685
▁arm	-10.569
cur	-10.5699
▁dir	-10.5708
sibilidade	-10.5731
▁conhecid	-10.5733
▁Inte	-10.5738
geral	-10.5744
cresce	-10.5747
sion	-10.5764
nção	-10.5766
▁profe	-10.5772
pela	-10.5805
tificação	-10.5813
▁estadua	-10.5824
iá	-10.5833
itório	-10.5837
icí	-10.5838
tuto	-10.5841
merican	-10.5842
lav	-10.5844
form	-10.5861
cient	-10.5868
▁ident	-10.5875
enti	-10.588
opa	-10.5881
anhã	-10.5888
rian	-10.5893
mora	-10.5899
aus	-10.5903
tente	-10.5911
omunicação	-10.592
▁escr	-10.593
erson	-10.5932
pr	-10.5933
listas	-10.5943
toma	-10.5948
rta	-10.5964
clar	-10.5968
rtigo	-10.5989
dições	-10.5993
rela	-10.6009
▁assin	-10.6011
trato	-10.6016
ional	-10.6019
izadas	-10.6036
odo	-10.6054
ili	-10.606
omo	-10.6069
▁projet	-10.6077
▁pratic	-10.6085
strada	-10.6091
licos	-10.6093
iedade	-10.6112
lém	-10.6122
▁envolv	-10.6129
unh	-10.6141
ificad	-10.6147
▁obrig	-10.6155
ndia	-10.6157
vés	-10.6158
rid	-10.6168
aquela	-10.617
ej	-10.6171
olog	-10.6174
pet	-10.6182
▁classific	-10.6184
preen	-10.6189
▁visit	-10.6192
cordo	-10.6197
xima	-10.6198
acha	-10.6219
colhe	-10.6234
utu	-10.6235
▁proced	-10.6242
tern	-10.6248
sex	-10.6265
▁reco	-10.6267
rantes	-10.6269
aba	-10.6271
▁defin	-10.628
anh	-10.6285
▁Quan	-10.6291
ntando	-10.6294
ort	-10.6318
▁distribui	-10.6346
emi	-10.6348
gin	-10.6361
olítica	-10.6372
special	-10.6372
Um	-10.6381
líci	-10.6397
eita	-10.6406
ond	-10.6413
scrito	-10.6416
ped	-10.6418
segui	-10.6425
lógico	-10.6426
cant	-10.6448
tendo	-10.6467
out	-10.6477
utebol	-10.6487
ató	-10.6488
band	-10.6502
leti	-10.6515
neg	-10.6518
fici	-10.6521
▁pró	-10.6526
rização	-10.653
pert	-10.6545
uir	-10.6552
▁cat	-10.6557
inheiro	-10.6559
ociação	-10.656
▁decor	-10.6563
ssion	-10.6571
amília	-10.6578
alm	-10.6582
ster	-10.6582
▁Universi	-10.6598
▁necess	-10.66
fal	-10.6601
▁escrev	-10.6605
esp	-10.6618
rama	-10.6635
▁estu	-10.6636
▁aç	-10.6638
fico	-10.6638
ert	-10.6639
▁demonstr	-10.6661
▁desco	-10.6663
▁sucess	-10.6668
evolu	-10.6684
▁anu	-10.6686
▁espo	-10.6692
has	-10.6695
ct	-10.6698
atividade	-10.67
nhar	-10.6704
▁elabor	-10.6706
mpreende	-10.6707
▁conver	-10.6713
mpe	-10.6724
sem	-10.6727
Por	-10.6729
▁revis	-10.6731
orda	-10.6749
plementa	-10.6759
íc	-10.6759
cla	-10.6762
gica	-10.6765
esso	-10.6778
volta	-10.6784
tia	-10.6788
lib	-10.6795
▁equipamento	-10.6823
orden	-10.6827
erviços	-10.6829
obra	-10.6844
▁compl	-10.6846
cess	-10.6848
isco	-10.686
lhado	-10.6862
proxim	-10.6864
ncio	-10.6877
erme	-10.6879
rata	-10.6883
essoa	-10.6886
▁músic	-10.6887
▁soli	-10.689
ornal	-10.69
tiver	-10.6901
abo	-10.6906
lev	-10.691
firma	-10.6919
ire	-10.6939
▁aba	-10.6943
até	-10.6947
▁Sant	-10.6949
▁loc	-10.6952
vidades	-10.6955
mil	-10.6967
niz	-10.6968
▁cumpr	-10.6976
orde	-10.6978
▁comuni	-10.6983
▁transp	-10.6992
migo	-10.6999
long	-10.7
▁financ	-10.7001
lamen	-10.7009
anta	-10.7009
rimento	-10.7015
▁inclus	-10.702
ncontro	-10.704
cara	-10.7043
mposto	-10.7054
ces	-10.7095
eputado	-10.7099
▁jo	-10.71
Con	-10.7104
imos	-10.7104
torna	-10.7112
licita	-10.7114
▁associ	-10.7115
ív	-10.7132
▁ministr	-10.7138
ransporte	-10.7142
já	-10.7142
▁aproxim	-10.7149
upa	-10.7158
ebr	-10.7159
▁obs	-10.7165
biliz	-10.7166
mpla	-10.7166
▁sobr	-10.7168
rel	-10.7171
aco	-10.7182
vit	-10.7188
alta	-10.72
nse	-10.7202
nente	-10.7202
▁conjunt	-10.7203
esc	-10.721
▁coment	-10.7214
▁individu	-10.7225
uso	-10.723
entre	-10.7238
▁Prefeit	-10.7246
▁obje	-10.7256
didas	-10.7259
gião	-10.7273
conceito	-10.7275
▁dif	-10.728
▁vist	-10.7287
rat	-10.7289
nstitucional	-10.7295
cê	-10.7303
▁aqu	-10.7305
opera	-10.7309
íp	-10.731
▁estudante	-10.7313
rativa	-10.7318
▁aca	-10.7318
▁ate	-10.7324
sper	-10.7328
▁Trabalh	-10.7328
icação	-10.7335
tamos	-10.7336
ovi	-10.7341
▁defend	-10.7343
▁divers	-10.7357
ionar	-10.736
vir	-10.738
uda	-10.7398
utos	-10.741
dades	-10.7411
ionado	-10.7417
tabilidade	-10.7444
reta	-10.7459
Fo	-10.7459
ari	-10.7484
imi	-10.7495
▁empr	-10.7501
hor	-10.7511
▁result	-10.7519
▁simpl	-10.754
ocup	-10.7541
▁permit	-10.7541
roduzi	-10.7547
ezembro	-10.7549
oli	-10.7551
tipo	-10.7567
ndústria	-10.7585
▁avali	-10.7598
▁desem	-10.7604
istério	-10.7616
–	-10.764
oga	-10.7644
úl	-10.7653
▁Minist	-10.7655
arre	-10.7663
articula	-10.7665
raci	-10.7674
▁característica	-10.7676
esper	-10.7681
forme	-10.7682
▁atend	-10.7684
enc	-10.7687
▁serv	-10.7693
mpresa	-10.7705
empre	-10.771
caso	-10.7752
ssos	-10.7754
heiro	-10.7755
▁ambient	-10.7757
lanç	-10.7764
apital	-10.7765
▁bas	-10.7771
▁pas	-10.7774
etr	-10.7789
ntegra	-10.7795
nados	-10.782
rato	-10.7822
rqui	-10.7835
sio	-10.7836
▁trat	-10.7838
stor	-10.7853
tifica	-10.7871
oma	-10.7878
▁apro	-10.7881
dicional	-10.7885
sando	-10.7886
mbro	-10.7894
eles	-10.7907
endente	-10.792
óxi	-10.7931
▁fazend	-10.7934
▁mate	-10.7955
▁mund	-10.7971
ovimento	-10.798
▁funcionário	-10.7994
▁diret	-10.7996
dita	-10.7997
▁preten	-10.8002
cor	-10.8026
pect	-10.8041
oral	-10.8049
▁simp	-10.805
lament	-10.8055
▁carr	-10.806
esport	-10.806
quadr	-10.8061
▁conheci	-10.8065
terr	-10.8066
desse	-10.8069
▁apresentad	-10.8079
mando	-10.8094
reço	-10.8097
marca	-10.8099
rimeiro	-10.8099
ustent	-10.8113
▁presid	-10.8113
ontad	-10.8115
▁exempl	-10.8129
metr	-10.8134
versa	-10.8143
mante	-10.8145
prefeito	-10.8148
oridade	-10.8152
atu	-10.8166
ospita	-10.8166
aixo	-10.817
umo	-10.8173
▁atrav	-10.8176
pens	-10.8176
sen	-10.818
lici	-10.8185
alizada	-10.8189
nome	-10.8223
rentes	-10.8225
acia	-10.8227
▁entreg	-10.8237
médi	-10.8248
orri	-10.8271
▁responsabilidad	-10.8274
cam	-10.8274
iras	-10.829
rez	-10.8298
iço	-10.8305
▁fat	-10.8323
rof	-10.8327
caminh	-10.8327
rário	-10.8327
posit	-10.8328
nação	-10.8332
org	-10.8337
▁conhe	-10.8346
iver	-10.8348
ntada	-10.8359
óri	-10.8359
onforme	-10.8364
pelo	-10.8373
cert	-10.838
ive	-10.839
red	-10.8395
hei	-10.8414
▁interpret	-10.8418
ministro	-10.8418
nergia	-10.8428
dando	-10.8435
panha	-10.8438
ocia	-10.844
ize	-10.844
rava	-10.8452
gni	-10.8453
mig	-10.8456
caba	-10.8463
lgumas	-10.8467
riado	-10.8469
ntá	-10.8475
nqui	-10.8482
verno	-10.8485
domin	-10.849
quência	-10.8492
conomia	-10.8492
uar	-10.8501
uas	-10.8502
ceit	-10.8512
arca	-10.8517
ape	-10.8519
dific	-10.8522
cresc	-10.8527
assa	-10.8528
ental	-10.8537
▁comer	-10.8538
hada	-10.8542
▁refe	-10.8552
inf	-10.8568
stituição	-10.8568
agra	-10.857
uela	-10.8572
preci	-10.8573
téri	-10.8575
▁economi	-10.8591
ben	-10.8592
loca	-10.8601
▁enfrent	-10.8614
ípi	-10.8615
erência	-10.8621
▁compa	-10.8622
▁educ	-10.8628
taca	-10.8633
▁fei	-10.8645
últi	-10.865
▁Mun	-10.8673
rod	-10.8682
estr	-10.8689
rde	-10.8717
▁exc	-10.8717
Mas	-10.872
áli	-10.872
gistra	-10.8734
▁impo	-10.8737
oce	-10.8739
▁equ	-10.8749
ace	-10.8751
ntece	-10.8759
plic	-10.8764
ionamento	-10.8783
eti	-10.879
prov	-10.8791
▁Pres	-10.8792
rc	-10.8798
ciar	-10.8829
inada	-10.883
icado	-10.8852
écnico	-10.8865
ntam	-10.8883
vista	-10.8883
▁enco	-10.8886
▁organi	-10.8891
ecida	-10.8895
stri	-10.8898
Co	-10.8902
áti	-10.8908
▁nú	-10.8925
erente	-10.8929
emente	-10.8932
rega	-10.8954
lto	-10.8956
carre	-10.8968
▁municip	-10.8996
produção	-10.9022
inistério	-10.9024
▁term	-10.9025
▁tamb	-10.9036
logi	-10.906
stá	-10.9062
▁constr	-10.9078
▁transf	-10.9078
▁capit	-10.9086
tari	-10.9091
▁energ	-10.9094
firm	-10.91
rec	-10.9102
arra	-10.9112
▁passad	-10.9115
diant	-10.9131
pio	-10.9133
uei	-10.9133
certo	-10.9135
atri	-10.9136
ecret	-10.9139
onar	-10.9145
sof	-10.9162
cura	-10.917
asta	-10.9176
fin	-10.9181
ilita	-10.9189
▁resp	-10.9196
tér	-10.9208
nic	-10.923
▁anal	-10.9235
press	-10.9239
lc	-10.9239
▁prátic	-10.924
elos	-10.9244
onais	-10.9251
lher	-10.9251
stã	-10.9252
nit	-10.9268
tenta	-10.9282
▁quanti	-10.931
▁secretári	-10.9312
rob	-10.932
isc	-10.9327
embro	-10.9331
pan	-10.9334
conômica	-10.9335
át	-10.9339
rática	-10.9339
▁subst	-10.9342
sempre	-10.9344
▁prefeit	-10.9358
rimeira	-10.9365
reza	-10.937
ao	-10.937
vanta	-10.9372
onselh	-10.9372
seja	-10.9373
ampa	-10.9374
amp	-10.9375
▁quere	-10.9378
edida	-10.9385
tiv	-10.9389
uitas	-10.9412
▁produt	-10.9418
rme	-10.9421
▁preci	-10.9435
▁mel	-10.9471
lênci	-10.9472
▁tan	-10.9477
lizado	-10.9481
stado	-10.9487
denado	-10.9494
▁desempenh	-10.9502
Quando	-10.9507
ifi	-10.9546
▁respond	-10.956
▁ava	-10.9564
▁vid	-10.9574
▁independ	-10.9579
mação	-10.959
pir	-10.9596
conhecido	-10.96
iss	-10.9604
mundo	-10.9608
ivi	-10.9612
tare	-10.9618
ret	-10.962
▁quin	-10.9621
perf	-10.9622
stiça	-10.9625
prend	-10.9629
pec	-10.9632
▁tel	-10.9638
nç	-10.964
umano	-10.9646
abili	-10.9646
cum	-10.9647
zem	-10.967
ercado	-10.9681
▁cult	-10.9695
orça	-10.9702
ógica	-10.9702
▁organ	-10.9711
pen	-10.9727
.....	-10.9735
▁Univers	-10.9739
teri	-10.9754
iona	-10.9755
▁conceit	-10.9756
fen	-10.9765
alista	-10.9781
eber	-10.9782
▁Jan	-10.9787
ógico	-10.9787
lita	-10.9788
acionais	-10.9788
▁alimento	-10.9791
liza	-10.9796
oi	-10.9799
▁pequen	-10.9802
trou	-10.9805
rmi	-10.981
artido	-10.9833
empl	-10.9844
centr	-10.9847
pl	-10.9853
tru	-10.9858
mercado	-10.9859
aci	-10.9862
opular	-10.9865
niza	-10.9873
▁depoi	-10.9876
▁atendi	-10.988
corrid	-10.9887
nh	-10.9888
▁compo	-10.9889
air	-10.9897
▁del	-10.9899
▁praz	-10.991
ví	-10.9911
▁Segund	-10.9927
âmara	-10.993
fazer	-10.9936
ciado	-10.9944
dou	-10.9945
orrer	-10.9956
Na	-10.9961
idi	-10.9996
▁inco	-10.9997
edido	-11.0004
▁Feder	-11.0008
▁Soci	-11.001
▁ini	-11.0013
riga	-11.0017
grama	-11.0021
ecretário	-11.0028
▁var	-11.0035
ília	-11.0041
▁ant	-11.0052
utros	-11.0059
orado	-11.0062
éc	-11.0066
▁quant	-11.0067
cham	-11.007
Como	-11.0083
▁tec	-11.0088
alho	-11.0094
▁coorden	-11.0104
eres	-11.0114
erda	-11.0123
obr	-11.0125
rad	-11.0126
▁conform	-11.0126
osta	-11.0138
venc	-11.015
egue	-11.0159
egado	-11.0174
As	-11.0177
ontrole	-11.0177
ues	-11.0178
édico	-11.018
tive	-11.0198
imina	-11.02
eitos	-11.022
▁ativ	-11.0238
▁pref	-11.024
água	-11.025
▁distri	-11.0257
oci	-11.0266
▁secret	-11.0266
▁econom	-11.027
▁capita	-11.0279
liar	-11.0283
gico	-11.0288
▁film	-11.0289
rgo	-11.0294
cisão	-11.0304
▁revi	-11.0305
timento	-11.0309
tende	-11.0319
▁lan	-11.0321
▁milita	-11.0352
dico	-11.0355
força	-11.0366
▁escol	-11.0368
alter	-11.037
▁popula	-11.0377
icada	-11.0387
eca	-11.0397
sus	-11.0402
ivro	-11.0404
bele	-11.0405
ost	-11.041
▁Govern	-11.0422
elhor	-11.0432
fac	-11.0433
inte	-11.0446
eda	-11.0447
rut	-11.0447
tribuição	-11.0449
usi	-11.045
iores	-11.0452
▁proporcion	-11.0453
ividade	-11.0467
▁situ	-11.0468
çament	-11.0473
rnal	-11.0495
▁oficia	-11.0503
irm	-11.0503
omingo	-11.0506
leva	-11.0507
rmas	-11.0515
icações	-11.0519
alt	-11.0526
nor	-11.0527
ecutiv	-11.0527
uário	-11.0533
lizados	-11.054
oper	-11.0544
elações	-11.0553
our	-11.0559
▁consi	-11.0576
ssociação	-11.0582
positiv	-11.0606
vive	-11.0611
sada	-11.0613
▁cresc	-11.0616
sores	-11.062
rn	-11.0622
cipa	-11.0622
emas	-11.0634
pont	-11.0637
reserv	-11.064
stina	-11.0644
nis	-11.065
écnica	-11.0652
segur	-11.0655
oque	-11.0666
ute	-11.0673
elec	-11.0682
pag	-11.0684
rib	-11.0688
vor	-11.0688
envolvimento	-11.0692
tria	-11.07
▁reve	-11.0714
nfer	-11.0716
erce	-11.0718
mpresas	-11.0745
omem	-11.0748
▁tempor	-11.0748
▁Administra	-11.0758
úb	-11.0766
pra	-11.0771
tral	-11.0776
itam	-11.0791
áv	-11.0792
▁mús	-11.0815
▁tar	-11.0816
rque	-11.0821
▁polici	-11.0834
▁devid	-11.0837
del	-11.085
rum	-11.086
tori	-11.0863
aju	-11.0874
▁fico	-11.0892
▁ori	-11.0902
uman	-11.0908
▁det	-11.0911
publica	-11.0938
ere	-11.094
liga	-11.0951
over	-11.0952
unca	-11.0956
▁arqu	-11.0973
▁suc	-11.0983
▁cau	-11.0988
oport	-11.0996
erde	-11.1007
sticas	-11.101
tod	-11.1017
aliza	-11.102
igação	-11.1022
ionário	-11.1027
ionais	-11.1032
req	-11.1046
▁prob	-11.1051
pois	-11.1051
ispo	-11.1058
stou	-11.1061
rce	-11.1071
eq	-11.1073
Est	-11.1084
Lei	-11.1087
▁Associa	-11.1101
ferencia	-11.1112
lga	-11.1114
estação	-11.1116
▁propost	-11.1123
putado	-11.1125
mei	-11.114
atur	-11.1142
conômico	-11.1143
nalmente	-11.1145
nomia	-11.1155
passa	-11.1161
entando	-11.1175
mano	-11.1179
rocura	-11.118
ges	-11.1182
credit	-11.1186
liber	-11.119
bs	-11.119
nálise	-11.1192
ovo	-11.1197
esti	-11.1214
elh	-11.1223
isa	-11.1223
rote	-11.1239
tui	-11.1242
oj	-11.1251
rativo	-11.1261
recer	-11.1279
pac	-11.1287
ntão	-11.1287
dendo	-11.1288
nalista	-11.1294
nem	-11.1308
entado	-11.1313
▁Educa	-11.1314
game	-11.1326
mai	-11.1327
tici	-11.1331
ograma	-11.1334
tenc	-11.1335
Ca	-11.1336
lta	-11.1339
ivamente	-11.1356
sado	-11.1378
put	-11.1387
▁suce	-11.1393
▁busc	-11.14
emana	-11.1403
anim	-11.1404
▁tes	-11.1411
mal	-11.1412
diciona	-11.142
inci	-11.1421
bem	-11.144
▁Jos	-11.1445
uitos	-11.1447
letr	-11.1451
lícia	-11.1461
ressa	-11.1472
▁prat	-11.1472
ordena	-11.148
Fi	-11.1503
ulher	-11.153
tab	-11.1542
uga	-11.1557
licit	-11.1561
dur	-11.1563
▁possi	-11.1571
raf	-11.1579
governador	-11.1581
junto	-11.1584
tância	-11.1599
ócio	-11.1608
equi	-11.161
usto	-11.1618
ast	-11.162
▁afirm	-11.1622
à	-11.1627
pad	-11.1632
ltima	-11.1648
cup	-11.1653
ixar	-11.1657
▁dese	-11.1658
▁text	-11.1659
etembro	-11.1662
omba	-11.1668
enado	-11.1679
oco	-11.1684
mu	-11.1688
esas	-11.1689
stat	-11.1696
▁afi	-11.1702
mero	-11.1717
stem	-11.1717
possível	-11.1724
blo	-11.1725
esco	-11.174
▁asse	-11.1744
sport	-11.1758
rno	-11.1758
mpre	-11.1766
In	-11.1768
ceira	-11.1771
íci	-11.1793
nan	-11.1801
stados	-11.1802
residente	-11.1811
▁presiden	-11.1826
federa	-11.1831
alor	-11.1846
urídic	-11.1852
rtu	-11.1855
izer	-11.1855
olar	-11.1856
ló	-11.186
nternet	-11.1884
▁ai	-11.1886
rga	-11.1892
licado	-11.1895
▁import	-11.1895
senta	-11.1917
siona	-11.1922
ono	-11.1931
ipo	-11.1935
dam	-11.1943
obras	-11.1946
Ch	-11.1952
egr	-11.1958
stin	-11.1961
▁inscr	-11.1964
trata	-11.1968
▁ape	-11.1974
nti	-11.1984
iça	-11.1987
adiciona	-11.1993
▁model	-11.1994
▁dificul	-11.2021
anal	-11.2024
unicípios	-11.2032
▁comerci	-11.2036
mpli	-11.2038
ulh	-11.2038
úsica	-11.2046
▁cla	-11.2061
unicipal	-11.2061
ien	-11.2089
▁bl	-11.2091
fei	-11.21
Vi	-11.2104
avo	-11.2113
ope	-11.212
lógi	-11.2122
ísic	-11.2129
▁Secret	-11.2134
erm	-11.2136
mericano	-11.214
▁resu	-11.2145
ssar	-11.2146
penas	-11.2161
gat	-11.2164
▁Unido	-11.2166
nu	-11.217
formação	-11.2181
eitura	-11.2189
ereador	-11.219
uti	-11.2192
quando	-11.2196
▁bai	-11.2205
▁aco	-11.2207
essoas	-11.2223
sca	-11.2234
▁instrument	-11.225
uíd	-11.2259
empreg	-11.226
pulação	-11.2275
▁escri	-11.2275
ced	-11.2276
▁econ	-11.2306
passar	-11.2311
tran	-11.2326
posi	-11.2333
rabalhadores	-11.2334
plicação	-11.2341
scrit	-11.2342
idores	-11.2349
ocorr	-11.2355
sário	-11.236
creta	-11.2367
rime	-11.2372
amada	-11.2379
mana	-11.2381
▁apa	-11.2382
númer	-11.2397
rmin	-11.2402
soli	-11.2415
aliz	-11.2431
▁mater	-11.2431
pit	-11.2451
ouv	-11.2451
ore	-11.2451
úd	-11.2457
cons	-11.2462
indic	-11.2463
ress	-11.2464
▁bast	-11.2479
empenh	-11.2487
jor	-11.2489
referência	-11.2507
▁progr	-11.2539
scu	-11.2541
▁dific	-11.2554
sist	-11.2556
entais	-11.2573
erado	-11.2598
arro	-11.2598
oras	-11.26
ami	-11.26
pais	-11.2601
adequa	-11.2608
▁sistem	-11.2612
nsável	-11.2632
▁oportun	-11.2642
pri	-11.2643
erman	-11.2648
ergu	-11.2662
ulheres	-11.2665
clara	-11.2671
lema	-11.2676
▁regul	-11.2694
equen	-11.2696
idente	-11.2704
ure	-11.2709
▁administr	-11.2721
umento	-11.2727
otos	-11.2754
úmero	-11.2759
▁tip	-11.2769
▁pers	-11.2773
▁Sec	-11.278
lti	-11.2787
▁amp	-11.2795
conce	-11.2799
lt	-11.2824
úmer	-11.2842
Mar	-11.2848
confi	-11.2851
egi	-11.2858
rê	-11.2865
gul	-11.2866
iqu	-11.2873
rov	-11.2882
fora	-11.2884
▁propri	-11.2891
aro	-11.2892
proveit	-11.2902
▁membr	-11.2904
▁sé	-11.2906
▁div	-11.2918
unidade	-11.2922
verso	-11.2958
sim	-11.2958
corr	-11.2972
alistas	-11.2973
rofissional	-11.2976
Al	-11.2976
▁Carl	-11.2998
ois	-11.2999
▁verd	-11.3013
estin	-11.3038
mam	-11.3048
sados	-11.306
nformação	-11.3065
pass	-11.3065
ald	-11.3096
inter	-11.3101
utras	-11.311
fíc	-11.3127
icular	-11.3127
omp	-11.3133
ilização	-11.3142
nvi	-11.3156
negócio	-11.3169
puta	-11.3178
fere	-11.3186
articul	-11.3208
▁Int	-11.3221
lizada	-11.3231
itivo	-11.3254
▁amo	-11.3259
Rio	-11.3263
aqueles	-11.3268
▁comunic	-11.3273
▁dev	-11.3291
evi	-11.3295
rente	-11.3316
▁nor	-11.3332
▁deputad	-11.3334
ator	-11.3336
rganiza	-11.3337
post	-11.3339
presas	-11.3343
agi	-11.3343
▁esto	-11.3346
ecimentos	-11.3373
cli	-11.3386
erca	-11.3388
mpar	-11.3417
atr	-11.3421
ntário	-11.3427
▁compre	-11.343
agen	-11.3436
dependente	-11.3437
orque	-11.344
través	-11.3441
edo	-11.3443
▁gran	-11.3449
tud	-11.347
nec	-11.348
▁té	-11.3492
tag	-11.3493
orada	-11.3503
bjetivo	-11.3504
ministra	-11.3523
enador	-11.3527
mí	-11.3557
lanta	-11.356
▁mei	-11.3564
bserv	-11.3566
assin	-11.3571
fina	-11.3572
mpanhia	-11.3576
fundament	-11.3588
exto	-11.359
▁exte	-11.3608
Ma	-11.3608
ness	-11.3618
plant	-11.3624
▁tê	-11.3628
etos	-11.3634
Jo	-11.3637
tom	-11.3641
eas	-11.3644
valiação	-11.3645
mbr	-11.3645
lme	-11.3649
edic	-11.3652
hado	-11.3653
lem	-11.3653
seus	-11.3661
minha	-11.3664
róp	-11.3665
produzi	-11.3665
inistro	-11.3667
cult	-11.367
eng	-11.3671
▁impres	-11.3676
nat	-11.3697
▁Tribu	-11.3705
isp	-11.3709
rcia	-11.3727
atar	-11.3735
icados	-11.3738
Di	-11.3739
há	-11.3754
leito	-11.3759
elev	-11.3761
ong	-11.3765
onto	-11.3766
lore	-11.3771
oo	-11.3773
arc	-11.3777
istóric	-11.3782
ní	-11.383
tividades	-11.3848
dias	-11.3882
cretaria	-11.3887
vimento	-11.3889
omercial	-11.3894
▁mane	-11.3895
erão	-11.3902
idad	-11.3903
nf	-11.3903
Esta	-11.3906
fes	-11.391
bjetiv	-11.392
ase	-11.3925
exa	-11.393
▁pop	-11.3932
bl	-11.3932
ormação	-11.3945
▁disponibil	-11.3946
▁jus	-11.3947
▁ofe	-11.3949
ass	-11.3949
torn	-11.3949
cau	-11.396
ntação	-11.3978
lad	-11.3978
cita	-11.3979
imenta	-11.398
erencia	-11.4021
essoal	-11.4038
▁consul	-11.4046
sci	-11.4058
espera	-11.4058
▁técnic	-11.4058
▁Interna	-11.4067
redi	-11.4085
ít	-11.4093
sional	-11.4099
mpreg	-11.4107
erdade	-11.4117
onsidera	-11.412
pedi	-11.4122
nou	-11.4129
iber	-11.4134
tóri	-11.4138
vé	-11.4145
ilia	-11.4161
▁condiç	-11.4166
▁inst	-11.4176
nom	-11.4199
Pro	-11.4202
mpo	-11.4206
jeto	-11.4212
adi	-11.4215
▁institui	-11.423
umentos	-11.4237
ologi	-11.4239
foto	-11.4244
onsumidor	-11.4251
esca	-11.4258
éd	-11.4276
ostas	-11.4279
lm	-11.428
limit	-11.4294
rmado	-11.4304
ômic	-11.4306
▁brasil	-11.4308
ntu	-11.4314
▁compor	-11.4319
mod	-11.4331
ribunal	-11.4336
▁resi	-11.4344
trans	-11.4346
iretor	-11.435
alavra	-11.4367
▁consumi	-11.4367
além	-11.4374
ormal	-11.4381
cap	-11.4383
versos	-11.4396
▁perc	-11.4432
camente	-11.4441
liação	-11.4443
Car	-11.4449
▁incl	-11.445
eric	-11.4461
acu	-11.4474
contra	-11.4477
odos	-11.4481
rv	-11.4505
sistema	-11.4509
mplement	-11.4517
strar	-11.4517
nei	-11.4521
aze	-11.4521
ofi	-11.4527
íl	-11.4539
dolescente	-11.4541
estas	-11.4552
aque	-11.4555
atin	-11.4557
cientes	-11.456
med	-11.4562
entro	-11.4569
ionários	-11.4588
undamental	-11.4591
▁program	-11.4593
▁aparec	-11.4594
▁situaç	-11.4594
spect	-11.4608
▁polí	-11.4618
imen	-11.4622
bserva	-11.4628
orr	-11.4629
▁president	-11.4636
edia	-11.4648
esu	-11.465
▁Cent	-11.4657
cipação	-11.4658
imentação	-11.4662
tali	-11.4667
stitucional	-11.4676
fato	-11.4679
eit	-11.4681
nã	-11.4706
nsi	-11.4725
aparec	-11.4725
ecretaria	-11.4727
▁Fra	-11.4739
passado	-11.4749
lve	-11.4768
cais	-11.4773
ramente	-11.4774
▁minuto	-11.4782
azen	-11.4789
Brasil	-11.4797
arreira	-11.4807
sup	-11.4808
iberdade	-11.4814
mens	-11.4826
vest	-11.4827
atra	-11.483
sma	-11.4839
xiste	-11.4847
lien	-11.485
ove	-11.485
arr	-11.4855
▁quint	-11.4859
▁quar	-11.489
nomi	-11.4892
moto	-11.4925
unt	-11.4935
ndida	-11.4938
ficou	-11.4941
obert	-11.4947
rri	-11.4951
▁feit	-11.4959
dian	-11.4975
sil	-11.4985
firmou	-11.5002
nfo	-11.5021
▁impor	-11.5026
ferentes	-11.5031
▁Inst	-11.5032
ceito	-11.5034
rojetos	-11.5039
▁dispo	-11.504
ouco	-11.5041
arma	-11.5045
ressão	-11.5054
▁propos	-11.5081
dial	-11.5095
Me	-11.5118
xim	-11.513
reen	-11.5132
zin	-11.5174
hã	-11.5178
etivo	-11.5192
evista	-11.5199
cumpri	-11.5208
fort	-11.5208
▁lad	-11.5221
▁contro	-11.5226
▁comporta	-11.5238
nfi	-11.5255
usca	-11.5256
▁tecno	-11.5256
norm	-11.5256
orta	-11.5257
uç	-11.5259
lant	-11.5271
rso	-11.5272
faz	-11.5279
roduto	-11.5282
ultural	-11.5285
gur	-11.529
ider	-11.5297
rqu	-11.5311
eni	-11.5315
clus	-11.5318
articular	-11.5324
▁especializa	-11.5327
erentes	-11.5329
sumido	-11.5341
grup	-11.5356
▁er	-11.5358
lança	-11.5362
▁sus	-11.5389
empo	-11.539
▁popul	-11.5401
companh	-11.5432
acion	-11.5434
nstru	-11.5436
oss	-11.5452
ricano	-11.5454
oces	-11.5476
erd	-11.5477
nicos	-11.548
fun	-11.5483
ermos	-11.5483
site	-11.5485
rocur	-11.5487
cionári	-11.5487
contece	-11.5496
efic	-11.5503
Fa	-11.5505
equ	-11.5506
orpo	-11.5507
▁disput	-11.551
▁sign	-11.551
olí	-11.5516
plement	-11.552
▁ati	-11.5534
▁natur	-11.5539
▁níve	-11.5541
▁familia	-11.5543
São	-11.5569
pal	-11.5571
olíticas	-11.5576
astr	-11.5576
panh	-11.5583
arece	-11.5583
▁desenvolv	-11.56
Es	-11.5603
ifer	-11.5603
aparece	-11.5624
rrei	-11.5639
ril	-11.564
ndência	-11.5648
pare	-11.5658
elig	-11.5679
perc	-11.5683
pres	-11.5688
terial	-11.57
dep	-11.5703
destin	-11.5706
grande	-11.5707
qua	-11.5722
ntra	-11.5737
etá	-11.5739
arecer	-11.5749
▁localiz	-11.5765
Ba	-11.577
dec	-11.5771
rça	-11.5782
▁conhec	-11.5789
esses	-11.5795
erva	-11.5807
▁diss	-11.5814
▁merc	-11.5815
nest	-11.5827
esque	-11.5833
▁jogado	-11.5837
▁Municipa	-11.5855
ionada	-11.5864
nando	-11.5875
meu	-11.5877
amo	-11.5878
curs	-11.5889
adicional	-11.5908
ese	-11.591
valor	-11.5914
icio	-11.5917
rede	-11.5917
Ju	-11.5918
peri	-11.5934
lie	-11.5938
egócio	-11.5954
mou	-11.5959
idên	-11.5962
envolvido	-11.5962
ode	-11.5992
pouco	-11.5995
▁util	-11.5997
partida	-11.6002
tulo	-11.6004
presentação	-11.6009
ltimo	-11.6011
▁problem	-11.6035
entu	-11.6059
nformações	-11.6061
aranti	-11.6084
construção	-11.609
aran	-11.6094
quar	-11.6102
compet	-11.6106
teir	-11.6134
▁Dir	-11.6136
olta	-11.6145
ferente	-11.6147
▁porqu	-11.6179
condi	-11.6179
ndimento	-11.6191
etário	-11.6198
▁trad	-11.62
zendo	-11.6206
residen	-11.622
▁aconte	-11.6228
tac	-11.6232
cab	-11.624
icion	-11.6246
▁proc	-11.6247
cit	-11.6279
▁participante	-11.6286
jet	-11.6288
hec	-11.6289
quipe	-11.6297
riv	-11.63
volve	-11.6337
uindo	-11.6353
mem	-11.636
ande	-11.6368
lent	-11.6392
escente	-11.6396
Des	-11.6398
▁curs	-11.6401
defini	-11.6415
gram	-11.642
duto	-11.6422
opo	-11.6433
apo	-11.6436
feit	-11.6445
dança	-11.6459
capacidade	-11.6467
spi	-11.6477
embr	-11.6489
mite	-11.6493
▁ami	-11.65
impl	-11.6542
segurança	-11.6546
lun	-11.6573
tenha	-11.6581
estina	-11.6585
......	-11.6587
ient	-11.6587
rand	-11.6587
ordenador	-11.66
▁candida	-11.6626
usc	-11.663
▁element	-11.6635
Gra	-11.6637
spaço	-11.6645
▁comi	-11.6647
rans	-11.6659
dua	-11.6677
egra	-11.6679
▁dest	-11.6682
ursos	-11.6684
inh	-11.6703
ergi	-11.673
▁Tribuna	-11.6738
lecimento	-11.6742
social	-11.6743
alar	-11.6748
dad	-11.6754
lavra	-11.6757
▁Unid	-11.6761
oro	-11.6762
ntal	-11.6762
cobr	-11.6764
suficiente	-11.6767
Uni	-11.6771
▁trabalhado	-11.6774
erece	-11.6779
físic	-11.6784
poi	-11.679
▁Brasileir	-11.6803
aqu	-11.6828
cador	-11.6835
▁pesquis	-11.6838
spera	-11.6842
ncion	-11.6846
ridades	-11.6866
parec	-11.6879
rmo	-11.6883
nstrução	-11.6884
▁Grand	-11.6903
▁invest	-11.6917
speito	-11.692
enç	-11.6931
diretor	-11.6938
reci	-11.6939
aio	-11.6945
estado	-11.6945
ropor	-11.6949
▁exclus	-11.6966
candidato	-11.697
abr	-11.6987
orm	-11.7005
▁regist	-11.7009
vestimento	-11.7011
▁investigaç	-11.7014
rva	-11.702
▁começ	-11.7026
san	-11.7035
reside	-11.7065
Po	-11.7071
nstituição	-11.7076
namento	-11.708
▁ambi	-11.7082
rti	-11.7103
erial	-11.7109
Bo	-11.7113
ublic	-11.7119
qual	-11.7137
cabe	-11.7159
ciação	-11.7167
tigo	-11.7175
evid	-11.7176
ssível	-11.7184
lembra	-11.7187
tit	-11.7189
quanto	-11.7192
respeito	-11.7198
sua	-11.7208
onstitucional	-11.7229
icano	-11.7231
direta	-11.7247
plan	-11.7249
ervidores	-11.7272
constru	-11.7274
rer	-11.7295
leiros	-11.7302
▁presen	-11.7305
tand	-11.732
screv	-11.7332
muito	-11.7334
sina	-11.7335
cid	-11.7358
not	-11.7366
vá	-11.7379
lane	-11.7381
uita	-11.7382
▁contrári	-11.7383
▁propo	-11.7387
part	-11.7393
erações	-11.7394
▁tratam	-11.7398
número	-11.7408
ntin	-11.7409
xpress	-11.7412
ordo	-11.7421
▁home	-11.7433
fat	-11.7433
nqu	-11.744
favor	-11.7442
esponsabilidade	-11.7444
imples	-11.7444
ológic	-11.7453
tempo	-11.7477
dicion	-11.7497
dei	-11.7501
credi	-11.7503
▁necessári	-11.7515
essores	-11.7545
strutura	-11.7551
lvi	-11.7555
unta	-11.7555
meira	-11.756
nven	-11.7561
mad	-11.7579
▁financeir	-11.758
entada	-11.758
omet	-11.7582
parece	-11.7607
pai	-11.7617
▁identi	-11.7629
irei	-11.7645
cimentos	-11.7648
rican	-11.7666
diretamente	-11.7679
▁tiv	-11.7694
ainda	-11.7694
▁Institu	-11.7696
alhado	-11.7709
retor	-11.7723
ndam	-11.773
▁cultur	-11.7739
aul	-11.7752
▁recon	-11.7759
ossível	-11.7769
cupa	-11.7771
ignifica	-11.7774
stração	-11.7778
▁conju	-11.7784
▁Conselh	-11.7784
tio	-11.7785
ssor	-11.7789
specialista	-11.779
rep	-11.7797
rco	-11.7799
ceiro	-11.78
hecimento	-11.7812
ateria	-11.7823
ovos	-11.7828
dis	-11.783
trol	-11.7847
▁grand	-11.7863
stratégi	-11.7878
comb	-11.7885
uem	-11.7886
Le	-11.7888
repar	-11.7892
▁Gran	-11.79
escreve	-11.7902
sand	-11.7911
▁princip	-11.7912
isca	-11.7914
tific	-11.7914
rab	-11.7915
▁eco	-11.7931
Presidente	-11.7933
fesso	-11.7934
Qu	-11.7938
olu	-11.7956
olet	-11.7968
ncip	-11.7976
ndependente	-11.7984
ambi	-11.7991
ntro	-11.7993
ompe	-11.7996
▁equip	-11.7997
ntrar	-11.8001
ndu	-11.8016
rodutos	-11.8046
▁empres	-11.8048
▁feder	-11.8052
eder	-11.8053
cred	-11.8074
mpos	-11.8091
onselho	-11.8093
eco	-11.8099
▁comportament	-11.81
▁manifestaç	-11.81
erc	-11.8114
hom	-11.8129
odelo	-11.813
trav	-11.8138
asso	-11.8155
segu	-11.8178
To	-11.8181
▁ade	-11.8192
existência	-11.8203
▁ed	-11.823
amado	-11.8239
onstrução	-11.824
arta	-11.8242
nfl	-11.8243
nários	-11.8249
▁Const	-11.8256
don	-11.826
sei	-11.8263
arde	-11.827
stabelece	-11.8281
foi	-11.8309
▁consumido	-11.8327
ext	-11.8332
motiv	-11.8335
fini	-11.8347
ifíci	-11.8349
izad	-11.8351
lut	-11.8358
rceiro	-11.8364
istri	-11.8373
formações	-11.8383
centro	-11.8386
▁depo	-11.8386
icida	-11.8389
ament	-11.8391
sentar	-11.8399
nima	-11.8409
secretário	-11.8414
idado	-11.8418
▁const	-11.8426
onstru	-11.8446
lizadas	-11.845
também	-11.8454
raç	-11.8459
onsider	-11.8482
mand	-11.8485
esqui	-11.8529
pública	-11.8535
▁comu	-11.8544
nad	-11.8549
▁responsabil	-11.8564
ission	-11.8569
▁corp	-11.857
▁signific	-11.8581
stó	-11.8584
▁milit	-11.8587
adu	-11.8587
uen	-11.8589
rden	-11.8595
tiliza	-11.8597
▁empresári	-11.8607
▁Pau	-11.8624
list	-11.8627
▁capi	-11.8642
mida	-11.8646
porque	-11.8662
upo	-11.8667
▁muni	-11.8674
ialmente	-11.8687
▁gan	-11.8701
crim	-11.8703
▁insti	-11.8705
acionamento	-11.8706
nhe	-11.8715
trada	-11.874
▁tempora	-11.875
andi	-11.8761
econômico	-11.8767
edit	-11.8774
tent	-11.8785
conhece	-11.8789
desco	-11.8792
lati	-11.8792
blico	-11.8809
ossos	-11.8812
▁desi	-11.8836
alizados	-11.8837
istência	-11.8846
isse	-11.8848
eran	-11.8877
strução	-11.8883
deir	-11.8883
icou	-11.8891
stav	-11.8902
▁ond	-11.8902
ecia	-11.8904
iamento	-11.8911
▁Ins	-11.8918
integra	-11.8924
capa	-11.8935
feder	-11.8941
omissão	-11.8948
dimentos	-11.8957
rincípio	-11.8964
▁históri	-11.8969
▁mesm	-11.8981
An	-11.8986
esar	-11.8987
ige	-11.9014
exer	-11.9016
itad	-11.9029
rofessores	-11.9045
cat	-11.9058
édic	-11.9061
▁pret	-11.9081
desej	-11.9082
poder	-11.9086
ponto	-11.9094
demais	-11.9107
inco	-11.9108
gistr	-11.9111
outr	-11.913
▁capac	-11.9135
ebe	-11.9145
olver	-11.9171
deputado	-11.9171
▁estabelec	-11.9172
▁relacion	-11.9174
terio	-11.919
rência	-11.9198
perceb	-11.9218
ropo	-11.9223
perd	-11.9224
▁decid	-11.9228
nalidade	-11.924
▁acon	-11.9243
vai	-11.9244
icula	-11.9253
têm	-11.9259
aut	-11.9272
peito	-11.9281
▁estad	-11.9284
cações	-11.9284
▁Comiss	-11.9285
uperi	-11.9286
edição	-11.9287
tip	-11.9299
udar	-11.9309
enhum	-11.9314
três	-11.932
ilm	-11.9321
Associação	-11.9329
lab	-11.9348
stratégia	-11.9385
gula	-11.9389
ntad	-11.9402
Instituto	-11.9413
dent	-11.9428
Pe	-11.944
▁desenvolvi	-11.9442
ampanha	-11.9449
▁dec	-11.9459
cionários	-11.9473
ssu	-11.9475
demo	-11.9493
credita	-11.95
pita	-11.95
dicad	-11.9506
conhecer	-11.9511
▁realizad	-11.9532
alizadas	-11.9547
▁pagam	-11.9554
blica	-11.9562
Te	-11.9589
onhecimento	-11.9593
afirma	-11.9593
romo	-11.9605
Pa	-11.9614
Universidade	-11.9614
icam	-11.9619
Programa	-11.9622
mpeonato	-11.9636
rend	-11.9643
nol	-11.9649
imple	-11.965
▁repres	-11.9652
atóri	-11.9656
exi	-11.9661
itan	-11.9663
sifica	-11.9677
ontinua	-11.9678
▁deci	-11.968
comp	-11.9694
umi	-11.9694
riança	-11.9696
▁Estadua	-11.9707
ergia	-11.9717
sistem	-11.9725
pode	-11.9727
olicia	-11.9728
oriza	-11.9733
efici	-11.9743
produ	-11.9761
orn	-11.9766
tig	-11.979
rês	-11.9793
▁limi	-11.9803
dit	-11.9803
estou	-11.981
▁estabeleci	-11.9814
▁usuári	-11.9817
edita	-11.9823
novo	-11.9827
cob	-11.9828
egistro	-11.9832
ubl	-11.9837
▁princ	-11.9843
▁estudant	-11.9853
tecnologia	-11.9861
▁bene	-11.9885
destina	-11.9897
uer	-11.9903
atureza	-11.9907
erada	-11.9925
evo	-11.9925
stic	-11.9925
vali	-11.9931
scen	-11.9935
corp	-11.9938
escri	-11.9956
abil	-11.9956
prote	-11.9959
tat	-11.9963
espe	-11.9965
cont	-11.9966
iante	-11.9975
manh	-11.9976
El	-11.9976
mel	-12.0012
ntr	-12.0018
emplo	-12.002
spor	-12.002
tif	-12.003
mplo	-12.0035
cinco	-12.0046
▁conjun	-12.0062
existe	-12.009
▁servido	-12.0112
endi	-12.0129
irr	-12.0136
sm	-12.0142
articipação	-12.0143
comen	-12.0147
ocal	-12.0151
vei	-12.0152
studante	-12.0155
respeit	-12.0166
▁sel	-12.0166
egu	-12.017
Centro	-12.0173
▁utili	-12.0177
ssunto	-12.0181
rianças	-12.0192
ornalista	-12.0194
rofissionais	-12.0194
Qua	-12.0198
ssibilidade	-12.0203
dena	-12.0203
erte	-12.0204
recisa	-12.0211
clu	-12.0226
produz	-12.0226
econômica	-12.0232
ilit	-12.0233
his	-12.0242
spec	-12.025
▁quali	-12.0251
dministrativa	-12.0253
merica	-12.0269
▁Desenvolv	-12.0277
arl	-12.0288
alo	-12.0295
monstr	-12.0306
▁dom	-12.0311
erar	-12.0333
▁movi	-12.0333
▁próxim	-12.0334
ssiona	-12.0354
overnador	-12.0358
bj	-12.037
uis	-12.0374
gov	-12.0381
rie	-12.0383
▁out	-12.0391
sub	-12.0404
idera	-12.0412
base	-12.0418
lheres	-12.0437
ntei	-12.0442
real	-12.0443
▁distr	-12.0449
nciona	-12.0457
mesmo	-12.0459
▁decl	-12.0467
uan	-12.0474
nden	-12.0476
rístic	-12.0485
comunica	-12.0487
requ	-12.0489
vend	-12.0491
specializad	-12.0503
sig	-12.0503
zado	-12.0507
oda	-12.0511
avia	-12.0512
lare	-12.0523
sel	-12.0525
tên	-12.0536
gost	-12.055
nifica	-12.0558
▁finan	-12.0573
ctiv	-12.0575
sab	-12.0597
uzi	-12.0605
acr	-12.0612
ári	-12.0619
hoje	-12.0624
stam	-12.0626
ivr	-12.0639
▁grup	-12.0646
stal	-12.0661
▁jogad	-12.0667
cide	-12.0679
tã	-12.0685
rein	-12.0689
campo	-12.0696
pou	-12.0697
alte	-12.071
Esp	-12.0713
control	-12.0725
Ro	-12.0762
suce	-12.0769
edimento	-12.0781
considera	-12.0785
osição	-12.079
Mo	-12.0794
empor	-12.0799
▁enqua	-12.0803
▁própri	-12.081
scim	-12.0813
mpl	-12.0814
eva	-12.0829
umenta	-12.0837
▁bus	-12.0838
crit	-12.0841
adicion	-12.0841
ficado	-12.0841
▁den	-12.0842
ossui	-12.086
tenho	-12.0901
▁estadu	-12.0902
çad	-12.0914
educa	-12.0924
cend	-12.0929
apel	-12.0937
nalis	-12.0942
eserva	-12.0952
você	-12.0956
Paulo	-12.0959
onsult	-12.096
ades	-12.0965
ualquer	-12.0966
inu	-12.097
Ge	-12.099
▁jorn	-12.0996
ciamento	-12.1003
bom	-12.1019
▁Jane	-12.1019
acaba	-12.1036
cris	-12.1039
ativ	-12.1054
eme	-12.1062
undi	-12.1064
sam	-12.1069
Cor	-12.1096
jus	-12.11
▁perí	-12.1106
sce	-12.1109
amor	-12.1111
trado	-12.1117
cidades	-12.1133
espon	-12.1167
fí	-12.1171
▁risc	-12.1171
onômico	-12.1192
passo	-12.1197
elei	-12.1201
licia	-12.1203
La	-12.1212
vari	-12.1213
nossa	-12.123
trib	-12.1231
nter	-12.1235
cíp	-12.1249
cali	-12.1257
xemplo	-12.127
inici	-12.1271
asc	-12.1278
corri	-12.1292
tex	-12.1293
Mi	-12.1296
natural	-12.1301
gres	-12.1316
assado	-12.1343
sobre	-12.1345
nida	-12.1357
bai	-12.1368
ançamento	-12.1381
tul	-12.1388
eze	-12.139
gad	-12.14
rganiz	-12.1402
tiliz	-12.1422
▁acr	-12.1426
õ	-12.1426
ipa	-12.1427
esto	-12.1434
aquel	-12.1437
organ	-12.1441
nhei	-12.1452
ssio	-12.1467
rtido	-12.1471
▁tard	-12.1484
Ho	-12.1488
necessário	-12.1499
pers	-12.1504
depois	-12.1509
▁mai	-12.1521
diz	-12.1524
lugar	-12.1525
presenta	-12.1525
ontrol	-12.1564
▁aque	-12.1567
istribuição	-12.1571
trat	-12.1575
ovem	-12.1581
ndepend	-12.159
direito	-12.161
rman	-12.1615
nacional	-12.1617
mage	-12.1639
juda	-12.1639
arti	-12.1641
rodu	-12.1644
arm	-12.1653
valia	-12.1658
omi	-12.1658
está	-12.1661
parte	-12.1662
▁apó	-12.1679
inanceir	-12.1687
ispos	-12.1691
rf	-12.1702
▁característic	-12.1702
lemento	-12.1703
omunidade	-12.1711
stava	-12.1714
artigo	-12.1715
▁mot	-12.1717
Ap	-12.1722
exist	-12.1774
agora	-12.1778
arqu	-12.178
óg	-12.1793
cie	-12.1807
istó	-12.1819
ulga	-12.1832
articipa	-12.1836
roce	-12.1845
onquista	-12.1849
▁set	-12.185
apit	-12.1852
compa	-12.1858
entam	-12.1867
dire	-12.1874
timentos	-12.1891
temas	-12.1896
iden	-12.1914
assi	-12.1922
atural	-12.1941
▁ec	-12.1948
lari	-12.1951
xist	-12.1976
oram	-12.1979
▁exper	-12.198
rescimento	-12.1984
▁mov	-12.1991
amental	-12.2001
esi	-12.2003
▁estrat	-12.2005
cter	-12.2007
▁asso	-12.2007
ensi	-12.2009
mis	-12.2014
zados	-12.2023
ropriedade	-12.203
here	-12.2076
acidade	-12.2084
nstituições	-12.2116
azendo	-12.2118
xperi	-12.2142
▁tecnol	-12.2151
chega	-12.2154
alquer	-12.2162
espa	-12.2165
super	-12.2167
▁meno	-12.2174
fis	-12.2191
ecn	-12.22
▁aci	-12.2217
Su	-12.2218
ontinu	-12.222
leira	-12.223
▁oc	-12.2232
▁alun	-12.2232
divi	-12.2234
elação	-12.2234
lhões	-12.2244
hum	-12.2255
rticula	-12.2256
ntan	-12.2288
▁moment	-12.229
rci	-12.2297
▁forç	-12.2307
ontos	-12.2312
aproveit	-12.2314
minist	-12.2318
Ne	-12.2325
ise	-12.2343
udança	-12.2372
lg	-12.2385
itura	-12.2408
nforme	-12.2411
Lu	-12.2418
orma	-12.2425
inanceira	-12.2426
nici	-12.2437
ordenado	-12.2443
nvestiga	-12.2444
cis	-12.2444
pop	-12.2469
Segundo	-12.2479
onado	-12.2487
linh	-12.2488
ogia	-12.2501
▁entrevist	-12.2511
essi	-12.2518
arin	-12.2532
▁gent	-12.2534
noite	-12.2535
presente	-12.2542
dera	-12.2557
ee	-12.2559
erti	-12.2561
dois	-12.2561
rest	-12.257
Li	-12.2573
ltim	-12.2576
sent	-12.2577
▁Constitui	-12.2581
epende	-12.2582
lhad	-12.2587
olução	-12.2613
Fe	-12.2618
gun	-12.2624
organização	-12.2633
rcado	-12.2638
mpr	-12.2645
squi	-12.2673
oná	-12.2677
▁Muni	-12.2685
stação	-12.2693
cionam	-12.2699
itá	-12.2705
quest	-12.2705
▁Justi	-12.271
ocument	-12.2716
ocumento	-12.2726
revi	-12.2744
determinad	-12.2751
versas	-12.2754
aprend	-12.2757
tage	-12.2761
versidade	-12.2767
antos	-12.279
acredit	-12.279
vad	-12.2792
sob	-12.2805
produto	-12.2807
Ja	-12.2831
inv	-12.2832
resse	-12.2844
níci	-12.2858
eitor	-12.2862
sino	-12.287
rca	-12.2873
▁inclusiv	-12.2874
etiva	-12.2874
impo	-12.2885
junt	-12.2902
sá	-12.2907
▁secre	-12.2908
erci	-12.2908
▁medid	-12.2916
neira	-12.2919
vulga	-12.2921
▁reconhe	-12.2933
queri	-12.294
rl	-12.2948
Deus	-12.2971
dentifica	-12.2974
Un	-12.2975
enh	-12.299
Pr	-12.3
edica	-12.3001
munidade	-12.3004
mara	-12.3015
escola	-12.3023
rocedimento	-12.3027
mant	-12.3029
aber	-12.3031
nim	-12.3042
lug	-12.3051
rienta	-12.3061
▁Fernan	-12.3075
ncent	-12.3077
▁his	-12.3079
equeno	-12.3086
iamente	-12.3092
natura	-12.3098
tut	-12.3102
alhad	-12.3127
reit	-12.3131
ecursos	-12.3141
▁Polí	-12.3145
ied	-12.3154
▁tin	-12.3155
militar	-12.3163
resid	-12.3165
eleito	-12.3172
conomi	-12.3173
▁apr	-12.3175
encontro	-12.3177
pendente	-12.3204
úme	-12.3209
roduz	-12.3213
onjunto	-12.3222
egião	-12.3229
orno	-12.3232
ndica	-12.3234
heg	-12.3236
▁important	-12.3245
odem	-12.3261
▁Dep	-12.3263
▁estrutur	-12.3276
assim	-12.3288
ein	-12.3306
conceit	-12.3307
lembr	-12.3307
guin	-12.3318
▁pon	-12.3323
organiza	-12.3324
▁responsabili	-12.3334
▁fut	-12.3335
▁Cen	-12.3337
lui	-12.3347
▁ofere	-12.3357
onse	-12.3363
trar	-12.3364
▁Just	-12.3364
So	-12.3369
emp	-12.3371
tece	-12.3375
viment	-12.3387
dual	-12.339
eman	-12.3394
sum	-12.3395
onalidade	-12.342
menos	-12.3426
jogador	-12.3452
ovas	-12.3453
inclusive	-12.3484
..............	-12.3493
nclui	-12.3494
principalmente	-12.3503
▁prá	-12.3504
Cont	-12.3507
esqu	-12.3508
zada	-12.3509
impe	-12.3511
depend	-12.3511
util	-12.3527
cart	-12.3529
▁ef	-12.353
onômica	-12.3534
orna	-12.3539
entr	-12.3539
dan	-12.354
nfe	-12.3542
ionári	-12.3554
então	-12.3559
amin	-12.3562
indi	-12.3564
doença	-12.359
oordena	-12.3607
necessária	-12.3609
rev	-12.3617
▁falt	-12.3618
educ	-12.3621
▁Educ	-12.3625
utoridade	-12.3629
▁minis	-12.3661
▁Internaciona	-12.3661
quipamentos	-12.3661
sabe	-12.3666
efini	-12.3669
rient	-12.3678
nhecer	-12.3683
retamente	-12.3686
ponde	-12.3687
técnica	-12.3693
limi	-12.3704
▁most	-12.3708
utado	-12.3711
▁ani	-12.3719
sque	-12.3723
ngre	-12.3733
epar	-12.3739
epend	-12.3741
dante	-12.3745
▁Mini	-12.3748
ezes	-12.3754
▁sere	-12.3764
stabelecimento	-12.3765
mportante	-12.3769
xt	-12.378
comun	-12.3793
ulg	-12.3795
odas	-12.3817
ortun	-12.3819
partid	-12.3847
preg	-12.3847
spo	-12.3864
cut	-12.3872
uard	-12.3881
nidades	-12.3886
esponsável	-12.3893
eção	-12.3898
uando	-12.3899
educação	-12.3901
brig	-12.3939
Go	-12.3945
caç	-12.395
acio	-12.3966
articip	-12.3968
pedido	-12.3968
tad	-12.3972
En	-12.3979
xis	-12.3985
pesa	-12.3991
sin	-12.3991
inclui	-12.3995
▁especializ	-12.4003
nist	-12.4014
uli	-12.4016
cond	-12.4028
epois	-12.404
leitora	-12.4049
▁veícul	-12.4052
uste	-12.4072
zação	-12.4086
Br	-12.4093
imeira	-12.4093
ocalizad	-12.4099
alia	-12.4104
▁expli	-12.4126
studant	-12.413
▁pesquisado	-12.4132
romove	-12.4148
set	-12.4157
autor	-12.4163
ain	-12.417
marc	-12.4177
▁fren	-12.4189
urs	-12.4191
volvido	-12.4192
▁aber	-12.4204
responsável	-12.4207
studo	-12.4221
adeir	-12.4237
cebe	-12.4244
devido	-12.4245
técnico	-12.4249
ução	-12.4253
opor	-12.4254
lda	-12.4278
nclus	-12.429
iníci	-12.4295
disse	-12.43
▁dan	-12.4301
perman	-12.4313
exce	-12.4319
▁Francisc	-12.4323
série	-12.433
apenas	-12.4338
aíses	-12.4345
projeto	-12.4346
candidat	-12.4347
▁alg	-12.4349
eque	-12.4349
eci	-12.435
conf	-12.4352
nac	-12.4353
▁Estad	-12.4355
ergunta	-12.4361
enefício	-12.4365
preço	-12.4367
quel	-12.4369
pora	-12.4376
iment	-12.4386
pessoa	-12.439
arceria	-12.4409
quatro	-12.4418
ncen	-12.4426
▁dispon	-12.4441
sit	-12.4451
errament	-12.4456
▁apli	-12.4458
gani	-12.4469
num	-12.4473
onceito	-12.4476
▁contr	-12.4488
Par	-12.4491
omiss	-12.45
▁tota	-12.4514
onstituição	-12.4516
falta	-12.4521
sente	-12.4523
sucesso	-12.4524
alis	-12.4532
ublica	-12.4534
mpreend	-12.4534
companha	-12.454
obriga	-12.4543
governo	-12.4546
política	-12.4554
resta	-12.4562
istr	-12.4577
Be	-12.458
eferência	-12.4592
gum	-12.4606
apar	-12.4613
norma	-12.4628
gic	-12.4628
▁funç	-12.4628
tore	-12.4631
onfi	-12.4664
olt	-12.4665
Camp	-12.4666
duas	-12.4667
vol	-12.467
ceber	-12.4672
desde	-12.4692
come	-12.4704
dinh	-12.4719
aminho	-12.4719
sibil	-12.4733
segundo	-12.4739
ssado	-12.474
iferente	-12.4742
isi	-12.4742
omunica	-12.4743
ubstitu	-12.475
esidência	-12.4754
mações	-12.4754
sita	-12.4755
Tra	-12.4761
olítico	-12.4781
ribuna	-12.4794
▁operaç	-12.4807
cionad	-12.4809
▁dess	-12.481
ransp	-12.4827
enca	-12.4838
municação	-12.4841
eado	-12.4845
▁alé	-12.4846
▁repr	-12.4852
ausa	-12.4857
oming	-12.4861
licad	-12.4885
even	-12.4885
confor	-12.4892
ntegr	-12.4896
embra	-12.4908
itua	-12.491
rai	-12.4919
omen	-12.4923
Am	-12.4931
epresentantes	-12.4935
▁dispu	-12.4939
meno	-12.4951
▁jornalis	-12.4952
brasileira	-12.4953
had	-12.4971
ervidor	-12.4971
dif	-12.4977
Ar	-12.4986
sag	-12.4992
xecu	-12.4996
erenci	-12.5033
ngress	-12.5033
▁funcionári	-12.5035
falt	-12.5036
cheg	-12.505
▁Seg	-12.5058
guir	-12.508
ormas	-12.5087
▁superi	-12.5092
regula	-12.5093
lunos	-12.5095
riza	-12.5105
auto	-12.5112
benefício	-12.5116
ener	-12.5117
xperiência	-12.5124
.......	-12.5129
▁negóci	-12.513
▁Carlo	-12.5133
icional	-12.5133
▁permi	-12.514
rocessos	-12.514
ociais	-12.515
▁desd	-12.5158
stim	-12.5164
ficação	-12.5174
temp	-12.5192
oman	-12.522
ajud	-12.522
▁publi	-12.5231
iscu	-12.5234
litar	-12.5234
orador	-12.5241
mani	-12.5242
ntidade	-12.5247
iag	-12.5258
onc	-12.5265
inst	-12.5266
Estado	-12.5278
▁identifi	-12.5284
etor	-12.5292
otor	-12.5322
tural	-12.5338
▁difere	-12.5346
ficar	-12.5377
xercício	-12.5379
lement	-12.5396
acordo	-12.5396
profissional	-12.541
nesta	-12.5433
maçã	-12.5434
▁mos	-12.5436
▁qua	-12.5449
áve	-12.545
▁resol	-12.5458
▁comentári	-12.5463
olh	-12.5464
possibilidade	-12.5466
text	-12.5519
▁ens	-12.5519
process	-12.5522
▁liv	-12.554
rati	-12.5599
reciso	-12.5601
jetivo	-12.5606
pecial	-12.5613
discu	-12.564
seguid	-12.5646
omin	-12.5648
diferença	-12.5651
ficia	-12.5658
▁eleit	-12.5663
mid	-12.5663
éti	-12.5664
scente	-12.5668
pessoal	-12.5671
▁ges	-12.5686
quase	-12.5692
hav	-12.5694
Sa	-12.5696
efeitura	-12.5697
sionais	-12.5699
▁def	-12.57
utur	-12.5707
ntante	-12.5713
área	-12.5736
pleta	-12.5741
conh	-12.5743
controle	-12.5747
▁gru	-12.5754
lame	-12.5756
entra	-12.5757
samento	-12.5757
meiro	-12.5769
algu	-12.5771
mulher	-12.5779
sustent	-12.5793
nheir	-12.5794
esultados	-12.5797
▁lib	-12.5799
▁doc	-12.5802
casa	-12.5804
obe	-12.5823
escrit	-12.5833
sfor	-12.584
ostra	-12.5841
rior	-12.5848
eal	-12.585
cuti	-12.5855
grupo	-12.5856
escrito	-12.5885
conform	-12.5888
olvi	-12.5912
anci	-12.592
melhor	-12.5934
ntende	-12.5936
esquisador	-12.594
usta	-12.5941
gurança	-12.5943
compreen	-12.5944
mov	-12.595
nselh	-12.5966
Port	-12.5974
tinh	-12.5976
▁Direit	-12.6003
plet	-12.6004
Grande	-12.6011
prefeit	-12.6015
verna	-12.6019
mate	-12.6036
ribu	-12.6043
esempenho	-12.6059
rç	-12.6067
▁sit	-12.6108
▁econômic	-12.6108
material	-12.6109
nfor	-12.6125
inad	-12.6147
rtam	-12.6158
anifest	-12.617
ralmente	-12.6175
interesse	-12.6178
apaci	-12.6182
public	-12.619
risco	-12.6195
stant	-12.6199
▁aces	-12.6202
▁socie	-12.6208
▁cresci	-12.6208
título	-12.621
ncontr	-12.6211
▁primeir	-12.6225
pelos	-12.6229
fala	-12.623
conta	-12.6234
dentro	-12.6237
acre	-12.6248
modelo	-12.6249
mentário	-12.6255
▁Administr	-12.6257
▁seman	-12.6263
iços	-12.6269
unid	-12.6273
onh	-12.6274
istê	-12.6278
nunca	-12.6278
aracterísticas	-12.6283
▁recurs	-12.6287
Si	-12.6305
hama	-12.6314
▁seguin	-12.6333
senti	-12.6334
sid	-12.6343
ecno	-12.635
passad	-12.6355
atamento	-12.6367
egisla	-12.637
caminho	-12.6371
Gr	-12.6372
ionam	-12.6381
seri	-12.6381
neste	-12.6383
nterna	-12.6384
nvestimentos	-12.6385
nua	-12.6414
análise	-12.6436
zend	-12.6444
Ve	-12.6445
hega	-12.6446
▁visi	-12.646
pend	-12.6461
estru	-12.6482
vulg	-12.6483
▁gos	-12.6485
kkkkkkkkkkkkkkkk	-12.6515
ômi	-12.6522
div	-12.6522
Conselho	-12.653
gera	-12.6533
nerg	-12.6539
aminha	-12.6544
estabelecid	-12.6547
icat	-12.6549
última	-12.6561
asa	-12.6564
diferente	-12.6581
ergunt	-12.6627
osse	-12.6633
ferece	-12.6635
sider	-12.664
nível	-12.6644
vestimentos	-12.6664
trabalho	-12.6665
▁muit	-12.6666
reir	-12.6671
rocess	-12.6675
▁noss	-12.668
iç	-12.6687
ervi	-12.6706
mensa	-12.6712
revis	-12.6712
integr	-12.6751
articipar	-12.6757
cai	-12.6757
repara	-12.6765
fir	-12.6766
nício	-12.6777
ositivo	-12.6786
nece	-12.6787
▁perm	-12.6787
▁devi	-12.6789
▁even	-12.6798
egui	-12.6801
idor	-12.6809
anização	-12.6814
tiga	-12.6818
ibu	-12.6822
ossibilidade	-12.6829
▁Constitu	-12.6829
esposta	-12.6829
ossi	-12.6847
jun	-12.6852
consider	-12.6859
funciona	-12.686
Maria	-12.6867
ilme	-12.6878
ivulga	-12.688
ree	-12.6884
ratamento	-12.6887
candidatos	-12.6888
buna	-12.6893
mostr	-12.6899
pret	-12.6913
resc	-12.6923
▁prog	-12.693
nteressante	-12.693
rátic	-12.6934
▁diversa	-12.6944
▁assi	-12.695
empresa	-12.6953
fazendo	-12.6972
uit	-12.698
explic	-12.6988
região	-12.6991
uncionários	-12.6992
desc	-12.6992
did	-12.7
qualquer	-12.7007
model	-12.701
▁prefei	-12.7018
▁dem	-12.7024
rtic	-12.7027
jornal	-12.703
cresci	-12.7031
▁espaç	-12.7034
class	-12.7042
naliza	-12.7042
teres	-12.705
Ser	-12.7061
rticul	-12.7064
Cr	-12.7066
▁seri	-12.707
veri	-12.7074
ubli	-12.7084
ndente	-12.7085
esquis	-12.7093
ocali	-12.7093
somente	-12.7102
laç	-12.7109
nstrumento	-12.7121
gê	-12.7123
contin	-12.7142
erid	-12.7159
direit	-12.7173
Ass	-12.718
ermo	-12.7184
pital	-12.7184
iári	-12.7185
político	-12.7186
anima	-12.7201
roposta	-12.7202
ntif	-12.7206
▁aval	-12.7216
vereador	-12.7229
prom	-12.7237
assar	-12.7241
capital	-12.7247
leit	-12.7252
primeiro	-12.7272
horas	-12.7272
▁brasileir	-12.7283
rtir	-12.7293
saúde	-12.7296
▁desti	-12.7303
históric	-12.7306
test	-12.7321
direto	-12.7324
programa	-12.7325
anu	-12.7358
governa	-12.7359
unica	-12.737
▁havi	-12.7373
apacidade	-12.7383
ntend	-12.7396
stitui	-12.7404
uci	-12.7413
lassifica	-12.7432
etar	-12.7436
▁cump	-12.7446
sociais	-12.745
▁minist	-12.7451
volt	-12.7459
entação	-12.7462
▁dent	-12.7467
stan	-12.747
uaç	-12.7473
upe	-12.7478
umas	-12.7483
omuni	-12.7484
xem	-12.7492
Mu	-12.7495
Secretaria	-12.7545
prop	-12.7557
conse	-12.756
Va	-12.7565
espaço	-12.757
risc	-12.7576
rete	-12.7598
▁acom	-12.7609
ienta	-12.7667
▁palavr	-12.7681
significa	-12.7684
rrer	-12.7705
▁cerc	-12.7736
semana	-12.7739
pli	-12.7744
acter	-12.7749
▁estab	-12.7751
movi	-12.7756
coisa	-12.7762
membro	-12.7777
homem	-12.7777
usad	-12.7802
indústria	-12.7803
▁unida	-12.7809
classifica	-12.7809
aior	-12.7826
▁preç	-12.7847
admi	-12.7867
▁President	-12.787
vestiment	-12.7879
asi	-12.7898
▁pala	-12.7899
stitut	-12.7907
▁organizaç	-12.7909
diç	-12.7912
antig	-12.7949
▁ente	-12.7951
financeira	-12.7952
eículo	-12.7952
efeito	-12.7952
comunic	-12.7959
▁consumid	-12.7964
oa	-12.7968
inten	-12.7969
rincipal	-12.7975
zadas	-12.7976
maior	-12.7993
▁conti	-12.7994
tecn	-12.7995
continu	-12.8005
istribui	-12.8007
carr	-12.8017
▁preside	-12.8023
Ed	-12.8066
constituciona	-12.8073
organi	-12.8086
sten	-12.809
▁present	-12.8095
rincipais	-12.8108
▁outr	-12.8112
ategoria	-12.8118
liente	-12.812
ampe	-12.8127
quen	-12.8137
maç	-12.8148
iê	-12.8149
conc	-12.8152
volv	-12.8163
nif	-12.8166
orienta	-12.8167
omer	-12.8182
merc	-12.8192
▁mun	-12.8194
complet	-12.8195
abora	-12.8195
amenta	-12.8197
▁relaç	-12.8209
▁mili	-12.8215
▁confir	-12.8223
▁nec	-12.823
administrativ	-12.8239
mund	-12.8244
oloca	-12.8247
olvido	-12.8252
reito	-12.8254
sentad	-12.8268
rp	-12.827
▁dete	-12.8283
tati	-12.8286
dema	-12.8287
deri	-12.8288
Quan	-12.8288
começar	-12.8304
ciedade	-12.8346
nsu	-12.8349
economia	-12.8359
bera	-12.8366
brasil	-12.837
rsa	-12.8372
nolog	-12.8376
adua	-12.838
ectiv	-12.8386
evan	-12.8398
relação	-12.8413
alme	-12.8416
▁sist	-12.842
ontrato	-12.8427
onhecido	-12.8438
▁Institut	-12.8439
inicia	-12.8453
meio	-12.8457
será	-12.8457
▁materia	-12.8467
▁tenh	-12.8475
stiga	-12.8477
ransport	-12.8483
ituação	-12.8487
olv	-12.8494
mater	-12.8494
▁cois	-12.8498
transporte	-12.8501
nai	-12.8512
ogi	-12.8512
▁pesqu	-12.8517
uran	-12.8519
especialmente	-12.8536
enor	-12.8547
aminh	-12.8556
rofes	-12.857
▁orga	-12.859
hões	-12.8608
alguns	-12.8609
onsiderado	-12.8644
entário	-12.8658
squ	-12.8659
rofi	-12.8664
ead	-12.8671
teg	-12.8671
José	-12.8676
cessos	-12.8676
▁disponibili	-12.8677
refere	-12.8688
sponsabilidade	-12.8702
último	-12.8706
ocaliza	-12.8706
..........	-12.8725
andidato	-12.8741
ialista	-12.875
present	-12.8751
oença	-12.8775
egoria	-12.8789
nologia	-12.8798
........	-12.8806
duc	-12.8808
▁minh	-12.8826
orqu	-12.8827
▁estabele	-12.884
jetos	-12.8858
alores	-12.8859
dústria	-12.8861
atual	-12.8863
traç	-12.8867
▁exer	-12.8873
tara	-12.8881
deixa	-12.8888
scolh	-12.8889
subst	-12.8894
▁envol	-12.8896
ubs	-12.8902
ngr	-12.8904
imag	-12.8916
mort	-12.8917
determina	-12.893
niciativa	-12.8935
▁soc	-12.8937
specializa	-12.8976
Saúde	-12.8985
sulta	-12.8988
nvestimento	-12.8998
delo	-12.9019
iori	-12.902
rova	-12.9023
ossibili	-12.9027
entidade	-12.9034
carro	-12.905
disc	-12.9069
ersa	-12.909
dutos	-12.9094
nut	-12.9095
▁particula	-12.9107
orc	-12.9111
lara	-12.9114
nteir	-12.9121
espos	-12.9161
▁ut	-12.9166
ransform	-12.9174
stitu	-12.9181
Bras	-12.9194
nq	-12.9203
roblemas	-12.9205
ermina	-12.9209
urad	-12.9211
spa	-12.9231
mpres	-12.9257
lítica	-12.9259
eríodo	-12.9264
som	-12.9267
▁difer	-12.9269
tifi	-12.9282
Tribunal	-12.9303
criação	-12.9308
abal	-12.931
onada	-12.9323
fam	-12.9338
▁Cultur	-12.9341
▁linh	-12.9342
proced	-12.9342
▁cres	-12.9343
▁tot	-12.9343
seg	-12.9366
presentar	-12.9366
corrent	-12.9374
história	-12.9376
▁abe	-12.9377
quinta	-12.9385
minad	-12.9388
▁Jus	-12.9398
resci	-12.9399
prev	-12.9403
rgan	-12.9405
▁aquel	-12.9411
bie	-12.9422
rviço	-12.9445
assist	-12.9453
▁ofic	-12.9472
▁diverso	-12.9472
omeça	-12.9474
ntrole	-12.9485
erí	-12.9498
ntár	-12.9521
elhores	-12.9535
▁princípi	-12.9536
muda	-12.9539
emen	-12.9545
▁apl	-12.9556
Trabalh	-12.9557
rson	-12.9578
às	-12.9581
experi	-12.9595
ulad	-12.9595
umen	-12.9599
partir	-12.9604
sumid	-12.962
blem	-12.963
cament	-12.9632
info	-12.9636
pei	-12.9657
çã	-12.9662
nive	-12.9662
nselho	-12.967
Departamento	-12.9681
nen	-12.9683
▁categori	-12.9689
Pre	-12.9703
ism	-12.9708
sile	-12.9732
▁Municip	-12.9744
avaliação	-12.9779
▁desemp	-12.9794
únic	-12.9802
acab	-12.9804
ajuda	-12.9812
filme	-12.9817
Ministério	-12.9823
esultado	-12.9827
empresas	-12.9846
esponde	-12.9848
completa	-12.9859
Fran	-12.9875
compar	-12.9877
ltimos	-12.9895
cole	-12.9923
deve	-12.9953
extr	-12.9964
▁cultu	-12.9973
onhecer	-12.9999
Cam	-13
processo	-13.0009
ucesso	-13.0011
amen	-13.0015
orp	-13.0018
ndial	-13.0029
▁crian	-13.0031
presentado	-13.0044
govern	-13.0053
desenvolvimento	-13.0061
mpor	-13.0063
consult	-13.0072
▁nom	-13.0099
caracter	-13.0102
regu	-13.0108
onhecida	-13.0114
trein	-13.0116
ssan	-13.0137
campa	-13.0138
médico	-13.0142
primeira	-13.0143
istrado	-13.0146
human	-13.0149
disponíve	-13.0162
dimento	-13.0162
verdade	-13.0163
ambiente	-13.0194
outro	-13.0202
carg	-13.0204
omia	-13.0208
comunicação	-13.0211
ernet	-13.0232
sendo	-13.0247
portunidade	-13.0251
utilização	-13.0254
muni	-13.0259
uin	-13.0289
obs	-13.0315
cien	-13.0326
comunicaç	-13.0326
verd	-13.0343
ivid	-13.0353
fren	-13.0358
role	-13.036
elacionamento	-13.0374
mple	-13.0376
jogo	-13.0397
compra	-13.0416
ecla	-13.0427
▁dep	-13.043
mercial	-13.0435
▁proce	-13.046
poss	-13.0467
clusiv	-13.0472
▁pesso	-13.0486
lidad	-13.05
ontra	-13.05
▁domi	-13.0507
rent	-13.0508
articipante	-13.052
antidade	-13.053
enco	-13.053
▁sext	-13.0552
ianças	-13.0553
muitas	-13.0579
possibili	-13.0597
ugar	-13.0605
stadual	-13.0631
prin	-13.0652
apare	-13.0667
lter	-13.0674
seria	-13.0678
instala	-13.068
oorden	-13.0698
▁méd	-13.0699
tram	-13.07
expl	-13.0736
estava	-13.0738
tribuiç	-13.075
rmação	-13.0757
nterior	-13.0758
nific	-13.0759
vro	-13.076
enquanto	-13.0761
▁comportam	-13.0773
Min	-13.0802
sai	-13.082
meir	-13.0822
efer	-13.0832
inheir	-13.0836
jorna	-13.0839
Direito	-13.084
▁candid	-13.0842
filho	-13.0865
ampo	-13.087
tai	-13.0875
scr	-13.0888
aração	-13.0894
suas	-13.0904
medida	-13.0908
emonstra	-13.0913
eclara	-13.0923
constitu	-13.0927
▁Fed	-13.093
▁acre	-13.0932
spectiv	-13.0934
pú	-13.0938
informação	-13.0938
Segu	-13.0939
proporciona	-13.0942
quere	-13.0958
▁ago	-13.0972
rmar	-13.0975
stig	-13.098
lime	-13.1
descob	-13.1001
omportamento	-13.1004
execu	-13.101
energia	-13.101
clui	-13.1011
coloca	-13.1025
gran	-13.1036
mili	-13.1039
produtos	-13.1049
levan	-13.1053
ublicad	-13.1058
rencia	-13.1061
stad	-13.1077
leir	-13.1104
tele	-13.1121
oti	-13.1135
produt	-13.1172
laneja	-13.1202
comprom	-13.1206
express	-13.1212
ntido	-13.1214
▁governado	-13.1216
omentário	-13.1217
nclusive	-13.1225
egula	-13.1225
exe	-13.1239
Santa	-13.1264
rviços	-13.1268
nage	-13.1273
ssores	-13.1273
▁reali	-13.1284
Inter	-13.1289
lass	-13.1294
▁Bras	-13.1315
forte	-13.1316
ndament	-13.1323
heres	-13.1325
nvestig	-13.1327
conom	-13.1334
vário	-13.1346
acredita	-13.1366
nform	-13.1369
uil	-13.1384
oncei	-13.1393
alg	-13.1416
prepar	-13.1437
perio	-13.1458
conquista	-13.1459
▁proj	-13.1472
ntrevista	-13.1478
▁ima	-13.1486
sage	-13.1504
▁doenç	-13.1505
erma	-13.1512
nologi	-13.1517
prob	-13.1529
ilizado	-13.1531
róprio	-13.1533
ercad	-13.1561
precisa	-13.1563
tant	-13.1566
itóri	-13.1571
amí	-13.1574
rtid	-13.1588
sé	-13.16
orrente	-13.1631
nten	-13.164
ocial	-13.1641
sec	-13.1643
família	-13.1647
▁merca	-13.1647
erramenta	-13.165
▁tev	-13.1668
ecid	-13.1669
tratam	-13.1679
ncl	-13.1682
íst	-13.1683
alunos	-13.1685
dmi	-13.1691
lítico	-13.1692
proxima	-13.1707
capit	-13.1718
side	-13.1725
aciona	-13.1738
rsi	-13.1756
.............	-13.1766
▁obse	-13.1767
serviço	-13.1783
▁infor	-13.1784
ransforma	-13.1799
rnado	-13.1829
iol	-13.1838
onheci	-13.1855
meta	-13.1855
segunda	-13.1865
domi	-13.1867
capaci	-13.1875
pessoas	-13.1877
Ce	-13.1879
continua	-13.1887
cnologia	-13.189
nclusiv	-13.192
strat	-13.1926
rojet	-13.1961
jurídic	-13.1972
▁águ	-13.1996
financeiro	-13.1998
aterial	-13.2
oportu	-13.2012
usti	-13.2033
através	-13.2037
amigo	-13.2046
...........	-13.2048
pala	-13.205
esde	-13.2053
Prefeit	-13.2055
isita	-13.2065
Dire	-13.2073
rativ	-13.2076
cati	-13.2078
unto	-13.209
gis	-13.2096
▁enqu	-13.2114
categoria	-13.2119
▁sér	-13.2129
iliza	-13.2134
▁respons	-13.2165
encontra	-13.2183
edade	-13.2183
xto	-13.2184
▁Deu	-13.2191
estad	-13.2197
Cons	-13.2216
proc	-13.2224
distribuição	-13.2225
igad	-13.2237
alé	-13.2246
olici	-13.2248
obri	-13.2249
stria	-13.2252
álise	-13.2258
een	-13.226
prime	-13.227
podem	-13.2274
ratu	-13.2294
cioná	-13.2294
aproxima	-13.2302
ordenad	-13.231
aulo	-13.2312
prove	-13.2314
epresentante	-13.2337
encontrar	-13.2344
dest	-13.2366
▁apres	-13.238
lquer	-13.2385
amig	-13.2386
isponibili	-13.2391
possa	-13.2404
responsáve	-13.241
deci	-13.2413
róximo	-13.2414
livro	-13.2421
tiça	-13.2432
sidência	-13.2444
sis	-13.2448
▁Conse	-13.2449
lementa	-13.2452
observ	-13.2466
trole	-13.2473
mporta	-13.2488
foram	-13.2489
nvolvimento	-13.2496
quarta	-13.2505
preocupa	-13.2512
conjunto	-13.2528
epa	-13.2528
decis	-13.2532
deix	-13.2538
redit	-13.255
áreas	-13.2551
aso	-13.256
ompet	-13.2567
▁mui	-13.2583
eso	-13.2583
▁defe	-13.2594
rmad	-13.2606
oderia	-13.2625
crito	-13.263
eputad	-13.2662
▁efeit	-13.2664
deria	-13.267
vários	-13.2671
▁tecnologi	-13.268
ivulg	-13.2685
informa	-13.2686
sult	-13.269
dete	-13.2695
heir	-13.2697
ultado	-13.2703
▁concl	-13.2707
estabelece	-13.2712
mpet	-13.2714
▁transpor	-13.2715
prio	-13.2728
maneira	-13.2738
minis	-13.2743
oficial	-13.2757
ogra	-13.2757
scre	-13.2759
ncor	-13.2764
Fernand	-13.2794
▁últim	-13.2808
quip	-13.2819
▁ferrament	-13.2821
ument	-13.2821
▁pub	-13.2832
▁bras	-13.2838
inistra	-13.2857
utiliz	-13.2878
Tr	-13.288
dut	-13.2882
opulação	-13.2883
det	-13.2916
andes	-13.2916
alida	-13.2925
atendimento	-13.2926
disposi	-13.2926
energ	-13.2933
rreir	-13.2941
nsel	-13.2947
▁profess	-13.2948
próprio	-13.2957
ambienta	-13.2959
açã	-13.2967
putad	-13.2976
enf	-13.2977
▁desenvol	-13.2982
disponibil	-13.2995
creve	-13.2995
urant	-13.2998
ressante	-13.2998
bjet	-13.3
▁Program	-13.3005
ontribui	-13.3011
▁tod	-13.3015
utiliza	-13.3019
longo	-13.3042
simples	-13.3061
disp	-13.3069
cumpr	-13.309
unciona	-13.3101
dom	-13.3113
agamento	-13.3113
assu	-13.3138
orga	-13.3139
aneira	-13.3143
nsumidor	-13.3158
▁populaç	-13.3165
eixa	-13.3181
Comissão	-13.3207
▁independe	-13.3209
▁polic	-13.3215
conforme	-13.3236
Paul	-13.3249
Educação	-13.325
onti	-13.3251
prepara	-13.3254
ternet	-13.3275
cim	-13.33
busca	-13.3307
gosta	-13.3321
balho	-13.3324
odel	-13.3336
ucio	-13.3351
entant	-13.3373
isas	-13.3375
alu	-13.3377
arac	-13.3392
▁pedid	-13.3401
muitos	-13.341
cessi	-13.3415
tema	-13.3425
▁hu	-13.3454
termo	-13.3465
feitura	-13.3471
dizer	-13.3472
encontr	-13.3497
lusiv	-13.3499
niversidade	-13.3518
sentido	-13.3521
speit	-13.3528
homens	-13.3538
issiona	-13.3552
udic	-13.3553
sultados	-13.3553
mbienta	-13.3555
▁decla	-13.3562
nosso	-13.3569
princípio	-13.3578
▁úni	-13.3588
contribui	-13.3594
átic	-13.3597
▁oportuni	-13.3598
rística	-13.3599
ênci	-13.3606
mentári	-13.3613
▁direi	-13.3618
apita	-13.3626
repa	-13.3632
rabalhador	-13.3656
aracter	-13.3668
rpo	-13.367
▁deter	-13.3672
informações	-13.3674
inhe	-13.3683
lemb	-13.3687
fest	-13.3688
plano	-13.3702
secretári	-13.3703
visi	-13.3704
nsidera	-13.3707
olve	-13.3725
ersos	-13.3731
scon	-13.3736
unc	-13.3754
pena	-13.3768
stiv	-13.3773
▁Desenvolvi	-13.3784
rinh	-13.3791
▁susten	-13.3796
outros	-13.3804
procur	-13.3804
▁autoridad	-13.3817
▁Presid	-13.3826
frent	-13.3827
nament	-13.3836
undia	-13.3846
▁opo	-13.3864
popular	-13.3865
ráti	-13.3868
roblema	-13.3873
ntid	-13.3883
estrutur	-13.3918
profissionais	-13.3925
uida	-13.395
paciente	-13.397
refer	-13.398
sociedade	-13.3981
proposta	-13.3982
procura	-13.3983
roj	-13.3991
interpreta	-13.3993
▁diferen	-13.3993
período	-13.3996
avalia	-13.4008
stânci	-13.4008
nstitui	-13.4019
estig	-13.4026
omeço	-13.4027
rtan	-13.4028
pod	-13.4031
contrato	-13.4034
onstitui	-13.4049
Estados	-13.4049
exemplo	-13.4062
▁responsabi	-13.4072
estadua	-13.4075
grandes	-13.4077
ividades	-13.4077
passage	-13.4108
escon	-13.4119
.........	-13.4125
Carlos	-13.4126
Ci	-13.4133
limenta	-13.4142
algumas	-13.4143
após	-13.4148
terceir	-13.4149
iferença	-13.4157
egisl	-13.4157
substitu	-13.4159
classific	-13.4163
stent	-13.4166
nenhum	-13.4167
▁Minis	-13.4172
avali	-13.4193
ortugu	-13.4201
ltado	-13.4203
afirm	-13.4203
ganh	-13.4204
pesquisa	-13.4219
sibili	-13.4222
rticular	-13.4228
ssoci	-13.4253
ealizado	-13.4268
nsider	-13.4277
rát	-13.4286
lemas	-13.4292
iat	-13.4311
qualidade	-13.4323
lançamento	-13.4326
▁correspon	-13.4334
problema	-13.434
riação	-13.4345
▁clas	-13.4357
ecente	-13.4368
domingo	-13.4373
▁categ	-13.4384
responde	-13.4387
eç	-13.4391
stituições	-13.4392
iên	-13.4399
desp	-13.4404
jornalista	-13.4408
novos	-13.4414
ogad	-13.4416
liberdade	-13.4435
egad	-13.4436
isponíve	-13.4456
opos	-13.4465
inform	-13.4465
ecis	-13.4487
reocupa	-13.4502
luga	-13.4516
tilizado	-13.4518
cidad	-13.4529
speci	-13.4537
recis	-13.4538
estu	-13.4541
ompeti	-13.4552
tend	-13.4552
raba	-13.4559
ncontrar	-13.456
regi	-13.4562
escrev	-13.457
clas	-13.4578
total	-13.4582
oduto	-13.4606
quipamento	-13.4606
lgum	-13.4645
lógic	-13.4646
rame	-13.4646
andida	-13.4648
Federa	-13.4649
evento	-13.4649
tegra	-13.4653
dentr	-13.4655
image	-13.4655
causa	-13.4661
iad	-13.4662
início	-13.4664
aluno	-13.4674
bje	-13.4676
pamento	-13.4697
▁dei	-13.4704
▁encont	-13.4709
cora	-13.4712
tist	-13.472
igni	-13.472
dessa	-13.4722
erdadeir	-13.4732
estran	-13.4739
sabi	-13.4744
inde	-13.4748
alhador	-13.475
erio	-13.4755
brasileiro	-13.4762
serviços	-13.477
verdadeir	-13.4774
cialista	-13.4785
plane	-13.4791
Santo	-13.4802
gara	-13.481
investi	-13.4829
issi	-13.4836
experiência	-13.4844
onhece	-13.4859
specia	-13.486
inve	-13.4864
esma	-13.4885
ecnol	-13.4897
lgu	-13.4897
▁servid	-13.4899
▁reun	-13.4919
representa	-13.4945
▁Universidad	-13.4946
▁mercad	-13.4947
ermin	-13.4956
organiz	-13.4962
▁prati	-13.4964
jetiv	-13.4964
ident	-13.4969
nclu	-13.4986
▁assunt	-13.4995
Mari	-13.5005
orrent	-13.5008
ivers	-13.5021
convers	-13.5023
Cultura	-13.5035
scol	-13.5044
nidos	-13.505
professor	-13.5054
laci	-13.5055
▁quad	-13.508
roporciona	-13.5082
etári	-13.5091
▁comport	-13.5094
▁dema	-13.5101
movimento	-13.5117
interessa	-13.512
balh	-13.5124
Pres	-13.5129
inance	-13.513
rcial	-13.513
uart	-13.5146
▁desenvolviment	-13.5167
Edu	-13.5188
Fr	-13.52
Bra	-13.5219
redu	-13.5248
investimento	-13.5261
ocu	-13.5263
ânci	-13.5268
ositiv	-13.5284
iderad	-13.5298
ontin	-13.53
nst	-13.5315
▁respon	-13.5318
rofe	-13.5329
ossí	-13.5339
todas	-13.5348
lassific	-13.5377
cretar	-13.5377
ileiros	-13.5382
cretário	-13.5397
etaria	-13.5398
portuni	-13.5411
comerci	-13.5416
transp	-13.5429
erso	-13.5435
saber	-13.5447
▁sej	-13.5462
imit	-13.547
▁compe	-13.5484
sidades	-13.5486
▁deco	-13.5505
ncontra	-13.5511
cultur	-13.5515
mode	-13.5518
▁assis	-13.5523
▁unid	-13.556
municipa	-13.5585
utilizado	-13.559
sultado	-13.5597
spon	-13.5599
▁cus	-13.5599
dever	-13.5614
resença	-13.5644
consum	-13.5645
compr	-13.5682
munica	-13.5706
capita	-13.5707
▁melho	-13.572
comunidade	-13.573
▁ativi	-13.573
escr	-13.5737
mercad	-13.5745
dele	-13.5745
▁úl	-13.5748
mane	-13.576
xecut	-13.5773
once	-13.578
ssional	-13.5794
retar	-13.5798
ornalis	-13.5801
mot	-13.5813
sej	-13.5819
cativ	-13.5822
ultu	-13.5827
rvi	-13.5834
icament	-13.5834
siv	-13.5839
ernand	-13.584
outra	-13.5848
inua	-13.5852
stran	-13.5875
visita	-13.5879
ermi	-13.5889
▁huma	-13.589
instal	-13.5903
dentific	-13.5909
aplica	-13.5909
parad	-13.5915
▁prod	-13.5916
▁estav	-13.5926
arreir	-13.5933
▁eq	-13.5947
signific	-13.5948
corren	-13.595
opul	-13.5953
▁siste	-13.5966
nstrument	-13.5978
lguma	-13.5978
ntida	-13.5979
unida	-13.5988
oló	-13.6005
mportância	-13.6021
ública	-13.6033
eclar	-13.6055
nsta	-13.6067
começo	-13.6087
▁acont	-13.6107
ecl	-13.6112
atua	-13.6131
▁númer	-13.6138
ssí	-13.6138
Pol	-13.6168
local	-13.6182
▁sã	-13.6201
▁libe	-13.6223
▁verdadei	-13.6227
blema	-13.6228
rópria	-13.6233
▁lemb	-13.6258
anejamento	-13.6267
quart	-13.6278
cria	-13.6281
▁expres	-13.6283
ificuldade	-13.6305
promo	-13.6307
pação	-13.6309
livr	-13.6316
empresário	-13.6321
volvid	-13.6325
labo	-13.6326
onsul	-13.633
pontos	-13.6332
Polícia	-13.6352
diment	-13.6355
▁nes	-13.6367
▁apresen	-13.6385
desenvolvido	-13.6394
refei	-13.6401
vr	-13.6409
objet	-13.6409
independente	-13.6409
grand	-13.6435
arce	-13.6438
▁títul	-13.6443
contro	-13.6448
erat	-13.6449
direitos	-13.6455
▁ol	-13.6457
vere	-13.6469
pequeno	-13.6486
dist	-13.6494
ignific	-13.6499
▁signifi	-13.6501
matéria	-13.6513
orient	-13.6514
▁garan	-13.6516
temente	-13.6518
▁dinheir	-13.6525
depende	-13.6531
▁documen	-13.6534
hador	-13.6538
distribu	-13.654
ojeto	-13.6548
egura	-13.6565
explica	-13.6567
interessante	-13.6569
pons	-13.6575
mília	-13.6583
uciona	-13.6608
entid	-13.6611
líc	-13.6612
acon	-13.6615
resposta	-13.6618
hist	-13.6653
erê	-13.6653
ndid	-13.6659
contrat	-13.6665
tór	-13.6672
esiden	-13.669
nív	-13.6694
tadu	-13.6697
▁pú	-13.6717
nun	-13.6726
rdena	-13.6728
▁artig	-13.6729
durante	-13.673
oisas	-13.6734
vist	-13.6767
avra	-13.6769
constr	-13.6781
entende	-13.6789
▁apena	-13.6796
funcionário	-13.6798
neir	-13.6811
desta	-13.6818
prática	-13.6832
stituto	-13.6833
rodut	-13.6842
quad	-13.6846
nicia	-13.6855
nido	-13.6863
nquista	-13.6871
▁prese	-13.6873
diss	-13.6875
declara	-13.6891
nid	-13.6894
tav	-13.6899
Brasileira	-13.6908
onhe	-13.6914
▁vár	-13.6938
gru	-13.6941
univers	-13.6943
▁obr	-13.6945
faze	-13.6956
relacionad	-13.6957
partido	-13.6959
ecessidades	-13.698
iciona	-13.6982
dato	-13.6982
aprova	-13.699
reco	-13.6994
ític	-13.7002
dinheiro	-13.7048
home	-13.7055
specialmente	-13.7063
fut	-13.707
políticas	-13.7071
▁disponibi	-13.7078
rtig	-13.7105
escolh	-13.7122
aten	-13.7126
ofer	-13.7134
ersas	-13.7155
▁procediment	-13.7156
lhadores	-13.7167
diferentes	-13.7186
usuário	-13.7186
Governo	-13.7193
▁seguran	-13.7201
▁refo	-13.7223
uai	-13.7234
palavras	-13.7253
specífic	-13.7254
scent	-13.7257
determin	-13.7261
alid	-13.7263
stud	-13.7264
mbient	-13.7275
Intern	-13.7279
Justiça	-13.7279
comuni	-13.7292
pequena	-13.7295
San	-13.7308
ompa	-13.7308
undament	-13.7325
ultura	-13.7325
desa	-13.7328
alimenta	-13.7353
uid	-13.7357
minh	-13.7362
ssad	-13.7385
acontece	-13.739
rien	-13.7398
reador	-13.7404
itiv	-13.7423
música	-13.7424
▁interes	-13.7433
▁Trib	-13.7444
conv	-13.7454
paci	-13.7477
▁profi	-13.7486
edu	-13.7495
▁prep	-13.7519
dize	-13.7529
exp	-13.7534
comple	-13.7638
▁mudan	-13.7653
............	-13.7657
film	-13.7659
rincipalmente	-13.7684
▁responsabilida	-13.7685
materia	-13.7686
▁procu	-13.7691
event	-13.7702
funcionários	-13.7703
coisas	-13.7703
dore	-13.771
trativ	-13.7736
tituição	-13.7746
lte	-13.7755
apresenta	-13.7762
essos	-13.7767
iversos	-13.7771
prof	-13.778
efi	-13.7806
convi	-13.7809
outras	-13.7809
▁responsa	-13.7812
▁respei	-13.7818
campanha	-13.7842
própria	-13.7858
execut	-13.787
efo	-13.787
▁jor	-13.7882
utori	-13.7888
toda	-13.7889
preciso	-13.789
olic	-13.7904
necessidade	-13.7937
econ	-13.7939
orç	-13.7946
situação	-13.7961
capi	-13.7966
Educa	-13.7969
refeito	-13.7979
prest	-13.7979
possu	-13.7994
▁apren	-13.8011
praz	-13.8014
▁dentr	-13.8041
ógic	-13.8047
istóri	-13.8054
unci	-13.8057
sidera	-13.8075
mud	-13.8082
oite	-13.811
espond	-13.8114
▁coi	-13.8123
antida	-13.8131
atica	-13.8136
específic	-13.8153
eceb	-13.8163
acompanha	-13.8177
acess	-13.8196
ouc	-13.8235
▁enten	-13.8244
doc	-13.8248
presença	-13.8256
começa	-13.8258
nfr	-13.8268
iversas	-13.8276
ibunal	-13.8277
quali	-13.8282
▁proble	-13.8288
▁categor	-13.829
anifesta	-13.832
ambé	-13.8324
▁estudan	-13.8349
▁repre	-13.8371
Nacional	-13.8371
ement	-13.8375
médic	-13.8384
candida	-13.8393
ldad	-13.8423
enten	-13.8425
▁substit	-13.8428
população	-13.8445
mpanha	-13.8467
ucion	-13.8469
transf	-13.8489
luno	-13.8499
feitu	-13.8502
gnific	-13.8507
Federal	-13.8513
ncei	-13.8516
compos	-13.8529
setor	-13.8531
nforma	-13.8538
garanti	-13.8547
▁favo	-13.8558
icu	-13.857
mudança	-13.8577
rimeir	-13.8589
lacion	-13.8592
promove	-13.8598
maio	-13.8605
público	-13.8611
unicação	-13.8616
associa	-13.8628
▁respe	-13.8629
erã	-13.8631
vern	-13.8638
humano	-13.8642
name	-13.8658
ortu	-13.8685
servidor	-13.8696
aplic	-13.87
specializ	-13.8711
iã	-13.8712
considerado	-13.8713
▁profis	-13.872
eserv	-13.8724
omunic	-13.8736
ocaliz	-13.8743
nver	-13.8751
nômica	-13.8753
▁segund	-13.8775
tâ	-13.8775
ernan	-13.8777
rren	-13.8801
devid	-13.8825
▁acredi	-13.883
nsin	-13.8832
funcion	-13.8836
assis	-13.8854
pró	-13.8857
rmou	-13.8863
portant	-13.887
paço	-13.8895
Público	-13.8897
gnifica	-13.891
entend	-13.8923
cn	-13.8933
vidad	-13.8936
ondições	-13.8949
relaciona	-13.8959
sponsável	-13.8965
ortug	-13.897
tamb	-13.8977
ecessidade	-13.8978
aos	-13.9026
▁manifes	-13.9033
Câmara	-13.904
eren	-13.9052
rincip	-13.9052
trabalh	-13.9057
roje	-13.9065
nvolvido	-13.9068
deputad	-13.9077
próximo	-13.9078
necess	-13.9082
▁interessant	-13.9102
peci	-13.9128
evem	-13.9128
mulheres	-13.9136
partament	-13.9141
recurso	-13.9149
portu	-13.9159
brasileiros	-13.9171
revist	-13.9182
poderia	-13.9205
Brasileiro	-13.9215
stória	-13.9246
palavra	-13.9254
pagamento	-13.9261
unic	-13.9263
ntári	-13.9277
dev	-13.9284
distribui	-13.9298
institu	-13.9306
presentantes	-13.9312
▁alte	-13.9317
feren	-13.933
participação	-13.9336
tratamento	-13.9359
irma	-13.939
epresenta	-13.9401
respo	-13.9402
reconhec	-13.9409
erica	-13.942
século	-13.9425
ambient	-13.9432
recu	-13.9432
alav	-13.9437
onstr	-13.945
deixar	-13.9457
lhador	-13.9464
▁socia	-13.9464
entific	-13.9473
importante	-13.9475
inan	-13.9481
ndim	-13.9484
atic	-13.9494
▁lon	-13.9518
pelas	-13.9522
andid	-13.9529
huma	-13.9546
endid	-13.9548
▁conheciment	-13.9551
onário	-13.9585
epara	-13.9585
▁oportunidad	-13.9587
atenção	-13.9598
ntinua	-13.9608
hecido	-13.9614
incip	-13.9644
ican	-13.9645
escen	-13.9659
squisa	-13.9684
conclu	-13.9696
conhe	-13.9706
alque	-13.9719
▁cand	-13.9726
▁quan	-13.9741
▁nat	-13.9749
tadual	-13.9753
onclu	-13.9754
país	-13.9765
frente	-13.9771
realidade	-13.9781
amad	-13.9799
▁pess	-13.98
contrata	-13.9803
▁integ	-13.9813
strut	-13.9819
oposta	-13.9827
falar	-13.9829
ransf	-13.9836
oordenado	-13.9848
impre	-13.9852
america	-13.9878
▁conside	-13.9884
Ri	-13.9893
conheci	-13.9905
posiç	-13.9907
aumento	-13.9912
▁Tribun	-13.9912
terísticas	-13.9914
rsos	-13.9946
resa	-13.9958
▁Naciona	-13.9973
▁pacien	-13.9984
avé	-13.9989
lavr	-13.9992
fundam	-14.0002
apresentação	-14.0013
selh	-14.0029
▁conh	-14.0031
nhã	-14.0033
xpl	-14.0037
ueir	-14.0041
muita	-14.0047
▁recent	-14.005
ecti	-14.0054
inic	-14.0065
anterior	-14.0068
acord	-14.0071
▁púb	-14.0076
ipação	-14.0082
▁ocor	-14.0087
▁trabalhad	-14.0106
proprie	-14.0107
projetos	-14.0121
pende	-14.0149
▁Secretari	-14.0189
nhad	-14.0231
ranti	-14.0233
decisão	-14.0256
▁anterio	-14.026
palm	-14.0261
▁munici	-14.027
tuição	-14.0271
milhões	-14.0288
resente	-14.0296
▁opor	-14.0312
ssin	-14.0314
Desenvolvimento	-14.0315
autori	-14.0345
milh	-14.0354
propor	-14.0363
inclu	-14.0364
▁representan	-14.0387
gund	-14.0395
valores	-14.0411
coloc	-14.0428
ociaç	-14.0446
omeç	-14.0459
ermit	-14.0465
ogr	-14.0476
ecre	-14.0497
parceria	-14.0499
invest	-14.0504
▁produç	-14.0506
nômi	-14.0513
relat	-14.0531
mentá	-14.0536
estudo	-14.0537
defen	-14.054
▁consu	-14.0547
ofe	-14.056
▁jurídi	-14.0561
▁atenç	-14.0605
espec	-14.0607
ober	-14.0607
onamento	-14.0641
▁obj	-14.0642
▁america	-14.0647
oportun	-14.0653
sidente	-14.0674
▁jornalist	-14.0687
egóci	-14.0708
espeito	-14.0717
começou	-14.0718
tár	-14.0728
chamado	-14.0749
sad	-14.076
erceir	-14.0785
ontrat	-14.079
conju	-14.0796
rpre	-14.082
nhecimento	-14.0829
roprie	-14.0837
propriedade	-14.086
entifica	-14.0888
ossu	-14.0896
jornalis	-14.0897
▁comen	-14.0898
odutos	-14.0918
▁naciona	-14.093
▁Secre	-14.0931
xp	-14.0952
principal	-14.0952
provei	-14.0979
entem	-14.0983
▁constit	-14.0987
transforma	-14.1002
conve	-14.1007
sté	-14.1036
icit	-14.1039
erec	-14.1061
Feder	-14.1062
vim	-14.1074
presid	-14.1074
▁tinh	-14.1101
quat	-14.1114
nhece	-14.1122
ferramenta	-14.1134
orida	-14.1135
prazo	-14.1142
Int	-14.1143
especialista	-14.1167
presta	-14.1176
▁nã	-14.1188
omplet	-14.1201
uições	-14.1209
▁aprovei	-14.1248
trei	-14.1248
ssis	-14.1251
tala	-14.1252
defend	-14.1262
dame	-14.1264
especial	-14.1273
ofis	-14.1273
escent	-14.1285
▁exec	-14.1293
possui	-14.1299
quantidade	-14.1304
registro	-14.1313
epartamento	-14.1348
▁tud	-14.1348
compreend	-14.1355
evol	-14.1356
▁específi	-14.1371
▁concei	-14.1396
olvid	-14.1404
recursos	-14.1413
realmente	-14.1421
ntinu	-14.1476
onom	-14.1476
ecebe	-14.1513
entrevista	-14.1516
blic	-14.1526
▁Progr	-14.153
conte	-14.1533
ocorre	-14.1534
ficient	-14.1534
problemas	-14.1545
tivam	-14.1546
▁assun	-14.1551
▁serviç	-14.1553
riad	-14.1556
adore	-14.1572
▁exis	-14.1574
tidade	-14.1589
ipal	-14.1593
epública	-14.1598
participantes	-14.1601
epe	-14.1617
adual	-14.1624
econômic	-14.1627
terminad	-14.1634
Administra	-14.1637
condições	-14.1639
escimento	-14.1658
▁nen	-14.1672
mbém	-14.1689
ticul	-14.1708
ompleta	-14.1736
quais	-14.1748
▁prepa	-14.1749
desen	-14.1751
líti	-14.1757
cliente	-14.1772
ntific	-14.179
▁importan	-14.1815
daç	-14.182
▁contat	-14.1829
subs	-14.184
omerci	-14.1841
sfo	-14.1854
aplicação	-14.1866
blemas	-14.1871
uidad	-14.1873
omand	-14.1891
exclusiv	-14.1912
romov	-14.1916
ealizar	-14.192
perde	-14.1947
professores	-14.1956
ependen	-14.1959
ofessor	-14.1962
stabelec	-14.197
aprov	-14.1972
mesma	-14.1972
ssist	-14.1983
financ	-14.2003
▁uti	-14.2005
crev	-14.2048
xplica	-14.2054
▁respost	-14.2063
sibi	-14.2085
nciad	-14.2107
nstituto	-14.2108
instrumento	-14.2113
stente	-14.2115
aproxim	-14.2122
merci	-14.2132
Govern	-14.2144
▁gara	-14.2154
servi	-14.216
reuni	-14.2181
interess	-14.2191
document	-14.2194
crescimento	-14.2197
chegar	-14.22
▁deputa	-14.2205
comercial	-14.2208
resce	-14.2213
▁conj	-14.2226
prec	-14.2259
resp	-14.2288
▁Brasi	-14.2296
▁independent	-14.2319
recebe	-14.2319
administração	-14.2333
▁munic	-14.2336
estabelecimento	-14.2355
rant	-14.2367
concor	-14.2378
efin	-14.2396
Seg	-14.2396
basta	-14.2402
pacidade	-14.2417
niver	-14.2422
momento	-14.243
Prefeitura	-14.2436
interpret	-14.2437
▁edu	-14.2441
Administração	-14.2474
tradi	-14.2475
ntrol	-14.2493
tili	-14.2496
policia	-14.2513
conteúdo	-14.2535
▁poderi	-14.2559
envolvid	-14.2564
cand	-14.257
superior	-14.2665
respond	-14.2669
particular	-14.2677
edid	-14.2684
▁conteúd	-14.2685
▁Segun	-14.27
aliment	-14.271
cres	-14.2747
▁matéri	-14.2747
ssoa	-14.2786
estratégia	-14.2794
ssocia	-14.2803
cisa	-14.2814
permiti	-14.2814
ntec	-14.2817
áre	-14.2819
identifica	-14.2857
analis	-14.2894
ileiro	-14.2899
ondi	-14.2901
Sant	-14.291
uinta	-14.2913
espeit	-14.2919
chama	-14.2919
devem	-14.2926
autoridade	-14.2932
apresentado	-14.2937
contato	-14.2939
persona	-14.2941
mport	-14.2962
Desenvolv	-14.2964
▁Fede	-14.2971
Univers	-14.2988
▁nest	-14.2992
▁sentid	-14.2999
meses	-14.3004
entá	-14.3005
▁maneir	-14.3007
ssunt	-14.3014
esm	-14.3036
aciente	-14.3052
lóg	-14.3065
correspond	-14.3074
onf	-14.3096
sunto	-14.3103
pecialista	-14.3117
stério	-14.3125
lvim	-14.3128
receber	-14.3129
veículo	-14.3129
▁fundamen	-14.3133
▁luga	-14.3136
proje	-14.3144
iniciativa	-14.3171
denad	-14.3172
istro	-14.3174
compo	-14.3178
manifesta	-14.3178
spos	-14.318
comu	-14.3193
evis	-14.3199
▁inves	-14.321
personage	-14.322
emonstr	-14.3236
abilida	-14.3238
esid	-14.3238
omente	-14.3238
polí	-14.3245
ersona	-14.325
▁aj	-14.3257
prot	-14.3259
▁sis	-14.3264
onsegui	-14.3271
Segund	-14.3271
bém	-14.3273
dentifi	-14.3284
federal	-14.3295
características	-14.3296
altera	-14.3304
líticas	-14.3305
çamen	-14.3315
▁compree	-14.3331
pectiva	-14.3331
consumidor	-14.334
nvest	-14.3347
trad	-14.3347
atividades	-14.3349
lhor	-14.34
▁aumen	-14.3414
▁exe	-14.3417
vestiga	-14.3425
trutura	-14.3428
selho	-14.3432
sitiv	-14.3445
regul	-14.3457
cono	-14.3458
conhec	-14.347
obrig	-14.3471
Constituição	-14.3472
contr	-14.3472
▁compan	-14.3477
lient	-14.3482
▁Públi	-14.3487
▁frent	-14.349
realizado	-14.3496
écnic	-14.3497
realização	-14.3525
manter	-14.3531
pergunta	-14.3541
declar	-14.3546
Grand	-14.3549
▁trei	-14.3553
equênci	-14.356
mpri	-14.3563
apoi	-14.3572
descon	-14.3593
anei	-14.3593
erf	-14.3607
ificaç	-14.3618
iníc	-14.3643
env	-14.3644
arant	-14.3691
acesso	-14.3691
▁supe	-14.3696
pesquisador	-14.3733
▁melhore	-14.3747
clientes	-14.3753
trabalhadores	-14.3758
táve	-14.3764
ciden	-14.3773
▁participan	-14.3775
meça	-14.3778
▁possibil	-14.3783
prátic	-14.3799
fiss	-14.3809
róxi	-14.3812
defin	-14.3817
nidad	-14.3826
icad	-14.3829
mpan	-14.3841
ecor	-14.3849
stabeleci	-14.3857
questão	-14.3867
omunicaç	-14.3874
isten	-14.3882
proporcion	-14.3882
instrument	-14.3886
positi	-14.3894
otal	-14.3894
Pau	-14.3898
transpo	-14.3905
observa	-14.3908
ioná	-14.3913
omercia	-14.3926
atam	-14.3947
ealiz	-14.3949
conver	-14.3951
▁represen	-14.3952
exercício	-14.3956
pratic	-14.3959
▁saúd	-14.3965
eguir	-14.3969
quipa	-14.3975
resso	-14.3984
▁defi	-14.3985
internet	-14.3994
receb	-14.4008
República	-14.4013
▁fede	-14.4015
ibuna	-14.4023
natureza	-14.4025
leci	-14.4036
nossos	-14.404
oas	-14.4048
person	-14.4067
tativ	-14.4081
cumen	-14.4081
▁neces	-14.4095
ontrata	-14.4098
trabalhar	-14.4121
demonstra	-14.4132
nvesti	-14.4145
filh	-14.4167
havia	-14.4181
orig	-14.4191
tári	-14.4195
osi	-14.4199
ssionais	-14.4201
onvers	-14.4229
equipamento	-14.4239
espo	-14.4245
alun	-14.4269
equipa	-14.4278
hece	-14.4283
eixar	-14.4286
imeiro	-14.4292
objetivo	-14.4324
tratégi	-14.4332
ecretari	-14.434
nicípio	-14.4352
contrad	-14.4367
competi	-14.4368
ocesso	-14.437
alq	-14.438
strad	-14.443
ulhe	-14.4445
fazend	-14.4452
nhecido	-14.4461
abert	-14.4464
▁conco	-14.4467
respectiv	-14.4475
conhecid	-14.4498
dinheir	-14.4499
stema	-14.4513
apresentar	-14.4528
programas	-14.4532
nv	-14.4534
profe	-14.4538
▁prime	-14.4543
tendi	-14.456
versi	-14.4571
▁doming	-14.4589
aiores	-14.4602
diret	-14.4603
elemento	-14.4606
mples	-14.4608
perce	-14.4609
▁adm	-14.4625
ecurso	-14.4631
▁campa	-14.4635
▁anali	-14.4656
clusive	-14.4663
apresent	-14.4667
asil	-14.469
encontrad	-14.4694
▁pesquisad	-14.4701
▁intere	-14.4706
adei	-14.4709
▁porq	-14.471
crianças	-14.4727
rgani	-14.4734
oviment	-14.4735
inclus	-14.4737
reç	-14.4748
ract	-14.4748
▁depu	-14.4765
usiv	-14.4806
pren	-14.481
maioria	-14.4822
setembro	-14.4843
aumenta	-14.4862
▁comunidad	-14.4868
dispon	-14.4874
oisa	-14.4878
Justi	-14.4878
necessári	-14.4881
ltados	-14.4888
onjunt	-14.4899
▁construç	-14.4941
cretari	-14.4963
ficad	-14.4967
▁Univ	-14.497
assunto	-14.4976
resolv	-14.4986
epen	-14.4999
compre	-14.5002
Conse	-14.5023
esq	-14.5033
procedimento	-14.5043
icita	-14.51
ivam	-14.51
previ	-14.5103
trabalha	-14.5118
países	-14.5128
xempl	-14.5138
intern	-14.5165
camin	-14.5205
sere	-14.5226
acte	-14.5226
economi	-14.5249
nteresse	-14.5251
secret	-14.5257
ógi	-14.5257
ileira	-14.5273
▁fazen	-14.5287
etamente	-14.5298
anter	-14.53
zad	-14.531
eleitor	-14.5324
dependen	-14.5354
▁aplicaç	-14.5363
Dep	-14.5365
▁transpo	-14.5372
investimentos	-14.5372
sponde	-14.5373
dên	-14.5379
▁Prefei	-14.5385
acompanh	-14.5388
ntã	-14.5409
oferece	-14.541
bastante	-14.5417
cerc	-14.542
mbé	-14.5429
egur	-14.5435
▁professo	-14.5453
perm	-14.5459
ensino	-14.5465
documentos	-14.5481
situ	-14.5481
▁fundam	-14.5482
oportunidade	-14.551
▁exemp	-14.5563
soci	-14.5572
apoio	-14.5574
bene	-14.5597
▁ope	-14.5616
▁carac	-14.5621
nvolve	-14.5622
odu	-14.563
▁acor	-14.5637
▁univer	-14.5637
escol	-14.5638
próxima	-14.5655
tame	-14.5664
sentação	-14.567
▁Secreta	-14.5677
estudante	-14.569
ivida	-14.5694
nergi	-14.5696
relacionamento	-14.5699
kkkkkkkkkkkkkk	-14.5702
difi	-14.5722
algum	-14.5742
investiga	-14.5765
▁iniciativ	-14.577
cami	-14.5778
viço	-14.5782
processos	-14.5785
sabili	-14.5792
interna	-14.5799
fessor	-14.5799
cume	-14.5807
dezembro	-14.5809
benef	-14.582
hadores	-14.5822
çõ	-14.5826
▁noit	-14.5827
conquist	-14.5836
essá	-14.5858
▁perma	-14.5867
ratica	-14.5907
guns	-14.5932
Universi	-14.594
serão	-14.5944
ermiti	-14.5956
ecisa	-14.5982
servidores	-14.5995
homen	-14.5999
mportantes	-14.6008
divulga	-14.6021
omple	-14.607
portun	-14.6083
dificuldade	-14.6086
elat	-14.609
internacional	-14.6093
envolve	-14.6101
estac	-14.6127
criança	-14.6132
tivi	-14.6152
consegui	-14.6156
ansporte	-14.6158
ecreta	-14.6176
possi	-14.6176
formad	-14.6178
▁caracte	-14.6185
sido	-14.6187
divers	-14.6188
importa	-14.619
▁nenhu	-14.6196
bser	-14.6234
vezes	-14.6246
▁conquis	-14.6253
nifest	-14.6254
apac	-14.627
euni	-14.6272
enden	-14.628
iliz	-14.6283
Centr	-14.6312
dispos	-14.633
localizad	-14.6343
ropri	-14.6345
istribu	-14.6346
joga	-14.6361
diver	-14.6381
duca	-14.6387
tabe	-14.6438
defe	-14.6443
comportamento	-14.6448
aq	-14.646
aces	-14.6466
onsiderad	-14.6475
uncionário	-14.6481
presentante	-14.6482
uad	-14.6485
trução	-14.6486
elaciona	-14.649
▁trê	-14.6498
perior	-14.6502
coordena	-14.6522
rganizaç	-14.6522
assad	-14.6538
▁esq	-14.6546
refor	-14.6552
caliza	-14.6555
tudante	-14.6569
administra	-14.659
pecia	-14.6602
gist	-14.6611
didat	-14.6612
estab	-14.6623
sde	-14.6635
consta	-14.6646
def	-14.6661
ncipa	-14.6661
▁indepen	-14.6673
ples	-14.6736
▁informaç	-14.6744
▁moti	-14.6757
omportament	-14.6789
presen	-14.6798
munic	-14.6799
inis	-14.6803
exc	-14.6808
preocup	-14.6817
roporcion	-14.6821
equipe	-14.6836
ntreg	-14.6842
compl	-14.6853
publicad	-14.6853
previst	-14.6854
xplic	-14.687
onceit	-14.6888
documento	-14.6899
caus	-14.6908
fess	-14.6914
eleci	-14.6919
Minist	-14.6921
▁func	-14.6923
esidente	-14.6958
ecessário	-14.696
prat	-14.6961
▁proces	-14.6962
bien	-14.6969
jog	-14.6976
compro	-14.6984
siden	-14.699
utilizad	-14.7008
aliação	-14.7022
▁tecnolog	-14.7027
resultado	-14.7038
indiv	-14.7047
ssina	-14.7065
rnan	-14.7076
chamad	-14.709
esenvolver	-14.7095
Tribu	-14.7096
eitu	-14.7099
ssário	-14.7103
impr	-14.7109
efere	-14.7133
▁comunicaç	-14.7136
nheci	-14.7148
strutur	-14.7158
kkkkkkkkkkkkkkk	-14.7165
melhores	-14.7189
esce	-14.7204
undamenta	-14.7215
▁reconh	-14.7231
nhum	-14.7244
manifest	-14.7251
ssá	-14.728
nside	-14.7299
amer	-14.7303
▁verdad	-14.7312
rofiss	-14.7316
▁info	-14.7317
▁classifi	-14.732
tabelece	-14.732
renci	-14.7321
iferentes	-14.7326
transform	-14.7328
esident	-14.7329
gaç	-14.7349
alidad	-14.7361
▁Munic	-14.7365
▁demonst	-14.7386
pratica	-14.7414
fundamental	-14.7423
lacionad	-14.7441
▁indiv	-14.7449
rdade	-14.7462
comportament	-14.7464
nsiderado	-14.7472
oit	-14.7475
nali	-14.7476
profiss	-14.7488
transport	-14.7498
▁depen	-14.751
publi	-14.7552
tamo	-14.7587
ealiza	-14.7595
▁Associaç	-14.7596
tarde	-14.7601
econom	-14.7631
ribuição	-14.7632
particip	-14.7646
▁profissiona	-14.7653
volvi	-14.7653
cnica	-14.766
▁campanh	-14.7668
elacionad	-14.7694
refe	-14.7696
disponibili	-14.7705
gamen	-14.7708
▁regu	-14.7716
tabili	-14.7789
rticipação	-14.779
quas	-14.7794
róxim	-14.78
sociação	-14.7817
popul	-14.7846
ribun	-14.786
ssoas	-14.7871
mpanh	-14.7887
mbie	-14.7907
▁Nac	-14.7915
titucional	-14.7922
tere	-14.7923
▁quatr	-14.7927
iq	-14.793
criad	-14.7936
stência	-14.7988
meri	-14.7998
strumento	-14.8009
míl	-14.8016
libe	-14.8022
obl	-14.8022
ocor	-14.8022
inist	-14.8023
ntifica	-14.8026
uncion	-14.8033
▁avaliaç	-14.8044
obje	-14.8049
pub	-14.8072
seguran	-14.8111
volvimento	-14.8131
eputa	-14.8135
maiores	-14.8138
▁traba	-14.8152
ependente	-14.8202
▁resul	-14.8237
ocura	-14.8244
ísti	-14.8255
candi	-14.8269
nistério	-14.8278
ionament	-14.8279
omento	-14.8289
quanti	-14.8303
desenvolviment	-14.8312
stiç	-14.8313
considerad	-14.8322
ranç	-14.8334
Internacional	-14.8339
ensin	-14.8347
parce	-14.8377
ultados	-14.8395
çõe	-14.8439
nvers	-14.8451
isit	-14.8463
teressante	-14.8465
▁sid	-14.8467
recon	-14.8474
undam	-14.8478
epo	-14.8481
▁terc	-14.8483
▁popu	-14.8484
jorn	-14.8493
lacio	-14.8561
várias	-14.8568
niv	-14.8579
▁Presiden	-14.8596
entreg	-14.8597
ociedad	-14.8611
mingo	-14.8654
▁anális	-14.8685
orad	-14.8686
participa	-14.8698
egul	-14.87
feir	-14.8709
liment	-14.874
▁presi	-14.8751
tecno	-14.8762
nári	-14.8779
realiz	-14.8788
▁referênci	-14.8791
▁dive	-14.8824
term	-14.8825
realizar	-14.8828
andidat	-14.8832
estratégi	-14.884
▁Naci	-14.8842
dênci	-14.8866
program	-14.8875
▁peque	-14.8883
▁ensi	-14.8886
sumidor	-14.891
ropos	-14.8924
istra	-14.893
especi	-14.894
cializa	-14.8973
ncon	-14.8976
porqu	-14.8981
ealizada	-14.9005
▁procedi	-14.9008
rmit	-14.9016
ntament	-14.9019
previs	-14.9025
gisla	-14.9033
onômic	-14.909
resultados	-14.9096
eten	-14.9096
mpra	-14.9112
onômi	-14.9121
estabeleci	-14.9121
poderá	-14.9139
permit	-14.9184
deral	-14.9241
registra	-14.9249
▁Prefe	-14.9252
ntrato	-14.9255
izaç	-14.9282
▁pagament	-14.9294
responsa	-14.9307
esponsáve	-14.9314
rrente	-14.9339
▁relac	-14.9341
pergunt	-14.935
instituição	-14.9366
ofici	-14.9372
séri	-14.9385
municip	-14.9387
itár	-14.9397
ntern	-14.9431
presiden	-14.9444
rticipa	-14.9482
milita	-14.9483
tament	-14.9486
alimento	-14.9509
denti	-14.9511
termi	-14.9519
const	-14.9541
▁apen	-14.9551
públicos	-14.9563
Inst	-14.9585
vernador	-14.961
alqu	-14.9632
radiciona	-14.9639
nstala	-14.9646
compe	-14.9646
penden	-14.9651
simpl	-14.9657
rênci	-14.9698
Municipal	-14.97
Inte	-14.9723
seguinte	-14.9724
acontec	-14.9728
▁escre	-14.974
dmin	-14.9759
nand	-14.9771
ciment	-14.9781
ultur	-14.98
ítul	-14.9802
participante	-14.9821
stér	-14.9825
ituaç	-14.9844
máti	-14.9848
resident	-14.9859
resol	-14.9862
danç	-14.9875
▁preocu	-14.9895
mpost	-14.9914
▁quat	-14.9915
xerc	-14.9923
pesso	-14.9929
uali	-14.9942
aracterística	-14.9946
quant	-14.9951
derad	-14.9965
iant	-14.997
entan	-14.9978
▁campan	-14.9979
reocup	-14.998
comentário	-14.9981
ferênci	-14.9981
distri	-14.9983
úde	-15.0001
alguma	-15.0001
tegr	-15.0043
▁administ	-15.0055
icípio	-15.0061
estud	-15.0061
íve	-15.0071
▁Nã	-15.0083
oloc	-15.0085
Estadual	-15.0092
tev	-15.01
espons	-15.0117
tradiciona	-15.0131
abalhadores	-15.0137
mportamento	-15.0138
objetiv	-15.0146
úsic	-15.015
nifes	-15.0154
demonstr	-15.0175
resi	-15.0176
laciona	-15.0181
ofissional	-15.0188
stac	-15.0213
simp	-15.0218
meric	-15.0224
especia	-15.0225
gênci	-15.0228
iai	-15.025
propos	-15.0251
rofess	-15.0281
▁realizaç	-15.029
giã	-15.0293
ndependent	-15.0312
rutu	-15.0319
rnad	-15.0322
vament	-15.0339
acid	-15.0342
apó	-15.0347
uçã	-15.0363
▁parceri	-15.0373
ompan	-15.0398
▁aq	-15.04
enef	-15.0423
realizada	-15.0431
Fed	-15.0437
onomi	-15.0465
ancei	-15.0467
Públic	-15.0479
ualidad	-15.0497
Secret	-15.0507
▁nad	-15.052
urança	-15.0523
esen	-15.0528
oferec	-15.0529
conjunt	-15.0532
instru	-15.0543
entido	-15.0551
rvidor	-15.0557
fundamen	-15.0588
adic	-15.061
tenç	-15.0612
▁superio	-15.0615
▁desempen	-15.0632
disputa	-15.0641
prog	-15.0644
▁lem	-15.0654
vestig	-15.0658
ticular	-15.0691
necessidades	-15.0703
egunda	-15.0703
pref	-15.0707
Associa	-15.0719
rutura	-15.0722
racterísticas	-15.0726
▁inic	-15.0735
míli	-15.0746
▁próp	-15.0756
desenvolvid	-15.0786
seguin	-15.0797
ncont	-15.0798
estabelec	-15.084
progr	-15.0877
tinu	-15.0885
precis	-15.0889
sã	-15.0912
eceber	-15.0933
estadu	-15.0964
representante	-15.0975
▁exclusi	-15.0988
soluç	-15.0988
onô	-15.0997
▁possib	-15.1026
ocur	-15.1029
eitora	-15.1084
característica	-15.112
natur	-15.1173
popu	-15.1181
empr	-15.1208
estuda	-15.1209
▁regis	-15.1256
balha	-15.1265
rtamento	-15.1279
nicipal	-15.1286
participar	-15.1289
▁Univer	-15.1289
nteg	-15.1307
equipamentos	-15.1346
▁ques	-15.1362
nsum	-15.1365
iciativa	-15.1367
▁períod	-15.1399
esul	-15.1415
nent	-15.1428
ealmente	-15.1445
projet	-15.1475
▁nacion	-15.1494
rove	-15.1495
gócio	-15.1502
eguinte	-15.1507
nternacionais	-15.1519
município	-15.1528
represent	-15.1542
▁públic	-15.1546
promov	-15.1551
rcad	-15.1596
ferec	-15.1646
lusi	-15.1649
elacion	-15.1674
rocu	-15.1698
estrut	-15.1704
pouc	-15.1727
onôm	-15.1742
desempenho	-15.175
registr	-15.1752
profi	-15.1771
taç	-15.1776
inistr	-15.1817
associ	-15.182
perso	-15.1879
diversos	-15.1885
Mini	-15.1888
▁brasi	-15.1932
▁energi	-15.1933
istéri	-15.1955
ndad	-15.1962
▁ambien	-15.1986
rticip	-15.2012
viços	-15.2034
exte	-15.2047
uiç	-15.207
▁contrib	-15.2115
ompanh	-15.2121
Conselh	-15.2121
devi	-15.2123
dime	-15.2134
aioria	-15.2139
ssoal	-15.2144
Estad	-15.2165
uanto	-15.2175
visit	-15.2179
president	-15.2193
ratégi	-15.2208
▁terce	-15.2225
oe	-15.2234
independ	-15.2235
ceir	-15.2257
erdad	-15.2262
▁Insti	-15.2265
parc	-15.2268
▁Nacion	-15.2274
▁Púb	-15.229
pequen	-15.2301
▁principa	-15.2339
identific	-15.2351
rq	-15.2386
utura	-15.239
xpli	-15.239
nstr	-15.2416
importância	-15.2419
busc	-15.2438
ntrad	-15.2443
onári	-15.2466
inanc	-15.2473
stéri	-15.248
quint	-15.2494
trabalhador	-15.2502
importantes	-15.2532
ionad	-15.2579
enfrenta	-15.2595
nstituciona	-15.2602
rmações	-15.2602
ieda	-15.2683
▁maiori	-15.27
fede	-15.2721
seman	-15.2745
stribui	-15.2753
cnico	-15.2758
ntribui	-15.2765
dese	-15.2774
rofis	-15.2781
administr	-15.2786
rên	-15.2791
uncio	-15.2804
comercia	-15.2819
pree	-15.2859
nstal	-15.2863
inhei	-15.2898
ecretar	-15.2916
rmina	-15.2938
cípio	-15.2949
trabalhos	-15.2971
mpro	-15.3019
conômic	-15.3024
sável	-15.3049
ojetos	-15.3059
representantes	-15.3116
astante	-15.314
tegoria	-15.314
▁conseg	-15.3144
apro	-15.3155
nceito	-15.318
comer	-15.3212
ilei	-15.322
ecess	-15.3224
ndime	-15.3244
Janeiro	-15.3256
problem	-15.3258
prefe	-15.3294
arec	-15.3295
oble	-15.3302
ntri	-15.3305
nifi	-15.3312
permi	-15.3331
seto	-15.3336
pond	-15.335
spond	-15.3361
conti	-15.3378
▁sociedad	-15.3384
Institut	-15.3397
▁expr	-15.342
cime	-15.3441
utad	-15.3445
Constitu	-15.3449
iret	-15.3454
▁Saúd	-15.3477
▁apresentaç	-15.3492
▁doi	-15.3531
moviment	-15.3535
eside	-15.3539
tinua	-15.3544
opost	-15.355
▁algun	-15.3553
ernad	-15.3561
asilei	-15.3585
▁participaç	-15.3594
incl	-15.3602
Dir	-15.3612
mplemen	-15.3632
diversas	-15.3652
orren	-15.3685
▁iss	-15.3695
imei	-15.3706
▁lançament	-15.371
méd	-15.3751
gumas	-15.3767
redita	-15.3808
itur	-15.3837
pess	-15.3847
apli	-15.3889
▁particul	-15.389
rograma	-15.3913
etermina	-15.3922
empe	-15.3925
principais	-15.3934
exerc	-15.3946
pecializa	-15.3951
coorden	-15.3979
artid	-15.3981
▁seto	-15.3982
nicípios	-15.3988
rese	-15.4014
conseguir	-15.4015
sident	-15.4044
localiza	-15.4056
▁identif	-15.4085
aúde	-15.4102
exis	-15.4106
respons	-15.4109
responsabil	-15.4121
utili	-15.415
ediment	-15.4161
ípio	-15.4168
ompra	-15.4174
uisa	-15.418
relacion	-15.4203
realiza	-15.4224
nistro	-15.4228
ntant	-15.4236
nteressa	-15.427
alist	-15.4282
rnand	-15.4288
superi	-15.4289
inistéri	-15.429
efeitu	-15.4298
financeir	-15.4344
atrav	-15.4355
ibil	-15.4366
eleit	-15.4368
▁admin	-15.4374
ológi	-15.4374
▁divul	-15.4376
▁administraç	-15.4392
▁publ	-15.4395
▁suces	-15.4397
iaç	-15.442
entida	-15.4434
permane	-15.4439
oblema	-15.445
▁enq	-15.4462
nizaç	-15.4468
desti	-15.4527
▁respo	-15.4551
dess	-15.4551
▁responsab	-15.4551
▁especiali	-15.456
robl	-15.4588
▁respecti	-15.4616
xc	-15.4617
pesquis	-15.4633
governado	-15.464
onam	-15.4653
divulg	-15.4677
insta	-15.4681
traba	-15.4698
necessi	-15.4703
egist	-15.4719
ciad	-15.4725
istent	-15.4772
alizad	-15.4815
opula	-15.4848
trab	-15.4849
especializa	-15.4861
ecur	-15.4864
funcionári	-15.4866
▁práti	-15.4871
direi	-15.4883
lemen	-15.4919
▁materi	-15.4957
també	-15.4961
epresent	-15.497
rticipar	-15.4981
imeir	-15.5
caliz	-15.501
alizaç	-15.502
▁músi	-15.503
terc	-15.5035
▁polític	-15.5087
▁equipam	-15.5096
destaca	-15.5114
▁consti	-15.5152
fissional	-15.5157
omun	-15.5176
▁també	-15.5187
contribu	-15.5189
tiç	-15.5208
músic	-15.525
contec	-15.525
afir	-15.5344
rocediment	-15.5354
dependent	-15.5383
exempl	-15.5384
ficien	-15.5409
roduç	-15.5441
uldade	-15.5446
tânci	-15.5465
nsporte	-15.5478
▁valo	-15.548
edera	-15.5542
▁Traba	-15.5545
onár	-15.5552
import	-15.5578
odução	-15.558
instituições	-15.5584
recente	-15.5586
ecnologi	-15.5656
licação	-15.5675
ementa	-15.5692
nvolv	-15.5703
astan	-15.5741
▁Sã	-15.575
▁trabal	-15.5756
cno	-15.5759
finan	-15.5776
erenc	-15.5782
▁Departament	-15.5794
▁instr	-15.5848
nefício	-15.5867
ativi	-15.5883
plemen	-15.5946
ramen	-15.5952
nsid	-15.5958
repre	-15.5968
tituições	-15.5974
ateri	-15.6018
rnac	-15.6021
Brasileir	-15.6028
exper	-15.6035
materi	-15.6082
▁famíl	-15.6155
investig	-15.6157
ferença	-15.6198
▁trab	-15.6223
calizad	-15.6262
apre	-15.6266
acionad	-15.6291
▁encon	-15.6296
desenvolve	-15.6302
lativ	-15.6304
itó	-15.631
▁vária	-15.6337
últimos	-15.6353
residênci	-15.6377
socia	-15.6398
ndidato	-15.64
interes	-15.6414
resen	-15.6423
rincípi	-15.6446
specialist	-15.6451
dministrativ	-15.6466
▁nunc	-15.6467
possíve	-15.647
oficia	-15.6477
hamad	-15.652
arad	-15.6534
▁bastan	-15.654
ecessi	-15.6558
atend	-15.6579
técnic	-15.659
▁locali	-15.6624
▁simple	-15.6626
ecnolog	-15.6633
ssibili	-15.6635
ofessores	-15.6642
▁represe	-15.6645
onhec	-15.6686
lq	-15.6715
presentan	-15.6717
admin	-15.6718
ealização	-15.678
▁noi	-15.679
▁poi	-15.6798
onad	-15.6798
dament	-15.6808
nsp	-15.6823
▁gov	-15.6855
▁internaciona	-15.6874
squis	-15.6895
ndições	-15.6895
Tribuna	-15.6912
Univ	-15.6917
▁perso	-15.6921
históri	-15.6936
situa	-15.6958
capac	-15.6965
ecessária	-15.6969
esponsabil	-15.6974
sobr	-15.6986
gament	-15.6993
bui	-15.6999
osit	-15.7015
▁iní	-15.7064
consegu	-15.7089
▁específ	-15.7106
▁funci	-15.7135
titui	-15.7166
proce	-15.7171
incípio	-15.7174
dispo	-15.7182
Cent	-15.7213
integ	-15.7221
itui	-15.7225
▁gover	-15.7256
institui	-15.7315
municípios	-15.7317
prefei	-15.7323
▁mulhere	-15.7326
noi	-15.7332
ferent	-15.7332
pria	-15.7334
▁dad	-15.7338
entad	-15.7356
rceir	-15.7367
esponsabili	-15.7377
Administr	-15.7379
rári	-15.745
ofissionais	-15.7454
▁Secretar	-15.7455
pesq	-15.7464
empres	-15.7479
▁expre	-15.7484
ocie	-15.7506
apr	-15.7512
ompreen	-15.752
ogador	-15.7526
cni	-15.7607
▁Públ	-15.7608
rtante	-15.764
▁transfor	-15.77
águ	-15.7704
▁governad	-15.7734
▁reu	-15.774
lizaç	-15.774
ntrat	-15.7757
▁educaç	-15.7764
consi	-15.778
omu	-15.7785
rament	-15.7793
sempr	-15.7797
compan	-15.781
diferen	-15.7821
lução	-15.7834
pecífic	-15.7847
ológ	-15.7869
ifest	-15.7876
▁agor	-15.7893
▁client	-15.7896
nsc	-15.7925
idê	-15.8005
Universidad	-15.801
Direit	-15.8017
ernado	-15.8031
rdadeir	-15.8041
Unid	-15.8052
cipalmente	-15.807
nanceir	-15.81
▁estrutu	-15.8102
leme	-15.8147
ituição	-15.8151
resulta	-15.8185
ucess	-15.8188
Cen	-15.8188
ireto	-15.824
▁pequ	-15.8252
Mun	-15.8268
▁estabel	-15.828
dicio	-15.8282
reso	-15.8286
eícul	-15.8291
onform	-15.8299
apresentad	-15.8305
garant	-15.8313
ticula	-15.8328
cnic	-15.8363
racte	-15.8384
nquist	-15.84
timent	-15.8448
esquisado	-15.8484
▁quand	-15.8498
alim	-15.8501
strument	-15.8502
nifesta	-15.852
segund	-15.8551
▁estã	-15.8565
ecim	-15.8566
▁atravé	-15.8645
regist	-15.8645
epresentan	-15.8646
uent	-15.8665
cionár	-15.8673
atame	-15.8681
▁cid	-15.8685
ogram	-15.8757
egis	-15.8758
onv	-15.877
sq	-15.8806
ministr	-15.8826
biente	-15.8864
onst	-15.8879
ficuldade	-15.8888
ae	-15.8909
portamento	-15.8915
aument	-15.8926
▁deput	-15.8952
onfor	-15.8971
iretamente	-15.8973
ecen	-15.8982
idênci	-15.8998
quan	-15.9013
uand	-15.9032
ampanh	-15.9038
aum	-15.9093
fessores	-15.9107
▁Direi	-15.9112
▁relacio	-15.9165
prod	-15.9169
▁brasilei	-15.917
polici	-15.9182
infor	-15.9207
istração	-15.9211
ocedimento	-15.9251
ersi	-15.9253
▁confo	-15.9284
▁Administ	-15.9311
rdad	-15.9327
endent	-15.9329
▁transfo	-15.9393
internacionais	-15.9394
opriedade	-15.9396
rande	-15.9423
xpe	-15.9473
meç	-15.9485
erminad	-15.9494
noit	-15.9499
oblemas	-15.9576
etiv	-15.9576
mportant	-15.9598
▁momen	-15.9623
onsta	-15.9631
▁brasile	-15.9685
mpreen	-15.9691
estime	-15.9706
lmen	-15.974
Muni	-15.9742
▁progra	-15.9769
nacio	-15.9773
respei	-15.9774
trabalhado	-15.9784
▁caracterís	-15.9785
▁tã	-15.9802
opu	-15.9844
nsegui	-15.9844
roblem	-15.9899
perí	-15.9935
balhadores	-15.9948
diferent	-15.995
▁cida	-15.9955
▁primei	-15.9972
nve	-15.9981
partame	-15.9983
▁técn	-15.9995
envolvi	-16.0005
mercia	-16.0007
▁técni	-16.0014
▁dinhe	-16.0041
udan	-16.0063
spons	-16.0079
▁próxi	-16.0084
destac	-16.0123
etermin	-16.0132
▁políti	-16.0216
contrar	-16.0218
stên	-16.0231
núme	-16.0236
impor	-16.0238
ticipar	-16.024
jogado	-16.0254
popula	-16.0281
▁aprese	-16.0301
▁Brasilei	-16.0304
issional	-16.0317
apl	-16.0328
▁independen	-16.038
nstitucion	-16.0391
▁Gover	-16.0419
▁manif	-16.043
aprovei	-16.0437
ssíve	-16.0451
retaria	-16.0463
func	-16.0464
nvolvid	-16.0472
expe	-16.0486
íodo	-16.0539
Program	-16.0597
rasi	-16.0613
palme	-16.0626
milit	-16.064
ecial	-16.0641
uest	-16.0655
ranspo	-16.0677
onside	-16.0678
ocumen	-16.0718
▁vário	-16.0726
struç	-16.0763
heci	-16.0764
mui	-16.0842
aniza	-16.0864
▁prin	-16.088
ibili	-16.0909
mplet	-16.0911
nár	-16.0963
reitos	-16.1
eput	-16.1009
princ	-16.1015
rópri	-16.1032
▁realidad	-16.1036
▁determi	-16.1121
▁natu	-16.1129
palavr	-16.1131
lizad	-16.116
envolv	-16.118
▁Desenvolviment	-16.1195
▁candi	-16.1209
terística	-16.121
ndamental	-16.1214
▁dua	-16.1222
peonato	-16.1237
uári	-16.1253
ompos	-16.1275
açõ	-16.1296
enad	-16.1309
ticipa	-16.1312
▁segun	-16.1327
niversi	-16.133
abilidad	-16.1335
dat	-16.1383
ridad	-16.1414
distr	-16.1414
xper	-16.1429
onai	-16.1437
stituciona	-16.147
ndependen	-16.1477
Desenvolvi	-16.1566
eguin	-16.1589
xistência	-16.1611
▁característ	-16.1635
egistr	-16.1636
portante	-16.1653
▁funcio	-16.1664
polític	-16.1683
cípios	-16.1692
desenvolver	-16.1714
onjun	-16.1714
▁send	-16.1726
aniz	-16.1735
escre	-16.1749
▁afir	-16.1762
ducação	-16.1784
▁sema	-16.1787
rimei	-16.1798
etari	-16.1859
propo	-16.1946
iversa	-16.1956
começ	-16.1981
abalho	-16.2002
▁municíp	-16.2019
sucess	-16.2022
ticipação	-16.2047
brasileir	-16.2059
▁desenv	-16.2064
identi	-16.2085
peraç	-16.2115
▁experiên	-16.2126
soc	-16.2127
cessidade	-16.2153
ticip	-16.2156
Institu	-16.2158
▁anteri	-16.2162
issionais	-16.2168
abilid	-16.2169
soa	-16.2234
studa	-16.2293
▁respos	-16.2295
tênci	-16.2301
municaç	-16.2338
▁quas	-16.2377
coment	-16.2379
uipe	-16.2383
▁qualq	-16.2415
stabele	-16.2441
ameri	-16.2481
▁aind	-16.2487
▁Presi	-16.2541
pedid	-16.2542
▁Janeir	-16.2565
própri	-16.2579
uadr	-16.2601
nance	-16.2645
President	-16.2674
onstituciona	-16.2693
omis	-16.2734
dm	-16.2744
▁sempr	-16.2766
pecialist	-16.2774
▁entrevis	-16.28
namen	-16.2815
abele	-16.2818
aneir	-16.2854
▁funcionár	-16.2857
ortantes	-16.2864
senvolvimento	-16.2866
erad	-16.2866
iativ	-16.2867
pecialmente	-16.2869
terce	-16.2936
envol	-16.2944
gnifi	-16.2972
paç	-16.299
▁pesqui	-16.3006
medid	-16.3006
▁signif	-16.3007
antid	-16.3024
▁capacidad	-16.3025
primeiros	-16.3041
responsabili	-16.3045
▁responsá	-16.306
propost	-16.306
iversi	-16.3061
rnacion	-16.3073
nunc	-16.3075
ersonage	-16.3085
tement	-16.3091
omentári	-16.3108
▁hoj	-16.3112
▁saú	-16.3143
nalist	-16.315
emento	-16.3151
asile	-16.3157
racter	-16.3197
egundo	-16.3226
▁gove	-16.3244
tota	-16.3245
onquist	-16.3275
cipais	-16.3283
▁finance	-16.3295
▁qualidad	-16.3323
refeitur	-16.3352
▁princi	-16.3358
▁dife	-16.3378
nolo	-16.3388
olític	-16.3411
eterminad	-16.3444
▁propr	-16.3446
fundamenta	-16.3518
▁mese	-16.3528
sabilidade	-16.3577
atendi	-16.3651
artic	-16.3672
ríodo	-16.3674
duç	-16.3714
sema	-16.3715
onfe	-16.3782
▁possív	-16.3821
propr	-16.3822
ireitos	-16.3823
▁signi	-16.3829
studan	-16.3865
uncionári	-16.3887
▁mulhe	-16.3893
▁oportu	-16.3931
acor	-16.3953
▁ativida	-16.4058
sponsáve	-16.4072
incipais	-16.4078
peit	-16.4097
nômic	-16.4098
▁consid	-16.4126
uncia	-16.4141
tituto	-16.4191
ignifi	-16.4201
assifica	-16.4202
ssid	-16.4206
Progra	-16.4214
depen	-16.4216
▁núme	-16.4227
▁pergu	-16.4253
▁diferent	-16.4254
sár	-16.4261
quipament	-16.4316
profess	-16.4318
▁proporci	-16.4338
onseguir	-16.4376
artir	-16.4378
merca	-16.4411
itór	-16.4478
▁estru	-16.4494
uinte	-16.4516
cessá	-16.4519
▁possí	-16.4523
▁Educaç	-16.4524
▁financei	-16.4545
rincíp	-16.4549
▁qualque	-16.4554
erican	-16.4572
ropr	-16.4594
icidad	-16.4613
vimen	-16.4616
cializ	-16.4618
resciment	-16.4618
recen	-16.4668
presentad	-16.4683
siderado	-16.4721
tecnol	-16.4731
localiz	-16.4735
oluç	-16.4738
▁instituiç	-16.4781
recurs	-16.4803
riment	-16.4807
▁partici	-16.4811
▁demons	-16.4844
mome	-16.4858
▁partic	-16.4862
tuda	-16.4883
crian	-16.4885
client	-16.4892
▁entrev	-16.4938
ernac	-16.4951
nteressant	-16.5005
diversa	-16.503
came	-16.5053
mpleta	-16.5067
ersidade	-16.509
ercia	-16.5107
cument	-16.5108
rofissio	-16.5115
ciênci	-16.5123
inclusiv	-16.5147
cedimento	-16.5147
olíci	-16.5162
econhe	-16.5167
▁obri	-16.5223
desem	-16.5228
cipal	-16.5231
atament	-16.5245
bertur	-16.5247
pacient	-16.5254
edad	-16.5262
▁públ	-16.5267
reconheci	-16.5286
nsfor	-16.5303
jogad	-16.5315
ocess	-16.5325
ertura	-16.5326
ofes	-16.5351
ortante	-16.5376
rabalho	-16.5395
erênci	-16.5396
portan	-16.5404
anifes	-16.5434
exem	-16.5436
▁recur	-16.5442
▁profissio	-16.5444
▁econômi	-16.5477
▁princí	-16.5502
ostr	-16.5592
rtame	-16.56
ansform	-16.5605
njunt	-16.5624
Sã	-16.5639
strativ	-16.5644
▁atividad	-16.567
oment	-16.5678
vime	-16.5682
▁tradicio	-16.5715
ribui	-16.5798
stitucion	-16.5818
▁mome	-16.5819
tabeleci	-16.5831
tenh	-16.5831
▁desenvo	-16.5837
▁característi	-16.5854
transpor	-16.5867
▁mom	-16.5875
desempenh	-16.5875
óprio	-16.5889
ecretári	-16.591
apren	-16.5949
▁iden	-16.5952
nsiderad	-16.5991
inancei	-16.6001
alavr	-16.6012
apen	-16.603
▁objeti	-16.6046
▁condiçõe	-16.6078
egistra	-16.6094
alimen	-16.6124
▁enquan	-16.6159
▁veze	-16.6191
▁paí	-16.6192
açõe	-16.6201
depe	-16.625
esol	-16.6265
ntat	-16.633
ênc	-16.6354
roveit	-16.6363
últ	-16.6385
ecut	-16.6398
▁histó	-16.6458
incipal	-16.6465
▁possibilida	-16.65
nvo	-16.6569
rogr	-16.6594
ansp	-16.6656
▁mulh	-16.6701
reali	-16.6701
iedad	-16.6721
produç	-16.6734
estabele	-16.6742
rabal	-16.6753
nicação	-16.6789
uatro	-16.684
▁entrevi	-16.6929
ompo	-16.6933
ituições	-16.6935
▁nenh	-16.6939
ranspor	-16.694
▁socieda	-16.6943
nciament	-16.6948
riedad	-16.696
▁acred	-16.6972
ompar	-16.6979
candid	-16.6989
onver	-16.705
iore	-16.7067
ormações	-16.708
arq	-16.7099
ampan	-16.7107
tunidade	-16.7114
depoi	-16.712
nanc	-16.7136
rogra	-16.7179
rieda	-16.7189
difer	-16.72
▁reso	-16.7234
spei	-16.7257
pleme	-16.7259
nhec	-16.7338
cnol	-16.7343
fissionais	-16.736
ericano	-16.74
mom	-16.7425
▁públi	-16.7445
nsform	-16.7448
ecr	-16.7494
▁quai	-16.7507
ossíve	-16.7519
important	-16.7552
esci	-16.757
epu	-16.7584
▁Ministéri	-16.7629
nsabilidade	-16.768
sileiro	-16.771
equip	-16.773
lvid	-16.7746
▁camin	-16.7754
sd	-16.7764
conjun	-16.7765
▁Preside	-16.7812
dentif	-16.7838
▁importâ	-16.7849
mportament	-16.79
crescim	-16.7959
▁adminis	-16.7977
▁contri	-16.7985
obse	-16.7996
ansport	-16.8003
ampeona	-16.8079
ministração	-16.8084
▁durant	-16.8147
onhecid	-16.8165
▁docu	-16.8167
eces	-16.8172
cionament	-16.8202
izaçã	-16.8233
tecnologi	-16.8254
▁acompa	-16.8256
ansf	-16.8338
exec	-16.8385
nspor	-16.8409
ultad	-16.8414
cumento	-16.8449
hecid	-16.8453
▁tradici	-16.8475
eocupa	-16.8483
▁anter	-16.8497
▁alime	-16.8501
▁secretá	-16.8519
▁obser	-16.856
acom	-16.8584
portunidad	-16.8614
ocessos	-16.8618
entrevist	-16.8624
Polí	-16.8675
ndamen	-16.869
ojet	-16.8703
etár	-16.8704
ontec	-16.8711
niã	-16.8729
▁crianç	-16.8743
preside	-16.8756
nteress	-16.8772
consumido	-16.8775
▁áre	-16.8788
ndiment	-16.8813
partamen	-16.8825
nvol	-16.8834
oordenad	-16.8845
esent	-16.89
atór	-16.8918
desenvolvi	-16.893
ontribu	-16.8968
▁oco	-16.9055
tamen	-16.9093
▁seguranç	-16.9113
▁perío	-16.9177
Presid	-16.9184
▁Consel	-16.9186
relaç	-16.9215
senv	-16.9258
icipal	-16.9295
rofesso	-16.9307
onsum	-16.9309
▁autorida	-16.9343
▁efei	-16.9383
especializ	-16.9386
tecnolog	-16.9469
expres	-16.9487
nstruç	-16.9629
conside	-16.9635
ituto	-16.9646
articipaç	-16.9676
emais	-16.9691
munida	-16.9721
▁Repúblic	-16.9729
dive	-16.9764
▁participaçã	-16.9781
almen	-16.9789
periência	-16.9795
▁Educaçã	-16.9795
▁resultad	-16.9839
most	-16.9863
stit	-16.9899
ponsabilidade	-16.9906
ipais	-16.9916
▁administrati	-16.9919
ileir	-16.9928
▁duran	-17.0021
sileira	-17.0067
▁últ	-17.0081
iversid	-17.0124
concei	-17.016
defi	-17.0222
ratam	-17.0269
ansforma	-17.0307
epoi	-17.0334
epre	-17.0336
ntrevist	-17.0341
bunal	-17.0369
noss	-17.0369
moment	-17.0433
responsabi	-17.0434
estrutu	-17.0435
rísti	-17.0478
tabelec	-17.048
abalhador	-17.0495
▁movim	-17.0527
prese	-17.0572
eser	-17.0627
stab	-17.0643
▁profes	-17.0688
limento	-17.0694
uele	-17.0737
Fede	-17.0756
itucional	-17.0785
▁dinhei	-17.0786
rofissiona	-17.0818
incipalmente	-17.0842
▁Trabal	-17.0872
oduzi	-17.0879
servido	-17.0882
epartament	-17.0888
classifi	-17.0917
trut	-17.092
▁melh	-17.0925
alment	-17.0949
comporta	-17.096
ionár	-17.0972
sament	-17.0973
rução	-17.0989
ntifi	-17.1102
lment	-17.1106
quand	-17.1126
dificul	-17.1203
ívei	-17.121
púb	-17.1303
públic	-17.1332
Secre	-17.1336
estrat	-17.1338
camen	-17.135
princip	-17.1399
níve	-17.1402
sileiros	-17.1462
ompr	-17.1524
tilizad	-17.1528
▁Unive	-17.154
ilidad	-17.1547
comunidad	-17.1559
anceir	-17.1573
▁Nacio	-17.1577
ompre	-17.1636
resenta	-17.1664
ilida	-17.1679
iár	-17.1754
teresse	-17.1773
▁municípi	-17.1885
ltur	-17.1888
▁peq	-17.1891
gundo	-17.1922
▁Políci	-17.197
entári	-17.2036
▁Administraç	-17.2088
nterne	-17.2088
▁relaçã	-17.2113
▁tratamen	-17.2149
ociaçã	-17.2207
lqu	-17.2217
insti	-17.2228
Secretari	-17.2272
icaç	-17.2316
▁serã	-17.2324
nacion	-17.2378
ibui	-17.2399
lític	-17.2427
doming	-17.2505
conômi	-17.2515
Brasi	-17.2531
esponsa	-17.2576
tividad	-17.2579
onsi	-17.2609
▁últi	-17.261
ategori	-17.2615
niciativ	-17.2648
▁semp	-17.266
nistrativ	-17.268
referênci	-17.2688
elaç	-17.2716
▁Quand	-17.2797
ispon	-17.2799
desd	-17.283
nsáv	-17.2842
result	-17.2843
aconte	-17.2936
óximo	-17.2938
nistração	-17.3003
aind	-17.3054
▁Ministér	-17.3089
▁especialis	-17.3097
públ	-17.3104
▁próx	-17.3122
proj	-17.3125
ficaç	-17.3172
ganização	-17.3177
esponsabi	-17.3209
▁dificu	-17.321
socie	-17.3211
▁aume	-17.3213
trê	-17.3222
serviç	-17.3255
uarta	-17.3271
agament	-17.332
▁unive	-17.3377
▁téc	-17.3379
ropost	-17.3387
saú	-17.3413
sibilidad	-17.343
ositi	-17.345
omov	-17.3484
encont	-17.3501
▁coorde	-17.351
respon	-17.3523
▁exercí	-17.3524
Prefei	-17.3578
cessário	-17.3634
estiment	-17.3724
americ	-17.3755
cois	-17.3846
▁municí	-17.3862
natu	-17.3872
refeit	-17.3877
ioria	-17.3883
depo	-17.3887
deputa	-17.3914
ividad	-17.3921
esulta	-17.3954
send	-17.3962
▁polít	-17.3976
içã	-17.3995
▁acompan	-17.4065
▁regiã	-17.4079
ovim	-17.4084
▁realmen	-17.4095
ernador	-17.412
guran	-17.4121
ivament	-17.413
içõ	-17.4162
ireito	-17.4215
uênci	-17.4251
gnif	-17.4287
▁importân	-17.4289
elac	-17.4312
cialmen	-17.4377
cultu	-17.4399
tivida	-17.4406
silei	-17.4445
inistrativ	-17.4494
ópria	-17.4505
nistra	-17.4509
▁econo	-17.4584
▁bastant	-17.4601
▁conhecimen	-17.4698
▁docum	-17.4721
▁responsabilid	-17.4742
pendent	-17.4769
▁criaç	-17.477
taçã	-17.477
▁alim	-17.4771
resu	-17.4775
▁desenvolvimen	-17.4785
limen	-17.4834
▁doen	-17.4836
▁vári	-17.4837
opri	-17.4879
caracte	-17.491
nsforma	-17.4953
ontr	-17.4985
esença	-17.5022
vestimen	-17.5064
raçõ	-17.5139
sponsabil	-17.5149
duran	-17.5198
esem	-17.5202
peciali	-17.5241
efor	-17.5242
ponsável	-17.5272
▁populaçã	-17.5283
▁verda	-17.5364
overn	-17.5366
mudan	-17.5389
▁manei	-17.5423
artamento	-17.5531
uantidade	-17.5568
brasi	-17.557
stala	-17.5593
presi	-17.5605
particula	-17.5622
▁comunida	-17.5658
unicaç	-17.5659
rnacional	-17.5767
▁demai	-17.5776
▁possibi	-17.5833
sib	-17.5837
inaçã	-17.5864
teme	-17.5883
▁internaci	-17.5917
ecent	-17.5932
erístic	-17.6067
alhadores	-17.6086
dministração	-17.6101
ternacionais	-17.6109
acterísticas	-17.611
consumi	-17.6161
▁Constit	-17.6212
organizaç	-17.6229
ibuição	-17.6249
balhador	-17.6281
secre	-17.6305
stribu	-17.6386
Munic	-17.642
portância	-17.6444
acont	-17.6451
versidad	-17.6454
expli	-17.6525
ategor	-17.6536
ealidade	-17.6541
negóci	-17.655
▁decisã	-17.6622
rtunidade	-17.6635
ecurs	-17.6653
bilidad	-17.6685
oporciona	-17.6734
▁atendim	-17.6754
ávei	-17.6775
▁palav	-17.678
eguran	-17.6835
▁princíp	-17.6854
uant	-17.6856
onsumi	-17.6876
repres	-17.6883
▁principai	-17.6908
sõ	-17.6943
ederal	-17.704
nqua	-17.7051
utiv	-17.7057
pectiv	-17.7103
porq	-17.7124
ecialista	-17.7156
espaç	-17.718
▁principalment	-17.7213
gover	-17.7221
▁sociai	-17.7227
adicio	-17.7231
▁investiment	-17.7304
nstitu	-17.7373
plicaç	-17.7513
ossibil	-17.752
evist	-17.7531
rimen	-17.7535
▁Secr	-17.7573
naciona	-17.7584
pequ	-17.7605
▁administrat	-17.7627
trutur	-17.7664
omportamen	-17.77
raçõe	-17.7714
desenv	-17.7715
pressã	-17.774
onstruç	-17.7758
ernacional	-17.7763
desenvolv	-17.7774
lizaçã	-17.7837
ificul	-17.7868
xpres	-17.787
▁qualid	-17.7892
▁questã	-17.7894
econhec	-17.7909
stênci	-17.8038
segun	-17.8055
cterísticas	-17.8095
sponsabili	-17.8102
▁lug	-17.8126
gunda	-17.815
oportuni	-17.8153
▁dezembr	-17.8186
▁necessá	-17.8188
quisa	-17.8189
síve	-17.8209
egiona	-17.8263
▁caract	-17.8316
entifi	-17.8365
olvimento	-17.8382
içõe	-17.8408
▁valore	-17.8409
▁catego	-17.8451
▁manife	-17.8472
rcei	-17.8475
sári	-17.849
esente	-17.8532
adm	-17.8556
taçõe	-17.8603
lít	-17.8625
ncípio	-17.8699
▁professore	-17.8845
posiçã	-17.887
governad	-17.8945
esempenh	-17.8992
itut	-17.9012
veícul	-17.9032
situaç	-17.9054
apresen	-17.9111
▁pagamen	-17.9179
icamen	-17.9206
▁funcioná	-17.9207
trabalhad	-17.9209
ompro	-17.9316
▁comportame	-17.9342
bjeti	-17.9386
odut	-17.9552
erviç	-17.9706
primeir	-17.9744
mentaçã	-17.977
▁instrume	-17.9772
aúd	-17.984
▁açõe	-17.9862
deter	-17.9873
portantes	-17.9916
úblico	-17.9967
iverso	-18.003
presentaç	-18.0104
unidad	-18.0139
amíli	-18.0159
ciên	-18.018
gaçã	-18.0188
naci	-18.0253
muit	-18.0269
▁qualida	-18.0315
speciali	-18.0342
▁estrut	-18.0385
oridad	-18.0441
categori	-18.0478
ntere	-18.0488
constitucio	-18.0496
operaç	-18.0499
coi	-18.0552
ofere	-18.0569
constit	-18.0676
garan	-18.0678
possib	-18.0831
reende	-18.0846
repr	-18.0864
issio	-18.0881
▁realida	-18.0894
▁somen	-18.0896
▁interne	-18.095
prepa	-18.1036
paí	-18.1049
unicípi	-18.1072
comportam	-18.1128
Municipa	-18.113
eciment	-18.1139
spost	-18.1261
duçã	-18.1298
orq	-18.1315
nsport	-18.1316
▁econô	-18.1448
ndidat	-18.1473
ontro	-18.1575
Minis	-18.1658
atividad	-18.1704
inaç	-18.1724
nquant	-18.1726
rtug	-18.1749
munici	-18.1871
cimen	-18.1876
categor	-18.188
nvolvi	-18.1885
consu	-18.1925
onalidad	-18.1964
zaç	-18.2047
documen	-18.2051
ercício	-18.2054
▁milhõ	-18.2082
nicí	-18.2102
icame	-18.2111
princípi	-18.2119
epartamen	-18.2147
construç	-18.2149
nceit	-18.2156
guinte	-18.2176
▁aum	-18.2189
populaç	-18.2287
desenvol	-18.2377
▁Câma	-18.2384
lgun	-18.2393
tucional	-18.2395
ilizad	-18.2438
▁acomp	-18.2483
onve	-18.2509
ferên	-18.2529
iament	-18.2538
públi	-18.2546
laçã	-18.2549
acredi	-18.2573
▁famí	-18.2585
realizad	-18.2611
▁admini	-18.2639
Segun	-18.2651
same	-18.2653
unicip	-18.2669
▁crescimen	-18.2734
nsã	-18.2789
▁possibilid	-18.2821
▁Desenvolvimen	-18.2857
alime	-18.286
nvestiment	-18.2916
verdad	-18.2943
roduçã	-18.297
ncipal	-18.3008
oderi	-18.3026
endênc	-18.306
cionai	-18.314
▁internacio	-18.3175
mesm	-18.3177
sistênc	-18.3177
daçã	-18.3246
onsel	-18.3257
undamen	-18.3262
versid	-18.3349
▁equipamen	-18.3393
riament	-18.3419
sistên	-18.3457
▁Universida	-18.3482
enhu	-18.3483
conseg	-18.3528
maneir	-18.3542
▁formaç	-18.3548
efei	-18.3575
verdadei	-18.3593
omunidad	-18.3619
ncionários	-18.3666
ssári	-18.369
portament	-18.3723
▁investimen	-18.3737
▁profissi	-18.3797
procu	-18.3938
ortan	-18.394
▁procedime	-18.3963
ntidad	-18.3991
retár	-18.4014
▁parcer	-18.4063
amíl	-18.4138
rtuni	-18.4141
durant	-18.4146
▁especí	-18.417
efeit	-18.426
esenvolvimento	-18.4281
apena	-18.4343
sentid	-18.4424
xec	-18.4441
istér	-18.4463
signifi	-18.4481
aume	-18.4499
▁nacio	-18.4515
balhado	-18.4534
▁desempe	-18.4534
próxim	-18.4611
ternacional	-18.4634
▁inclusi	-18.4641
ianç	-18.4645
condiç	-18.4648
agamen	-18.4682
diretament	-18.4808
▁qualqu	-18.4858
nsáve	-18.4903
Ministé	-18.4914
mbien	-18.493
onstitu	-18.5023
doi	-18.5041
professo	-18.5102
enqu	-18.5187
artig	-18.5214
consti	-18.5224
nstitucio	-18.5228
damental	-18.5255
unicíp	-18.5276
pacien	-18.5305
nvolvim	-18.5428
difere	-18.5447
quatr	-18.5463
travé	-18.5474
onsegu	-18.5531
representan	-18.5564
dife	-18.557
aracte	-18.5592
▁Munici	-18.5667
idore	-18.5678
▁secr	-18.5698
ilid	-18.5779
trevista	-18.5816
ndamenta	-18.5878
ortant	-18.5989
iferen	-18.6034
▁conhecime	-18.6038
carac	-18.6039
▁probl	-18.6145
▁eve	-18.6177
ibilid	-18.6228
nvestim	-18.6231
▁interessan	-18.6331
▁profissionai	-18.6428
erdadei	-18.6429
ntand	-18.6432
atamen	-18.658
ercei	-18.6655
▁Progra	-18.668
vamen	-18.6754
resent	-18.6937
racterística	-18.6957
asileira	-18.6958
compree	-18.6962
nális	-18.7064
taçõ	-18.7191
▁ambie	-18.7195
rincipa	-18.7321
hoj	-18.744
contri	-18.7676
ltad	-18.7703
ucional	-18.7794
vár	-18.7842
esponsab	-18.7849
aract	-18.7934
acient	-18.7962
apres	-18.8047
retament	-18.8201
nseg	-18.8215
icip	-18.8292
lque	-18.8327
reser	-18.8349
uase	-18.835
ndame	-18.8365
edimen	-18.8418
▁realme	-18.8488
▁principalme	-18.8497
ealizad	-18.859
guma	-18.8609
hecime	-18.8677
icipar	-18.8918
▁ain	-18.892
esentação	-18.8928
iferent	-18.8996
responsabilidad	-18.9083
possibil	-18.9176
peque	-18.9286
specialis	-18.9316
espei	-18.9412
▁preoc	-18.9606
▁dificuld	-18.9678
buição	-18.9716
esenvol	-18.9736
entár	-18.9768
munidad	-18.9783
▁equipame	-18.9793
uint	-18.9927
siderad	-18.9928
antidad	-19.0021
ifere	-19.0024
▁tratame	-19.0052
diverso	-19.0151
nalment	-19.0159
ransfo	-19.0212
onsu	-19.0379
entã	-19.0621
ulhere	-19.0733
▁necessid	-19.0735
pesqui	-19.0806
randes	-19.0986
reend	-19.1088
fazen	-19.1121
ializa	-19.126
siç	-19.1263
▁investim	-19.1395
sida	-19.1404
relacio	-19.143
stadua	-19.1467
iame	-19.1677
▁estabe	-19.1698
mentaç	-19.1845
questã	-19.2225
vári	-19.2395
straç	-19.2427
comentári	-19.2487
ervido	-19.2662
nhecid	-19.2721
▁divu	-19.2841
rsona	-19.2858
▁Constituiç	-19.2865
clusi	-19.2901
pulaç	-19.3094
itaç	-19.3189
reun	-19.3252
ibilidad	-19.3291
nsegu	-19.3322
esenvolve	-19.3407
onheciment	-19.3429
raçã	-19.3537
bilid	-19.3556
acred	-19.3706
servid	-19.3734
strati	-19.3798
ivamen	-19.3832
abeleci	-19.3908
▁nac	-19.4025
stóri	-19.4033
Internaciona	-19.4061
▁principalm	-19.4082
stânc	-19.4083
obj	-19.4174
▁determ	-19.4354
pesquisado	-19.4413
didato	-19.4431
ulaç	-19.449
onseg	-19.4593
sõe	-19.4856
nalidad	-19.4892
essore	-19.5128
ssã	-19.5142
rabalh	-19.5421
ializ	-19.5479
veze	-19.5623
spaç	-19.5784
qualque	-19.5863
ministrativ	-19.5888
doenç	-19.5976
erística	-19.6152
ministraç	-19.6175
Insti	-19.63
intere	-19.6353
