<pad>	0
<unk>	0
<s>	0
</s>	0
<sep>	0
<mask>	0
,	-3.22846
▁de	-3.44985
▁a	-3.88705
▁	-3.97974
▁e	-4.01248
.	-4.01639
s	-4.10554
▁o	-4.23299
▁que	-4.26262
▁do	-4.46815
▁da	-4.63681
o	-4.70626
a	-4.74517
▁em	-4.89716
r	-4.95263
▁para	-5.03059
▁com	-5.06011
▁A	-5.24044
▁no	-5.24502
▁um	-5.29175
-	-5.3449
▁na	-5.38457
▁é	-5.43
▁uma	-5.47912
e	-5.48002
▁os	-5.55738
▁se	-5.57398
os	-5.60792
▁(	-5.6329
▁não	-5.64914
m	-5.65923
u	-5.66927
▁por	-5.71253
▁O	-5.71351
as	-5.78835
▁dos	-5.85751
▁as	-5.88034
ou	-5.91
▁P	-5.92986
do	-5.94565
▁"	-5.95285
▁mais	-5.96908
▁como	-5.98121
)	-5.98414
ar	-6.00601
ção	-6.06153
▁C	-6.11792
I	-6.11855
▁S	-6.12021
A	-6.14155
l	-6.15135
▁ao	-6.16328
ndo	-6.17123
da	-6.18118
is	-6.23658
▁ou	-6.2389
i	-6.25132
▁E	-6.2583
es	-6.26447
▁das	-6.28204
ão	-6.2896
▁re	-6.30855
:	-6.31147
S	-6.39122
P	-6.40779
O	-6.41264
▁ser	-6.42951
▁à	-6.43636
▁M	-6.50776
▁foi	-6.51177
ação	-6.52681
▁T	-6.52891
to	-6.54372
se	-6.55741
▁p	-6.56837
M	-6.57146
▁c	-6.57836
E	-6.58521
"	-6.58756
ia	-6.59026
▁sua	-6.59151
C	-6.59643
▁F	-6.60447
em	-6.60957
▁I	-6.61814
▁-	-6.63895
á	-6.64753
▁pelo	-6.65807
▁mas	-6.66533
▁B	-6.69321
▁in	-6.69389
▁pela	-6.69838
▁2	-6.70159
;	-6.71522
y	-6.73084
t	-6.73336
▁seu	-6.73467
▁sobre	-6.7393
▁D	-6.74217
al	-6.74814
▁R	-6.75598
c	-6.76778
U	-6.77205
k	-6.78065
▁tem	-6.78615
í	-6.78786
ta	-6.7902
dos	-6.79276
ra	-6.80515
er	-6.81161
),	-6.82183
ções	-6.8291
0	-6.8345
n	-6.842
▁f	-6.8499
ado	-6.85385
L	-6.85519
ando	-6.87253
2	-6.88328
é	-6.88632
7	-6.88656
R	-6.89139
▁–	-6.89323
te	-6.90603
p	-6.91026
▁nos	-6.92188
5	-6.92683
de	-6.93067
▁são	-6.93073
B	-6.93928
/	-6.94275
T	-6.95304
3	-6.95399
▁entre	-6.95473
▁d	-6.96721
ram	-6.97385
am	-6.99083
▁G	-6.99982
▁também	-7.00157
ada	-7.00311
8	-7.00612
4	-7.01032
▁me	-7.01581
▁já	-7.02961
▁está	-7.03019
▁muito	-7.06554
▁anos	-7.06936
...	-7.06959
6	-7.07767
la	-7.07842
▁dia	-7.08966
das	-7.11269
▁v	-7.11996
▁N	-7.12068
na	-7.12078
h	-7.12563
▁H	-7.13992
▁1	-7.14253
D	-7.14972
idade	-7.15703
▁pode	-7.16161
lo	-7.18415
▁s	-7.19151
▁L	-7.1916
w	-7.19168
que	-7.1987
▁ter	-7.20307
▁ele	-7.20435
b	-7.2073
co	-7.21151
mos	-7.21511
▁mesmo	-7.21816
▁vi	-7.22128
▁até	-7.22287
▁você	-7.22919
f	-7.23923
d	-7.24133
▁V	-7.24865
▁quando	-7.25115
F	-7.25631
?	-7.25646
z	-7.28271
▁forma	-7.28295
▁sem	-7.28671
▁co	-7.2872
▁ainda	-7.28978
9	-7.29255
va	-7.30075
ir	-7.30674
",	-7.31615
G	-7.31735
V	-7.31849
▁nas	-7.32392
▁3	-7.33421
mente	-7.33694
ados	-7.33796
or	-7.34767
▁eu	-7.35346
▁No	-7.3547
▁b	-7.35879
1	-7.35922
▁Brasil	-7.36901
ro	-7.37437
▁bem	-7.38118
▁con	-7.38169
▁seus	-7.38458
el	-7.38739
).	-7.39092
N	-7.39899
io	-7.40886
ma	-7.409
▁Re	-7.41631
ria	-7.42241
▁Em	-7.43078
no	-7.43961
ca	-7.44621
ões	-7.45412
rá	-7.45623
▁todos	-7.46528
▁De	-7.47506
▁aos	-7.47679
ó	-7.48007
g	-7.48495
le	-7.48992
▁Na	-7.50238
ais	-7.50256
nte	-7.50386
▁tempo	-7.51059
▁19	-7.51142
▁ma	-7.51217
▁m	-7.51233
amente	-7.51383
▁J	-7.51782
▁Para	-7.52937
▁Se	-7.53048
▁i	-7.53127
▁ano	-7.5316
%	-7.54251
▁esta	-7.55395
▁só	-7.55737
feira	-7.55802
▁t	-7.55924
▁4	-7.5608
▁contra	-7.56136
il	-7.56402
tos	-7.5678
in	-7.56859
▁pessoas	-7.5689
▁Os	-7.57475
adas	-7.58201
▁des	-7.59095
▁parte	-7.59315
▁ex	-7.59478
▁fazer	-7.60732
▁São	-7.61299
▁isso	-7.62388
▁às	-7.63614
▁ca	-7.64321
us	-7.64425
▁pro	-7.64749
▁onde	-7.65019
ações	-7.65399
go	-7.65689
res	-7.65727
ido	-7.65777
'	-7.65864
00	-7.66546
▁cada	-7.66833
▁U	-7.66965
▁Ro	-7.67369
!	-7.68045
▁Ca	-7.68922
▁há	-7.69387
▁vida	-7.69602
▁trabalho	-7.69803
ida	-7.69838
agem	-7.70805
x	-7.71204
▁suas	-7.71242
ina	-7.71514
▁per	-7.72633
▁foram	-7.72662
en	-7.72685
▁200	-7.72914
▁ver	-7.74086
pa	-7.74137
▁outros	-7.74447
ente	-7.75539
▁Co	-7.75573
ito	-7.75581
on	-7.75655
sa	-7.75743
▁Ma	-7.75775
▁vez	-7.76044
▁grande	-7.76414
re	-7.76562
▁melhor	-7.76897
▁g	-7.77251
ência	-7.77582
ntes	-7.77749
▁este	-7.77764
tar	-7.79096
▁vai	-7.79224
ei	-7.79344
▁pra	-7.79547
ter	-7.79689
▁te	-7.79893
▁W	-7.80366
▁meio	-7.8041
▁Com	-7.80509
▁su	-7.82097
qui	-7.82177
ce	-7.82606
▁seja	-7.82861
▁meu	-7.83804
▁di	-7.83988
H	-7.84102
▁sempre	-7.84103
▁Paulo	-7.84172
▁Al	-7.84635
X	-7.84724
▁maior	-7.8507
ista	-7.85487
▁mundo	-7.85881
eira	-7.86312
▁apenas	-7.86486
▁estão	-7.87378
▁sa	-7.87539
im	-7.87567
▁era	-7.87592
▁5	-7.88264
▁dois	-7.88302
▁será	-7.88312
▁Estado	-7.88674
▁deve	-7.88719
".	-7.89087
▁conta	-7.89092
ja	-7.89246
▁pois	-7.89547
ne	-7.8985
amento	-7.90526
▁casa	-7.91097
ur	-7.91312
ás	-7.91891
▁sendo	-7.92979
ário	-7.93067
▁cidade	-7.93119
▁assim	-7.9395
▁Vi	-7.94483
▁aqui	-7.94626
▁minha	-7.94744
ba	-7.94793
ú	-7.95526
▁l	-7.95659
▁pre	-7.95743
ismo	-7.95873
▁K	-7.95932
▁governo	-7.96625
▁todo	-7.96672
▁porque	-7.96802
an	-7.96914
▁In	-7.96917
▁ela	-7.97062
▁car	-7.97657
ES	-7.98228
▁r	-7.98419
tas	-7.98693
▁inter	-7.99616
ável	-7.99838
▁Pa	-7.99939
▁hoje	-8.00115
▁qualquer	-8.00627
▁6	-8.00799
▁esse	-8.01132
▁final	-8.01767
$	-8.01842
ing	-8.02005
ri	-8.02317
▁tudo	-8.02427
▁so	-8.0299
▁primeira	-8.03191
mo	-8.03242
▁Mar	-8.03371
me	-8.03958
ê	-8.04073
▁As	-8.04079
▁10	-8.04641
ante	-8.04847
▁depois	-8.04865
▁dias	-8.04955
▁n	-8.05158
▁caso	-8.05348
▁primeiro	-8.05438
▁Lu	-8.05928
bo	-8.06326
▁empresa	-8.06476
▁tra	-8.06595
RA	-8.06814
▁essa	-8.07124
li	-8.07166
▁mar	-8.07317
▁processo	-8.07375
ul	-8.07463
ça	-8.07817
▁presidente	-8.08297
▁quem	-8.08384
ve	-8.0844
ân	-8.08568
▁ir	-8.08583
um	-8.08668
inha	-8.08864
▁É	-8.08925
▁durante	-8.08978
▁ch	-8.09039
▁Me	-8.09877
Z	-8.09941
▁além	-8.10439
▁Ch	-8.10511
▁faz	-8.108
▁segundo	-8.11254
▁DE	-8.11364
▁qual	-8.1167
▁pe	-8.11831
istas	-8.11906
ch	-8.11997
mento	-8.12461
▁Rio	-8.12643
▁poder	-8.12651
▁acordo	-8.12787
entes	-8.12937
▁pa	-8.13026
▁país	-8.13308
▁disse	-8.135
▁fo	-8.13655
inho	-8.13694
▁nome	-8.14193
ga	-8.14368
▁al	-8.14864
▁ve	-8.15013
▁pouco	-8.15127
it	-8.15708
ço	-8.15731
▁pelos	-8.16037
▁menos	-8.1612
▁outras	-8.16254
rem	-8.16547
dio	-8.17002
▁outro	-8.17252
▁desde	-8.17296
dor	-8.17347
▁Con	-8.17782
▁ro	-8.18098
▁li	-8.18348
iz	-8.18632
▁sistema	-8.19505
▁podem	-8.19532
▁alguns	-8.19704
▁7	-8.20612
▁três	-8.20893
▁tipo	-8.21281
▁volta	-8.2148
tes	-8.21762
▁partir	-8.22027
eiro	-8.22305
▁mil	-8.2254
za	-8.22641
▁Di	-8.22701
▁após	-8.22764
▁imp	-8.22832
▁8	-8.22855
vo	-8.22892
nha	-8.23318
ho	-8.23353
ns	-8.23374
▁fi	-8.23541
▁sub	-8.23611
▁todas	-8.23799
▁en	-8.23835
▁Federal	-8.23853
▁Ba	-8.23869
idos	-8.23911
▁história	-8.24089
EN	-8.24196
tura	-8.24303
sse	-8.24341
ER	-8.24361
▁mercado	-8.24693
ck	-8.24914
tal	-8.25246
▁novo	-8.25309
▁relação	-8.25549
▁20	-8.25863
so	-8.26119
▁fa	-8.2634
▁nesta	-8.26389
▁duas	-8.26532
▁Por	-8.26596
ização	-8.26769
v	-8.26936
▁deste	-8.27046
ica	-8.27057
car	-8.27079
dores	-8.2716
▁nem	-8.27398
OS	-8.27471
▁bo	-8.27675
▁lei	-8.28419
▁cont	-8.28469
▁projeto	-8.28795
az	-8.28841
▁semana	-8.28898
▁fica	-8.2924
J	-8.29257
ava	-8.29463
▁est	-8.29486
▁201	-8.2956
▁Mo	-8.29634
▁área	-8.30271
▁ba	-8.30392
cas	-8.30585
▁desta	-8.30662
▁base	-8.30886
▁inf	-8.31163
▁agora	-8.31596
▁através	-8.31628
▁bom	-8.31739
ária	-8.31742
ador	-8.31773
▁Nacional	-8.32066
▁gra	-8.32266
IN	-8.32492
ti	-8.32613
pe	-8.32625
tor	-8.32769
▁cor	-8.33083
▁estava	-8.33101
amos	-8.33101
▁diz	-8.33187
ico	-8.33524
▁Car	-8.33547
▁va	-8.33595
▁fato	-8.3372
sta	-8.33758
▁valor	-8.34674
▁marca	-8.34833
DO	-8.35017
▁antes	-8.35161
ol	-8.35266
▁toda	-8.3552
▁eles	-8.35535
dia	-8.35596
▁po	-8.35602
▁tinha	-8.35666
vi	-8.3581
▁estar	-8.35983
▁Ju	-8.36205
▁Jo	-8.3628
▁ad	-8.36614
▁quanto	-8.36739
AR	-8.3683
▁mo	-8.36851
▁Bo	-8.3697
RE	-8.37447
▁uso	-8.37679
▁público	-8.3824
▁9	-8.38309
tivo	-8.38555
▁la	-8.38848
AN	-8.38914
ô	-8.39244
di	-8.39557
▁causa	-8.39695
▁momento	-8.39823
bi	-8.40214
▁pr	-8.40382
▁tr	-8.40683
AS	-8.40716
▁cri	-8.41074
▁fim	-8.41091
eu	-8.41108
▁Não	-8.41176
▁social	-8.41217
▁vezes	-8.41901
▁número	-8.42115
▁Um	-8.42212
▁lugar	-8.42422
▁tanto	-8.42725
Á	-8.42737
nos	-8.43053
tação	-8.43099
▁local	-8.43458
▁fal	-8.4363
▁0	-8.4364
▁passa	-8.43791
fa	-8.44024
▁18	-8.44135
imento	-8.44223
aram	-8.44451
▁pessoa	-8.44461
▁saúde	-8.44507
▁importante	-8.44602
▁tal	-8.44657
▁par	-8.44892
qu	-8.44985
▁exemplo	-8.45031
▁segunda	-8.45192
▁busca	-8.45272
ín	-8.45297
▁Te	-8.4542
▁super	-8.45708
ita	-8.45809
▁Go	-8.45814
▁empresas	-8.45932
▁lado	-8.45988
▁informações	-8.46081
▁for	-8.46246
▁nossa	-8.46256
▁tão	-8.46435
uz	-8.46468
et	-8.46524
âm	-8.46575
▁nosso	-8.46634
▁nova	-8.46721
DA	-8.46891
▁15	-8.46992
cha	-8.47143
pós	-8.47239
▁Li	-8.4736
▁ta	-8.47829
▁corpo	-8.48002
nas	-8.48062
▁Le	-8.48214
▁mesma	-8.48262
▁direito	-8.48338
idas	-8.48445
▁livro	-8.48498
▁neste	-8.48531
▁dentro	-8.48808
▁Ar	-8.48838
▁to	-8.48891
ias	-8.4892
13	-8.49413
▁então	-8.49465
he	-8.49541
▁grupo	-8.49752
▁equipe	-8.498
ér	-8.50468
▁desenvolvimento	-8.50484
50	-8.50623
Ã	-8.50798
▁La	-8.50991
lar	-8.51524
▁algumas	-8.52041
▁região	-8.52067
▁12	-8.52394
▁qualidade	-8.5254
são	-8.52541
▁sol	-8.52623
▁programa	-8.52723
ela	-8.52765
▁água	-8.52778
eiros	-8.52836
▁Be	-8.53315
▁num	-8.53476
ha	-8.53557
▁To	-8.53731
▁bi	-8.53779
TO	-8.54182
▁mi	-8.54246
▁boa	-8.54354
▁nada	-8.5442
▁Lei	-8.54508
▁le	-8.54543
adores	-8.54591
▁Gu	-8.54628
▁sociedade	-8.54692
▁têm	-8.54719
▁artigo	-8.54889
▁Deus	-8.54999
tiva	-8.55064
▁serviços	-8.55101
▁sido	-8.55133
▁cur	-8.55198
▁período	-8.55303
OR	-8.55332
ual	-8.55332
▁sabe	-8.55427
ância	-8.55612
▁outra	-8.55962
ino	-8.56239
▁filme	-8.56465
ST	-8.5647
▁sim	-8.56811
las	-8.56894
▁site	-8.57162
16	-8.57302
ível	-8.57531
indo	-8.58003
gue	-8.58044
▁lo	-8.58125
▁má	-8.5818
▁espaço	-8.58255
▁possível	-8.58342
▁hi	-8.58375
[	-8.58434
des	-8.58529
▁política	-8.58612
bra	-8.58618
▁Mi	-8.5878
elo	-8.5884
mas	-8.59142
▁cons	-8.59209
▁sob	-8.59323
▁rec	-8.59995
▁milhões	-8.60075
ON	-8.60142
cia	-8.60186
]	-8.60219
cho	-8.60452
ôni	-8.60622
ense	-8.60842
▁fr	-8.61003
cos	-8.61348
▁can	-8.61416
▁tenha	-8.62059
14	-8.62109
▁teve	-8.62315
endo	-8.62403
▁post	-8.62453
at	-8.62528
▁cal	-8.62531
▁muitos	-8.62646
ês	-8.62773
▁objetivo	-8.62818
▁vo	-8.62833
▁produção	-8.63039
▁trans	-8.63064
▁30	-8.6312
▁precisa	-8.63125
▁jogo	-8.63162
▁fez	-8.63284
▁vem	-8.63303
gu	-8.63506
▁Segundo	-8.63758
jo	-8.63782
TA	-8.63908
▁Ho	-8.64098
▁Po	-8.64354
▁Como	-8.6445
gas	-8.64481
ula	-8.64598
ni	-8.64698
▁Mas	-8.64717
id	-8.64756
MA	-8.64814
▁ga	-8.64817
áveis	-8.6486
▁José	-8.64948
DE	-8.64962
lha	-8.64963
▁estado	-8.65037
▁So	-8.65052
ores	-8.65144
▁si	-8.65192
▁Ja	-8.65226
▁seria	-8.65253
▁início	-8.65488
▁Uma	-8.65588
icos	-8.65616
▁mor	-8.65625
TE	-8.65853
ad	-8.65911
▁próprio	-8.66101
▁produtos	-8.66152
lho	-8.66179
▁muitas	-8.66247
CA	-8.66294
cio	-8.66819
ge	-8.66908
▁int	-8.66941
▁ficar	-8.67258
▁fu	-8.67584
▁coisa	-8.6783
ura	-8.67994
ã	-8.68321
ór	-8.68439
▁sin	-8.68504
▁quase	-8.68572
eta	-8.68759
▁recursos	-8.68888
▁Ne	-8.68943
lí	-8.69065
▁mu	-8.69107
▁defini	-8.69166
▁fe	-8.69264
▁noite	-8.69565
▁sal	-8.69612
▁Cor	-8.69686
▁falta	-8.69704
▁be	-8.69734
▁lu	-8.70065
▁Par	-8.70087
▁atividades	-8.70154
ux	-8.70164
▁modelo	-8.70183
ologia	-8.70267
▁feito	-8.70555
▁ju	-8.70665
ários	-8.70762
▁próximo	-8.70763
son	-8.70939
▁Fi	-8.71073
▁vis	-8.71177
▁Pro	-8.7126
▁apresenta	-8.7136
ag	-8.71363
nda	-8.71447
▁esp	-8.7158
▁grandes	-8.71621
▁pesquisa	-8.71644
ver	-8.71674
▁mostra	-8.71675
ios	-8.71733
▁ponto	-8.71851
▁Pe	-8.7205
ros	-8.72137
▁Ex	-8.72248
gi	-8.72372
II	-8.72412
j	-8.72489
▁lá	-8.72636
▁Do	-8.72699
visão	-8.72776
(	-8.72783
tores	-8.72877
nho	-8.72893
▁representa	-8.72901
▁dizer	-8.73323
▁Ministério	-8.73431
▁horas	-8.73455
gar	-8.73526
▁pass	-8.7366
▁conhecimento	-8.73908
mar	-8.73924
gência	-8.73985
▁rede	-8.74135
▁brasileira	-8.74152
los	-8.74249
▁Pr	-8.74267
Ç	-8.74442
po	-8.74449
▁bar	-8.74516
▁pelas	-8.74529
tado	-8.74576
che	-8.74994
0,	-8.75246
▁saber	-8.75396
ódi	-8.75428
▁geral	-8.75484
tro	-8.75515
tá	-8.75543
▁chega	-8.75581
▁ac	-8.75791
▁sai	-8.75881
▁Eu	-8.75993
*	-8.76125
pi	-8.76144
▁prática	-8.76172
▁força	-8.76298
▁Sul	-8.76327
▁dados	-8.76505
▁(2	-8.76551
▁quais	-8.76758
▁inc	-8.76794
ará	-8.7688
▁h	-8.77157
▁Fo	-8.77271
uro	-8.77291
▁passado	-8.77395
lá	-8.77566
▁última	-8.77691
▁segurança	-8.77795
▁problemas	-8.77933
cer	-8.77982
▁carro	-8.7829
▁199	-8.78347
▁Que	-8.7844
nto	-8.78475
▁vir	-8.78477
ci	-8.78533
antes	-8.78572
▁homem	-8.78615
▁neg	-8.7862
berto	-8.78692
itos	-8.78694
tica	-8.78759
▁11	-8.78859
xa	-8.78871
ras	-8.78925
▁meses	-8.79038
▁escola	-8.79148
▁devem	-8.794
▁grav	-8.7943
fe	-8.79503
▁trata	-8.79574
▁cr	-8.79628
▁Santa	-8.79724
eram	-8.79756
▁frente	-8.79927
zo	-8.79943
ição	-8.80101
▁dessa	-8.80193
▁quatro	-8.80266
▁ambiente	-8.80498
▁diretor	-8.80512
▁situação	-8.80516
▁população	-8.80567
▁nós	-8.80578
▁Quando	-8.80673
▁nunca	-8.80952
▁ocorre	-8.80991
▁Lo	-8.8105
ig	-8.81075
▁feita	-8.81102
▁problema	-8.81182
▁at	-8.81254
▁Fa	-8.81269
▁lev	-8.81284
▁algo	-8.81285
▁Bar	-8.81303
▁auto	-8.81596
▁enquanto	-8.81614
▁tur	-8.81844
▁evento	-8.82001
▁tri	-8.82512
▁parece	-8.82514
▁numa	-8.82591
▁serão	-8.82696
▁Municipal	-8.82819
SE	-8.82902
▁quadr	-8.8296
▁nacional	-8.83057
ira	-8.83145
min	-8.83231
▁cultura	-8.83401
▁conce	-8.83431
▁fora	-8.83503
ap	-8.83648
cional	-8.83704
ng	-8.83953
▁cerca	-8.84104
▁principalmente	-8.84121
zinh	-8.84199
lhos	-8.84359
▁fra	-8.84359
ru	-8.84566
▁ger	-8.84632
▁lhe	-8.84857
gem	-8.84991
▁CO	-8.84993
▁Sa	-8.85024
▁Br	-8.85291
▁diferentes	-8.85486
▁prote	-8.85547
▁professor	-8.85578
▁blog	-8.8566
▁gr	-8.85955
▁tenho	-8.8615
▁corre	-8.86185
pção	-8.86348
▁Além	-8.86386
▁havia	-8.86467
▁mês	-8.86548
▁serviço	-8.86657
▁própria	-8.86676
▁ped	-8.86757
▁Justiça	-8.86991
▁crianças	-8.87074
ton	-8.87248
▁ó	-8.87297
ine	-8.87313
▁texto	-8.87326
▁coisas	-8.87336
▁res	-8.87424
ub	-8.87522
▁família	-8.87523
tou	-8.87541
▁mulheres	-8.87545
▁brasileiro	-8.87633
▁Universidade	-8.87647
▁ab	-8.87747
val	-8.8792
▁países	-8.87982
▁junto	-8.87999
▁via	-8.88043
izar	-8.88146
▁tele	-8.88158
▁mal	-8.88211
▁setor	-8.8827
ger	-8.88301
▁oferece	-8.88326
missão	-8.88635
▁autor	-8.88639
ól	-8.88668
ên	-8.88686
▁maneira	-8.88764
▁verdade	-8.88809
▁linha	-8.88836
▁ho	-8.89011
▁Cu	-8.8942
agens	-8.89535
ém	-8.89564
▁pública	-8.89699
ssim	-8.89739
▁favor	-8.89759
▁dis	-8.8992
áci	-8.89953
▁gol	-8.89992
▁prova	-8.90006
br	-8.90069
▁sociais	-8.90098
▁Câmara	-8.90119
iano	-8.90204
▁capital	-8.90213
▁vários	-8.90433
▁sentido	-8.90675
▁traz	-8.90758
▁pres	-8.90759
▁quarta	-8.90801
zes	-8.90862
▁vive	-8.90968
▁principal	-8.90985
▁Saúde	-8.91067
▁An	-8.91186
▁gente	-8.91213
ex	-8.91282
▁especial	-8.91319
▁esc	-8.9142
▁bol	-8.91422
▁deix	-8.91461
▁encontra	-8.91516
via	-8.91538
▁pi	-8.91623
▁anterior	-8.91631
▁estrutura	-8.91669
▁necessário	-8.91833
▁dig	-8.91879
▁risco	-8.91879
▁proposta	-8.91987
1,	-8.92067
ilha	-8.92084
▁afirma	-8.92115
▁principais	-8.92149
iu	-8.92164
▁ra	-8.92255
▁prazo	-8.92334
iam	-8.92346
▁foto	-8.92404
▁maioria	-8.92469
▁ru	-8.92469
▁acesso	-8.92593
▁questão	-8.9276
▁série	-8.92781
nd	-8.92917
ssa	-8.93002
▁san	-8.93024
▁total	-8.93167
▁Camp	-8.93251
▁quer	-8.93292
▁pontos	-8.93548
bre	-8.93565
mes	-8.93597
posição	-8.93672
▁Mu	-8.93939
▁campo	-8.93966
bal	-8.93989
▁povo	-8.94047
ança	-8.94053
▁longo	-8.9406
▁profissionais	-8.94186
▁Secretaria	-8.94202
▁realizado	-8.94225
▁estudo	-8.94248
▁toma	-8.9425
▁tarde	-8.94343
▁Per	-8.94344
▁mulher	-8.94353
▁Ga	-8.94387
▁br	-8.94404
▁Da	-8.94425
▁condições	-8.94445
rio	-8.94594
cro	-8.94603
!!!	-8.94614
▁ações	-8.9462
▁Maria	-8.94678
▁município	-8.94685
eiras	-8.94736
▁amor	-8.94789
▁presente	-8.94806
▁pré	-8.94891
▁Cas	-8.94897
▁espera	-8.94972
iva	-8.94986
▁apoio	-8.95068
▁cap	-8.95273
▁ja	-8.95299
▁Ant	-8.95349
▁dar	-8.9536
▁Polícia	-8.95562
▁construção	-8.95768
mp	-8.9579
▁col	-8.95813
eza	-8.95889
▁ins	-8.95905
▁limit	-8.95975
▁Q	-8.96083
idades	-8.96143
ves	-8.96226
▁mão	-8.96249
▁música	-8.96446
▁controle	-8.96471
▁alunos	-8.96474
ano	-8.96478
▁Janeiro	-8.96637
▁conf	-8.96706
tório	-8.96718
▁fala	-8.96815
▁visita	-8.96831
▁obriga	-8.96863
▁pla	-8.97112
▁aplica	-8.97154
▁aumento	-8.97195
tu	-8.97457
com	-8.97598
icas	-8.97622
▁forte	-8.97736
▁preço	-8.97746
rão	-8.97859
▁Estados	-8.97989
▁Qu	-8.98042
▁prov	-8.98078
▁Des	-8.98079
▁mod	-8.98126
▁falar	-8.98141
ré	-8.98223
▁leva	-8.98231
ída	-8.98471
▁Marc	-8.98516
▁João	-8.98578
▁quinta	-8.986
▁produto	-8.98667
30	-8.987
▁che	-8.98719
▁obra	-8.98723
▁pu	-8.98724
ima	-8.98988
este	-8.98995
▁im	-8.98996
be	-8.99069
▁tratamento	-8.99216
▁som	-8.9932
▁cuj	-8.99321
▁Su	-8.99327
▁es	-8.99328
▁último	-8.99344
tir	-8.99504
▁hora	-8.99594
▁deixar	-8.9962
▁passar	-8.99671
▁pes	-8.99676
▁profissional	-8.99692
▁Grande	-8.99698
nça	-8.99701
▁fiz	-8.99782
▁atual	-8.99934
▁educação	-8.99963
▁Educação	-9.00116
▁algum	-9.0033
▁respeito	-9.00354
és	-9.00485
▁sexta	-9.00496
▁possui	-9.00523
▁novos	-9.00547
▁Ra	-9.00552
▁dele	-9.00626
▁gera	-9.00641
▁mã	-9.00644
▁Est	-9.00709
ares	-9.00841
▁época	-9.00921
íveis	-9.01353
▁decisão	-9.01353
▁qu	-9.01429
tel	-9.01449
oria	-9.01527
ular	-9.01579
▁áreas	-9.01588
tina	-9.01606
▁exig	-9.01694
▁cinco	-9.01756
ic	-9.01838
▁ob	-9.02013
▁express	-9.02029
▁fl	-9.02034
▁ar	-9.02066
▁poderia	-9.02088
▁ass	-9.02101
ze	-9.02196
tual	-9.02211
▁demais	-9.02323
cicl	-9.0233
▁papel	-9.02338
▁abri	-9.02373
▁deputado	-9.02439
▁et	-9.02459
▁dinheiro	-9.02488
▁lin	-9.02509
▁começa	-9.02558
▁Centro	-9.02624
móve	-9.0264
▁cart	-9.02671
▁desse	-9.02708
▁ficou	-9.02812
▁participação	-9.02847
▁antig	-9.0285
▁ha	-9.02902
rou	-9.0297
▁Conselho	-9.03079
ático	-9.03185
sões	-9.03296
▁raz	-9.03302
inas	-9.03433
▁cin	-9.03577
▁resultado	-9.03603
▁procura	-9.03636
greja	-9.037
th	-9.03824
êmi	-9.03824
tivos	-9.03862
▁técnico	-9.03931
▁cel	-9.03966
▁ne	-9.04027
▁estou	-9.04041
▁direitos	-9.04103
▁assunto	-9.04186
dade	-9.04208
▁arr	-9.04211
uma	-9.04294
ências	-9.04326
fo	-9.04352
ona	-9.04478
▁somente	-9.04533
▁Val	-9.04658
ál	-9.04665
▁curso	-9.04675
▁contribui	-9.04678
▁acompanha	-9.04822
▁cha	-9.04949
▁plano	-9.04962
▁possa	-9.05285
▁importância	-9.05318
tr	-9.0536
sso	-9.05371
▁liga	-9.05447
ração	-9.05468
▁an	-9.05486
▁ali	-9.0558
▁formação	-9.0558
▁man	-9.05769
▁receber	-9.05911
õe	-9.05929
▁u	-9.05945
bu	-9.05953
▁manhã	-9.05967
and	-9.06003
19	-9.06022
▁disso	-9.0604
▁casos	-9.06056
ética	-9.06075
▁campanha	-9.06162
aça	-9.06281
▁modo	-9.06412
▁Man	-9.06432
un	-9.06492
▁mon	-9.06687
▁Gr	-9.06718
K	-9.06978
▁ajuda	-9.07083
▁morte	-9.07115
▁meta	-9.07174
tra	-9.07215
▁órgão	-9.07295
▁prefeito	-9.07329
▁And	-9.07349
▁perde	-9.07486
▁título	-9.07671
▁Ele	-9.07704
▁af	-9.07722
gua	-9.0773
▁resultados	-9.07764
▁logo	-9.07816
lin	-9.07876
▁deixa	-9.07969
▁Ver	-9.08081
ana	-9.08098
▁comunidade	-9.08138
▁acontece	-9.08248
ec	-9.083
▁Tribunal	-9.08302
▁Esta	-9.08371
▁integra	-9.084
▁doença	-9.08441
▁médico	-9.08442
ensão	-9.08454
ós	-9.08548
▁impe	-9.0862
ler	-9.08954
▁q	-9.08957
▁ouvi	-9.0899
isto	-9.09002
▁possibilidade	-9.09115
▁compra	-9.09285
▁diversos	-9.09401
▁tecnologia	-9.09424
▁envi	-9.09528
▁gosta	-9.09599
▁alta	-9.09642
▁Nov	-9.09652
ut	-9.09666
▁fosse	-9.09713
▁energia	-9.09734
▁sucesso	-9.10057
▁atenção	-9.10084
▁fil	-9.10102
ró	-9.10135
10	-9.10135
▁rod	-9.10183
ônio	-9.10271
▁século	-9.10337
▁habi	-9.10491
▁,	-9.10527
▁gen	-9.10559
▁utiliza	-9.10561
▁tendo	-9.1058
gio	-9.10732
▁nível	-9.1088
▁superior	-9.10895
alidade	-9.10907
▁várias	-9.10908
▁ideia	-9.10933
▁tir	-9.10949
xi	-9.10954
▁alguma	-9.10962
▁Silva	-9.1101
▁luta	-9.11018
▁exp	-9.11083
▁...	-9.11106
ero	-9.11127
▁eng	-9.11137
tária	-9.11207
emos	-9.11274
▁obras	-9.11298
▁Es	-9.11346
▁centro	-9.11348
▁bastante	-9.11356
aixa	-9.11364
tais	-9.11404
inda	-9.11429
▁acaba	-9.11473
▁simples	-9.11543
▁menor	-9.11711
▁muita	-9.11851
pas	-9.1206
▁viv	-9.12062
orte	-9.1213
▁ap	-9.12143
▁gestão	-9.12165
▁ensino	-9.12204
▁vista	-9.12252
▁terça	-9.1231
ças	-9.12439
▁Col	-9.12476
▁Sal	-9.12529
▁novas	-9.12536
port	-9.12655
▁time	-9.12706
▁arma	-9.1275
▁pagamento	-9.12781
ven	-9.12977
▁projetos	-9.13002
lhas	-9.13006
▁fase	-9.13007
▁he	-9.13023
▁poss	-9.13073
▁diversas	-9.13127
xo	-9.13184
▁necessidade	-9.13211
▁capacidade	-9.13222
lu	-9.13281
tico	-9.13337
▁hor	-9.13348
▁human	-9.13353
gên	-9.13622
▁long	-9.13644
▁considera	-9.13678
NT	-9.137
sto	-9.13704
árias	-9.13772
▁vot	-9.13888
nal	-9.14115
▁presença	-9.14171
▁2014	-9.14253
inhos	-9.14313
ído	-9.14348
▁Am	-9.1438
▁domingo	-9.1442
▁existe	-9.14469
▁homens	-9.14524
ll	-9.14557
▁Instituto	-9.14583
tamente	-9.14587
▁tu	-9.14695
▁poderá	-9.14835
▁pedi	-9.14858
▁acima	-9.14862
▁análise	-9.14907
▁temos	-9.14915
▁Carlos	-9.14971
▁nesse	-9.14983
▁padr	-9.15012
▁atua	-9.15033
▁ganh	-9.15061
É	-9.15074
▁For	-9.15078
▁significa	-9.15097
ele	-9.15169
▁realizar	-9.15179
▁certo	-9.15256
▁esses	-9.153
tados	-9.15365
▁arqui	-9.15503
▁exce	-9.15582
rro	-9.15719
▁tema	-9.15735
der	-9.1587
▁nossos	-9.15945
aria	-9.16023
▁explica	-9.16054
▁rua	-9.16122
▁tive	-9.16247
▁edição	-9.1638
▁chegar	-9.16383
▁devido	-9.16427
▁atividade	-9.1645
▁atra	-9.16511
▁usar	-9.16529
▁Ter	-9.16543
▁pedido	-9.16562
feliz	-9.16729
▁Outr	-9.17001
▁reuni	-9.17133
▁tor	-9.17297
▁usa	-9.173
gen	-9.17368
por	-9.17394
ital	-9.17404
▁terá	-9.17454
▁manter	-9.17467
▁divi	-9.17481
man	-9.17535
▁coloca	-9.17716
▁entrevista	-9.17879
▁Cl	-9.17922
▁crescimento	-9.18002
tando	-9.18013
/201	-9.18133
▁categoria	-9.18169
▁2015	-9.18184
vam	-9.18233
nia	-9.18308
▁Ta	-9.18343
metros	-9.18384
▁sala	-9.18395
▁últimos	-9.184
▁cargo	-9.1847
▁preciso	-9.18523
osa	-9.18635
▁economia	-9.18751
▁filho	-9.18803
▁indica	-9.18807
▁fazendo	-9.18884
▁maiores	-9.18887
▁bat	-9.18911
erra	-9.19018
▁tom	-9.1904
st	-9.19052
▁Governo	-9.19078
▁pessoal	-9.19147
▁sábado	-9.19151
▁ministro	-9.19268
▁pl	-9.19277
vio	-9.19323
▁funciona	-9.19438
▁material	-9.19649
▁dist	-9.19689
bit	-9.19721
▁manda	-9.19746
rar	-9.19748
▁responsável	-9.19785
▁Dia	-9.19794
▁observa	-9.19805
▁Direito	-9.19818
▁sens	-9.19848
▁pai	-9.20002
▁realizada	-9.20045
▁torna	-9.20245
ix	-9.20306
cul	-9.20368
abilidade	-9.20466
▁Público	-9.20565
óp	-9.20597
▁ide	-9.20633
▁custo	-9.20667
▁op	-9.20681
▁pena	-9.20695
rada	-9.20753
bus	-9.20765
til	-9.20776
obre	-9.20922
▁Este	-9.20932
▁criação	-9.21061
cionais	-9.21129
▁extra	-9.21134
tido	-9.21226
▁crime	-9.21243
▁serem	-9.21486
om	-9.21546
▁Programa	-9.21716
CO	-9.21811
titu	-9.21907
▁du	-9.21956
▁década	-9.22059
▁próxima	-9.22164
▁agr	-9.22174
ua	-9.22188
▁permiti	-9.22195
▁função	-9.22434
▁encontro	-9.22524
▁organização	-9.22545
▁opera	-9.22694
▁teste	-9.22795
je	-9.22821
▁perd	-9.22927
▁cl	-9.22928
hi	-9.22946
par	-9.22951
ber	-9.22951
ológico	-9.22981
▁2016	-9.23044
▁circu	-9.23124
▁Unidos	-9.23169
▁porém	-9.233
▁passou	-9.2335
▁valores	-9.23351
riz	-9.23447
▁mult	-9.23479
▁vend	-9.23502
icamente	-9.23576
ória	-9.23604
▁estim	-9.23725
▁exa	-9.23795
▁bairro	-9.23825
sas	-9.23845
▁começou	-9.23924
12	-9.23993
tin	-9.24059
étric	-9.24113
ento	-9.24247
▁matéria	-9.24273
▁ontem	-9.24281
bar	-9.24365
lhe	-9.24372
▁continua	-9.24398
ens	-9.24471
culo	-9.24491
ativa	-9.24492
int	-9.24496
▁melhores	-9.246
▁fazem	-9.24672
▁cli	-9.25128
▁vol	-9.25177
▁pri	-9.25303
adora	-9.25333
▁movimento	-9.2535
▁motor	-9.25424
▁experiência	-9.25434
▁realidade	-9.25437
fer	-9.2544
▁venda	-9.25511
20	-9.25527
▁Dilma	-9.25531
guarda	-9.25586
▁2010	-9.25591
▁colo	-9.25671
▁norma	-9.25851
mi	-9.25858
▁caminho	-9.25879
vel	-9.25882
▁Depois	-9.26011
▁conforme	-9.26014
▁houve	-9.26044
▁criar	-9.26113
▁exercício	-9.26126
▁atendimento	-9.26245
vez	-9.26287
▁comum	-9.26289
▁decidi	-9.26306
▁Pedr	-9.26397
▁inform	-9.26416
▁min	-9.26459
gre	-9.2646
▁essas	-9.26562
▁conjunto	-9.26665
▁alto	-9.26688
▁partido	-9.26733
▁dirig	-9.26822
stância	-9.26887
iro	-9.27052
nta	-9.27071
jeito	-9.27097
▁sejam	-9.27133
▁Ri	-9.27139
ques	-9.27146
▁parceria	-9.27206
▁Fund	-9.27326
▁audi	-9.27379
▁sele	-9.27427
vida	-9.27455
tada	-9.27468
▁sei	-9.27627
▁medi	-9.2766
▁claro	-9.27725
▁peça	-9.27804
▁levar	-9.27882
▁comunicação	-9.27914
▁conhecido	-9.27975
ibi	-9.27984
▁dúvida	-9.2799
▁band	-9.28052
▁Va	-9.28118
▁Cr	-9.28124
iana	-9.2823
▁contato	-9.28273
eio	-9.28276
ste	-9.283
▁pequeno	-9.28339
▁aleg	-9.28376
pressão	-9.28443
▁fac	-9.28443
raça	-9.28455
acto	-9.28494
▁El	-9.28502
▁cria	-9.28504
▁interesse	-9.28618
▁diferença	-9.28625
ora	-9.28634
▁pais	-9.28723
▁sex	-9.28728
figura	-9.28735
▁prop	-9.28772
Q	-9.28815
▁informação	-9.28852
▁avanç	-9.28916
▁Ha	-9.28943
ulas	-9.28957
ance	-9.28958
dro	-9.2896
▁En	-9.28985
▁lembra	-9.29057
lia	-9.29136
▁lança	-9.29146
▁Europ	-9.29185
▁cobr	-9.29215
▁igual	-9.29223
▁senti	-9.29298
▁esque	-9.2931
▁Ge	-9.2937
nco	-9.29404
▁sab	-9.29444
▁atr	-9.29557
▁participar	-9.29563
▁fund	-9.29597
▁identifica	-9.2966
▁arte	-9.2973
les	-9.29737
▁estre	-9.29741
▁terr	-9.29813
▁realmente	-9.29817
▁public	-9.29928
ema	-9.29951
▁crise	-9.29984
hia	-9.30022
ena	-9.30228
izado	-9.30381
▁Ser	-9.30409
▁inclusive	-9.30419
▁contrato	-9.30461
▁defesa	-9.30515
gos	-9.30528
▁realização	-9.30719
▁teria	-9.3076
▁único	-9.30775
▁natural	-9.30786
▁bri	-9.30933
▁Social	-9.312
▁disputa	-9.31225
▁chama	-9.31298
▁mis	-9.31345
encia	-9.31374
▁Santos	-9.31442
▁internet	-9.31474
eb	-9.31507
vis	-9.31522
▁popular	-9.31568
▁assina	-9.3158
▁terra	-9.31592
▁federal	-9.31629
ner	-9.31669
▁consult	-9.31736
▁Fe	-9.31756
▁Entre	-9.31894
▁resposta	-9.32043
▁acab	-9.32102
creto	-9.32356
rado	-9.32372
▁acho	-9.3239
▁prepara	-9.32578
ético	-9.32673
▁informa	-9.32677
▁agosto	-9.3268
elho	-9.32842
▁refle	-9.32845
sic	-9.32858
▁inicia	-9.32911
▁vídeo	-9.32975
▁vence	-9.33049
▁processos	-9.33055
▁norte	-9.332
▁livre	-9.33256
▁festa	-9.33274
ara	-9.33286
▁civil	-9.33421
▁diante	-9.33584
nge	-9.33606
▁Crist	-9.33636
▁troca	-9.33669
toria	-9.3371
rial	-9.33801
ática	-9.33812
▁conclu	-9.33838
rei	-9.3389
▁Civil	-9.33924
▁j	-9.33938
▁nenhum	-9.33952
tão	-9.34068
▁futebol	-9.34183
▁Cultura	-9.342
▁públicos	-9.34308
▁ação	-9.34379
▁brasileiros	-9.34395
▁fran	-9.34495
ill	-9.34521
eve	-9.34535
tim	-9.34558
▁rep	-9.34591
ecimento	-9.34616
▁influ	-9.34671
▁termos	-9.34759
▁cara	-9.34837
ssão	-9.3496
▁suspe	-9.35001
adeira	-9.35075
nú	-9.35127
▁encontrar	-9.3513
▁art	-9.35174
▁Escola	-9.35182
ços	-9.35233
▁garanti	-9.35234
ilo	-9.35276
eja	-9.3533
▁quantidade	-9.35345
per	-9.35381
▁corr	-9.35442
▁alguém	-9.35456
ib	-9.35501
▁medida	-9.35629
▁chamado	-9.35635
▁amigos	-9.35776
200	-9.35911
▁pequena	-9.3596
11	-9.35971
▁aquela	-9.35985
▁futuro	-9.36043
▁oficial	-9.36072
▁(1	-9.36155
▁natureza	-9.36289
▁envolve	-9.36356
▁registro	-9.36361
tam	-9.3642
ológica	-9.36561
▁cer	-9.36637
ocê	-9.36657
▁agrad	-9.36762
bio	-9.36823
▁obt	-9.36851
avam	-9.36914
ell	-9.36927
inhas	-9.36958
quei	-9.37016
▁importantes	-9.37164
▁políticas	-9.37261
▁Jesus	-9.37267
▁modern	-9.37275
▁professores	-9.37295
▁aparece	-9.37472
mão	-9.37483
▁Fl	-9.37495
▁recebe	-9.37525
▁Ess	-9.37593
▁clube	-9.37609
▁legal	-9.37615
ago	-9.37664
▁relat	-9.37671
q	-9.37676
▁deverá	-9.37699
▁elas	-9.37714
▁pergunta	-9.37726
lidade	-9.37782
quer	-9.37782
▁lí	-9.37811
ngu	-9.3782
igo	-9.37888
▁minutos	-9.37936
lic	-9.37972
▁Min	-9.37992
oso	-9.38051
▁data	-9.38176
▁ci	-9.38218
up	-9.38322
▁ganha	-9.38372
ixa	-9.38401
▁competi	-9.38426
sico	-9.38434
▁Comissão	-9.38448
quil	-9.38691
ssem	-9.38698
uta	-9.38722
▁conteúdo	-9.38776
▁ge	-9.38808
▁chegou	-9.38819
▁jur	-9.38838
▁jovens	-9.38887
▁Nor	-9.38959
W	-9.38966
ez	-9.38975
dura	-9.39072
▁cresce	-9.39138
ac	-9.39172
▁ag	-9.3919
▁reunião	-9.39221
▁equi	-9.39257
AD	-9.39294
▁constru	-9.39298
▁motivo	-9.39352
▁sofre	-9.39533
▁diferente	-9.39569
▁entrar	-9.39601
▁milh	-9.39692
uais	-9.39786
▁América	-9.39856
▁julho	-9.39868
▁trabalha	-9.40003
ite	-9.40021
uto	-9.40063
▁acredita	-9.40111
▁real	-9.40121
▁inv	-9.40123
▁conceito	-9.40201
ís	-9.40217
tri	-9.40256
mática	-9.40302
▁gas	-9.40347
▁Ale	-9.40391
▁enc	-9.40404
▁extrem	-9.40463
▁ing	-9.40507
▁líder	-9.40583
▁orde	-9.40624
▁esca	-9.40639
▁deveria	-9.40686
▁bra	-9.40689
▁seguinte	-9.40695
▁regi	-9.4072
tivas	-9.40767
▁guerr	-9.40772
▁Mat	-9.40857
para	-9.40998
lega	-9.41013
▁Pi	-9.41034
▁espécie	-9.41148
nt	-9.41182
▁torno	-9.4119
▁União	-9.41231
aço	-9.41273
▁nu	-9.41361
▁abaixo	-9.41385
▁muda	-9.41432
▁pol	-9.41433
▁ind	-9.41553
▁capa	-9.41564
▁imagem	-9.41709
zi	-9.41718
▁Or	-9.41739
▁debate	-9.4176
▁permite	-9.41774
▁político	-9.41872
▁clientes	-9.41925
pla	-9.41974
▁democr	-9.41989
▁internacional	-9.42027
▁ajudar	-9.42056
▁jogos	-9.42063
▁apesar	-9.42304
▁média	-9.42313
▁maio	-9.42472
▁mora	-9.42516
dora	-9.42582
▁cabeça	-9.4265
residência	-9.42665
▁lista	-9.42685
tima	-9.42713
op	-9.42751
ard	-9.42761
▁patr	-9.42776
ivo	-9.42828
▁mat	-9.42855
▁defende	-9.42862
▁cul	-9.42911
imentos	-9.43023
▁junho	-9.43032
mb	-9.43183
ticos	-9.43189
▁previst	-9.43192
itar	-9.43198
essa	-9.43234
anho	-9.43255
mã	-9.43267
graf	-9.43354
gn	-9.43371
ord	-9.43388
▁Prefeitura	-9.4341
▁pens	-9.43493
▁atingi	-9.43495
▁transporte	-9.43529
▁setembro	-9.43544
01	-9.43572
▁paga	-9.43664
▁Porto	-9.43672
▁deles	-9.43732
ncia	-9.43846
▁transforma	-9.43865
▁cole	-9.43879
ventu	-9.43911
▁única	-9.43956
▁mant	-9.43957
▁fonte	-9.4396
vas	-9.43975
▁outubro	-9.44018
ab	-9.44079
lmente	-9.44333
pó	-9.44341
▁val	-9.44395
▁acess	-9.44486
▁bu	-9.4453
lica	-9.44536
▁porta	-9.44577
▁afirmou	-9.44664
culos	-9.44703
▁of	-9.44709
▁Estadual	-9.44759
▁dezembro	-9.44796
▁conven	-9.44826
vos	-9.44873
▁Presidente	-9.4495
▁intens	-9.45007
ani	-9.45046
▁filhos	-9.45056
▁cidades	-9.45058
▁acha	-9.45149
baixo	-9.45182
gir	-9.45197
▁visto	-9.45248
▁colocar	-9.45277
▁vontade	-9.45312
mica	-9.45438
▁inici	-9.45451
▁torn	-9.45479
tur	-9.45518
ferência	-9.45542
▁classe	-9.45555
▁comp	-9.45559
osso	-9.45594
▁tribu	-9.45626
▁utilizado	-9.45648
▁Mor	-9.45682
▁aquele	-9.45772
▁determina	-9.45806
posto	-9.4588
▁animais	-9.45881
▁mé	-9.45893
▁sup	-9.45928
▁governador	-9.45929
vamos	-9.45951
tória	-9.45951
ach	-9.45971
gada	-9.46022
▁At	-9.46051
enta	-9.46075
▁embora	-9.46084
▁República	-9.46113
▁Esp	-9.46192
stico	-9.46291
mestre	-9.46426
▁Ed	-9.46436
▁pensa	-9.46467
▁substitu	-9.46504
almente	-9.46574
ixo	-9.46595
▁abs	-9.46649
▁efetiv	-9.46692
▁confi	-9.46694
▁vítima	-9.4675
▁caminh	-9.46756
ugu	-9.46764
▁aqueles	-9.46828
▁econômica	-9.46838
▁palavras	-9.47072
▁Plan	-9.47083
▁direção	-9.47144
▁Ban	-9.47179
▁grupos	-9.472
▁lembr	-9.47205
fon	-9.47224
▁menin	-9.47251
▁janeiro	-9.47309
ume	-9.47351
▁entrada	-9.47392
▁apresentar	-9.47408
▁gosto	-9.47432
▁disponíve	-9.4745
▁certa	-9.47519
alha	-9.47559
▁interior	-9.47565
▁oportunidade	-9.47581
▁jornal	-9.4774
iga	-9.4777
▁particular	-9.47789
▁cas	-9.4782
▁partida	-9.47834
grad	-9.47869
▁criança	-9.47955
▁física	-9.47972
▁consumidor	-9.47995
ult	-9.4814
▁estilo	-9.48196
bilidade	-9.48369
nio	-9.48386
▁avaliação	-9.48428
▁cant	-9.48459
era	-9.48472
▁imagin	-9.48482
▁regra	-9.48507
▁desc	-9.48726
▁medidas	-9.48863
▁preocupa	-9.48901
▁Trabalho	-9.48919
▁surgi	-9.48941
▁Ve	-9.48953
rias	-9.49049
▁página	-9.49135
▁surpre	-9.49177
êm	-9.49182
▁anti	-9.49284
responsabilidade	-9.49338
eral	-9.49339
spírito	-9.49449
tudo	-9.49512
▁vari	-9.49586
▁vereador	-9.49604
▁fundamental	-9.49648
▁refer	-9.49683
▁difícil	-9.4972
▁disp	-9.49774
▁técnica	-9.4978
▁continu	-9.49923
édio	-9.49929
ografia	-9.49965
ardo	-9.49987
▁despe	-9.49989
▁iniciativa	-9.49989
tem	-9.50002
bril	-9.50045
▁cuidado	-9.50166
▁origem	-9.50203
▁revista	-9.50209
▁secretário	-9.5029
▁começar	-9.50503
▁hav	-9.50507
▁banco	-9.50547
▁estudos	-9.50582
não	-9.50589
▁Pre	-9.50597
▁investi	-9.50668
▁questões	-9.50673
▁pert	-9.50703
mentos	-9.50746
one	-9.5076
▁admi	-9.50773
od	-9.5084
dica	-9.50849
té	-9.50866
▁fiscal	-9.5098
▁instituições	-9.51107
▁objeto	-9.51114
míni	-9.51128
▁novembro	-9.51164
dão	-9.51171
▁amb	-9.5121
ata	-9.51276
▁públicas	-9.51283
▁id	-9.51376
▁cabelo	-9.51421
her	-9.51439
lam	-9.51457
▁escrito	-9.5156
▁consumo	-9.51624
▁baixa	-9.51636
dir	-9.51656
▁relativ	-9.5166
▁administração	-9.51694
▁avalia	-9.51756
▁entrega	-9.5177
rte	-9.51792
▁Apesar	-9.51859
▁promo	-9.51958
▁cre	-9.51967
cial	-9.52011
▁familiar	-9.52012
▁membros	-9.52039
▁Senhor	-9.52122
▁carreira	-9.52141
▁consegui	-9.52167
ística	-9.52187
ânic	-9.52218
▁ress	-9.52235
ud	-9.52262
▁investiga	-9.5233
ug	-9.52339
▁prim	-9.52413
▁conhecer	-9.52426
▁conv	-9.5266
▁trabalhadores	-9.52667
▁combate	-9.52711
▁entender	-9.52756
▁destaca	-9.52763
▁Associação	-9.52772
▁posição	-9.52834
▁Ad	-9.52849
▁ocupa	-9.52882
▁estabelece	-9.52948
ting	-9.52964
▁especialmente	-9.52966
▁eleva	-9.52997
▁seg	-9.53045
▁locais	-9.53083
▁aplicação	-9.53105
ed	-9.53132
▁fin	-9.53141
uí	-9.53204
lio	-9.53205
▁tam	-9.53257
mbu	-9.53281
▁ocorr	-9.53374
▁He	-9.53429
esse	-9.53501
▁interessante	-9.53547
dá	-9.53548
▁marc	-9.53677
▁Brasília	-9.53793
▁Nos	-9.53931
costum	-9.54066
▁conseguir	-9.54104
▁vitória	-9.54155
▁aut	-9.54256
▁podemos	-9.54342
nder	-9.54353
▁fun	-9.5436
▁Si	-9.54363
▁estavam	-9.54378
udo	-9.54447
leitoral	-9.54491
▁mudança	-9.54579
▁mínimo	-9.54626
ativo	-9.54774
▁Qua	-9.54845
▁Nest	-9.54846
▁presta	-9.5487
▁liberdade	-9.54932
▁us	-9.54937
▁entanto	-9.54981
▁comb	-9.55005
▁crédito	-9.55032
remos	-9.5512
▁trabalhar	-9.55129
▁Tra	-9.55134
xecutivo	-9.5516
▁monta	-9.55245
entemente	-9.55253
▁Dire	-9.55266
▁estadual	-9.55284
▁municípios	-9.55324
▁intel	-9.55345
venção	-9.55411
▁redução	-9.55483
▁Durante	-9.55513
ral	-9.55547
ete	-9.55553
▁enca	-9.55584
▁gar	-9.55667
rap	-9.55683
▁fecha	-9.55711
ef	-9.55748
▁apresentado	-9.55806
▁conden	-9.55847
▁seguir	-9.55914
▁coletiv	-9.55927
ião	-9.5598
▁ext	-9.56049
forma	-9.56106
▁coração	-9.56107
dem	-9.56136
bri	-9.56215
▁orienta	-9.56215
▁possu	-9.56223
▁acu	-9.5623
▁impress	-9.5623
▁desempenho	-9.56257
▁Tr	-9.56284
▁estamos	-9.56311
bel	-9.56396
▁Ce	-9.56402
▁desej	-9.56454
▁revela	-9.56472
ent	-9.56524
▁salário	-9.56552
▁Brasileiro	-9.56574
▁Militar	-9.56582
fi	-9.56676
leta	-9.56693
▁lidera	-9.56693
▁evitar	-9.56699
▁versão	-9.56701
rog	-9.56707
▁candidato	-9.56753
nel	-9.56777
▁reduzi	-9.56876
como	-9.5689
rba	-9.56929
ang	-9.56974
▁efeito	-9.56983
▁depende	-9.56989
▁conquista	-9.57004
▁recebeu	-9.57121
tuais	-9.57155
▁assumi	-9.57172
▁consider	-9.57183
▁escrit	-9.5725
▁mundial	-9.57281
tion	-9.5733
▁escolha	-9.57387
atis	-9.57498
▁form	-9.57528
▁trabalhos	-9.57586
pé	-9.57613
mun	-9.57634
tário	-9.5771
▁Fr	-9.57785
▁indústria	-9.58032
▁enfrenta	-9.58163
▁divulga	-9.58248
rito	-9.5825
▁preju	-9.58278
▁percebe	-9.5841
cada	-9.5843
▁desses	-9.58511
▁propriedade	-9.58536
▁primeiros	-9.58606
lex	-9.58609
▁Brasileira	-9.58617
▁Du	-9.58628
▁quart	-9.5866
▁demonstra	-9.58704
▁Sistema	-9.58717
nes	-9.5873
ecer	-9.58742
▁tornar	-9.58748
ôn	-9.58762
▁disc	-9.58916
▁gest	-9.58947
▁realiza	-9.59057
▁comercial	-9.59118
▁resolve	-9.59165
ná	-9.59195
▁ninguém	-9.59301
bras	-9.59307
▁nota	-9.59317
▁cumpri	-9.59382
▁ben	-9.59402
▁completa	-9.59417
smo	-9.59464
▁junt	-9.59474
▁volt	-9.59477
▁Pública	-9.59557
▁opinião	-9.59577
▁programas	-9.59631
▁considerado	-9.59671
▁complex	-9.59725
nidade	-9.59757
▁tentar	-9.59763
anos	-9.59864
dição	-9.59889
▁demanda	-9.59922
dios	-9.59929
gado	-9.60012
▁viol	-9.60038
▁criado	-9.60082
▁certeza	-9.60153
lares	-9.60237
▁aponta	-9.60268
ificação	-9.6033
ivos	-9.60354
▁judici	-9.60382
▁men	-9.60564
▁nenhuma	-9.60597
▁imprensa	-9.6063
timo	-9.60676
▁garantir	-9.60704
▁mudanças	-9.60733
rge	-9.6081
▁Francisco	-9.60858
▁manifesta	-9.60903
▁Cont	-9.6095
▁econômico	-9.60993
ições	-9.60999
▁terceiro	-9.61014
▁atuação	-9.61025
▁chamada	-9.61088
▁mí	-9.61089
apa	-9.61114
▁idade	-9.61124
▁Desenvolvimento	-9.61153
sito	-9.61185
▁Inter	-9.6121
elas	-9.61253
▁joga	-9.61269
rit	-9.61314
und	-9.6133
▁ref	-9.61453
▁escolh	-9.61481
▁conversa	-9.61484
cl	-9.61508
▁reforma	-9.61542
....	-9.61558
▁produzi	-9.61588
▁rece	-9.61593
▁fre	-9.61621
alização	-9.61627
corrente	-9.61628
inal	-9.61671
tude	-9.61678
aulista	-9.61701
vesti	-9.61744
▁vin	-9.61769
▁Internacional	-9.61857
▁aconteceu	-9.61864
ério	-9.61871
▁violência	-9.61877
▁Regi	-9.61915
▁características	-9.6194
limina	-9.62051
ato	-9.62214
▁exist	-9.62309
fil	-9.62381
▁hom	-9.62404
▁instala	-9.62411
uns	-9.6243
▁profund	-9.6243
▁cert	-9.62434
▁retorn	-9.62452
▁abertura	-9.62457
▁escreve	-9.62573
▁constante	-9.62574
regular	-9.62587
▁responde	-9.62598
▁esteja	-9.62628
▁uni	-9.62698
var	-9.62698
▁normal	-9.62768
▁enf	-9.62792
▁artista	-9.62957
▁segui	-9.63069
▁cursos	-9.63214
crimin	-9.63256
▁escolas	-9.63281
▁notícia	-9.63292
▁nossas	-9.63335
sign	-9.63382
eno	-9.63393
▁jornalista	-9.63405
acia	-9.63423
poli	-9.6361
▁contrário	-9.63613
▁sen	-9.63665
▁privad	-9.63705
▁exerc	-9.63733
▁acidente	-9.63794
▁indivíduo	-9.63809
indicato	-9.6389
▁cliente	-9.63945
▁reserva	-9.63978
▁amigo	-9.64001
▁son	-9.64042
▁portanto	-9.64066
onte	-9.64114
si	-9.64164
▁existem	-9.64194
sica	-9.64213
lado	-9.64272
▁ness	-9.6428
▁edi	-9.64333
tadas	-9.6435
▁analisa	-9.64515
▁ferramenta	-9.64542
▁bilhões	-9.64585
▁discuti	-9.64585
cina	-9.646
gues	-9.64625
▁relações	-9.64682
!!	-9.6469
▁comprar	-9.64711
ejo	-9.64771
▁temporada	-9.64843
sistência	-9.64991
ust	-9.65008
ran	-9.65032
▁referência	-9.65079
▁just	-9.65155
▁cenário	-9.6525
correr	-9.65371
utor	-9.65437
pul	-9.65448
mula	-9.65452
▁palavra	-9.65487
▁documentos	-9.65491
mais	-9.65498
▁alimentos	-9.6556
▁operação	-9.65586
▁Projeto	-9.65592
▁regime	-9.65889
▁formas	-9.6589
▁diminui	-9.65915
riedade	-9.66091
ins	-9.66097
▁sof	-9.66179
▁existência	-9.66245
▁polícia	-9.66267
▁espe	-9.66321
▁ti	-9.66333
ônica	-9.66488
ip	-9.66505
▁exter	-9.66512
▁atende	-9.66529
spir	-9.66533
▁tenta	-9.66535
▁instrumento	-9.6659
plo	-9.66598
▁unidade	-9.66607
guei	-9.66612
enda	-9.66726
▁preven	-9.66764
▁Ger	-9.66765
mor	-9.66816
▁políticos	-9.66856
▁repe	-9.66858
ssões	-9.66912
aí	-9.66913
▁eletrônic	-9.66922
▁realiz	-9.66923
▁veículos	-9.66925
▁execut	-9.66938
▁pont	-9.66986
▁lançamento	-9.66993
gl	-9.67007
▁segur	-9.67008
estrutura	-9.67056
▁emprego	-9.67062
versário	-9.67138
▁materiais	-9.67144
15	-9.67235
▁descobri	-9.67242
▁científic	-9.67294
▁anunci	-9.67297
▁funcionários	-9.67302
▁apoi	-9.67542
▁servidores	-9.67633
▁passo	-9.67666
▁sistemas	-9.6771
▁adequad	-9.67775
lores	-9.67834
cular	-9.67866
▁Edu	-9.67946
▁ante	-9.67957
▁recebi	-9.67989
▁banc	-9.68033
▁qui	-9.68086
▁execução	-9.68102
▁humano	-9.68113
▁altera	-9.68138
▁médi	-9.68146
▁esquerd	-9.68188
mbo	-9.6819
▁cidadão	-9.68253
▁liber	-9.68313
▁financeira	-9.68384
▁manutenção	-9.68414
rmos	-9.68504
▁atribu	-9.68527
spira	-9.68626
du	-9.68639
▁perfeit	-9.68685
▁prest	-9.68705
▁comportamento	-9.68755
eus	-9.68793
just	-9.68883
logo	-9.68913
stas	-9.69021
▁proteção	-9.69056
eração	-9.6906
▁Congresso	-9.69068
▁Gera	-9.69131
stro	-9.69188
▁abert	-9.69246
▁terceir	-9.69304
▁Mundial	-9.69305
▁univers	-9.69336
▁utilização	-9.6934
gress	-9.69348
teiro	-9.69397
▁Fernando	-9.69407
▁Ci	-9.69489
▁central	-9.69527
▁apresentação	-9.69581
atro	-9.69658
tenção	-9.69672
▁prefer	-9.69675
▁estratégia	-9.69746
▁sustent	-9.69793
▁hospita	-9.69833
dri	-9.69873
▁cent	-9.69876
volu	-9.6988
▁efeitos	-9.69897
▁Bra	-9.69915
▁equipamentos	-9.70094
▁fer	-9.70096
▁imediat	-9.70142
▁companhia	-9.70147
▁eventos	-9.70149
▁imagens	-9.70172
▁pen	-9.70238
▁mostrar	-9.70279
og	-9.7028
▁conhece	-9.7034
▁interna	-9.70404
todo	-9.70471
riam	-9.70509
▁cu	-9.70516
esta	-9.70557
rg	-9.70595
▁argument	-9.70674
▁apare	-9.70736
▁benefici	-9.70759
▁Portugal	-9.70858
ciais	-9.70927
▁necessária	-9.70936
▁refere	-9.71018
ativos	-9.71063
▁Ag	-9.71065
▁Rec	-9.71141
▁fornece	-9.71233
▁Santo	-9.71252
▁unidades	-9.71274
▁humanos	-9.7129
▁empresário	-9.71318
cu	-9.71448
▁dela	-9.71456
▁estudantes	-9.71514
una	-9.7152
▁esper	-9.71533
▁municipal	-9.71555
tiveram	-9.71566
avi	-9.71567
cima	-9.71685
▁San	-9.71731
▁educa	-9.71806
▁consegue	-9.71816
▁contar	-9.7196
cad	-9.72009
▁un	-9.72028
▁esforço	-9.72197
▁declara	-9.72202
▁question	-9.72254
▁recente	-9.72269
▁candidatos	-9.72358
▁independente	-9.7236
▁mostr	-9.7245
▁varia	-9.72627
▁relatório	-9.72637
▁especialista	-9.72856
▁solução	-9.72888
▁policiais	-9.72907
▁destaque	-9.72975
tec	-9.72995
▁elementos	-9.73029
▁blo	-9.73037
▁pacientes	-9.73084
▁leitura	-9.73084
gora	-9.73121
ob	-9.73199
▁entend	-9.73286
evolução	-9.73326
▁condu	-9.73347
▁rest	-9.73352
▁consta	-9.73386
ior	-9.73454
▁suficiente	-9.73512
▁prev	-9.73586
▁conseguiu	-9.73689
▁servi	-9.73691
▁deseja	-9.73696
▁process	-9.73729
▁desafio	-9.73765
ográfic	-9.73851
corrência	-9.73887
íd	-9.73892
van	-9.73893
zer	-9.73986
ndic	-9.74061
▁presentes	-9.74077
▁instituição	-9.74125
ser	-9.74176
▁pretende	-9.74192
ximo	-9.74272
▁entr	-9.74324
▁físic	-9.74399
▁trabalh	-9.7451
▁diretamente	-9.7454
▁computador	-9.74561
▁explora	-9.74594
fica	-9.74604
▁esco	-9.74621
ulação	-9.74644
▁proporciona	-9.74681
lação	-9.74701
bin	-9.74711
ciência	-9.74738
leção	-9.74772
▁Constituição	-9.74785
▁divulg	-9.74994
rí	-9.75008
ide	-9.75009
cionar	-9.75055
▁sofr	-9.75223
anha	-9.75232
nhos	-9.75236
prim	-9.75318
▁precisam	-9.75396
▁fevereiro	-9.75411
chi	-9.75418
▁eleições	-9.75435
abe	-9.75457
presidente	-9.75548
eia	-9.7563
▁clar	-9.75764
▁particip	-9.75782
str	-9.75843
cida	-9.76039
▁advogado	-9.76048
▁ado	-9.76088
▁tro	-9.76121
▁leg	-9.7613
turas	-9.76247
tividade	-9.76302
gentes	-9.7633
▁positiv	-9.76469
▁desenvolver	-9.76533
▁pensamento	-9.76564
▁ambiental	-9.76565
bli	-9.76566
▁financeiro	-9.76595
▁empreend	-9.76661
▁negócios	-9.7668
▁jogadores	-9.76708
▁pal	-9.76784
▁essencia	-9.76797
▁trein	-9.76798
▁pratica	-9.76804
ural	-9.76919
▁ven	-9.7692
▁princípio	-9.76949
▁coloc	-9.76975
itas	-9.77013
▁incentiv	-9.77042
▁destin	-9.77049
ovação	-9.77055
rea	-9.77075
fr	-9.77075
etro	-9.77088
lor	-9.77241
rigo	-9.77246
ença	-9.77293
▁necessidades	-9.77306
rra	-9.77313
▁procur	-9.77344
▁explic	-9.77415
▁planta	-9.77424
▁importa	-9.77556
▁mensage	-9.77581
▁assisti	-9.77631
▁apar	-9.77661
fra	-9.77727
terior	-9.77796
▁mort	-9.77817
tantes	-9.77834
▁mem	-9.77891
▁potencial	-9.78012
rica	-9.78053
▁el	-9.78127
▁ri	-9.78127
land	-9.78139
íli	-9.78217
▁palestra	-9.78298
▁complet	-9.7842
18	-9.78451
▁conhecida	-9.78452
▁Uni	-9.78512
▁prec	-9.78581
cion	-9.78643
rupo	-9.78693
▁estiver	-9.78737
▁ban	-9.78755
▁espa	-9.78764
▁histórico	-9.78806
ment	-9.78812
tens	-9.78849
▁decis	-9.7885
inário	-9.78925
▁oper	-9.78997
▁Regional	-9.79235
▁Oliveira	-9.79244
dez	-9.79286
itor	-9.79335
▁contemp	-9.79376
tista	-9.79558
usado	-9.7968
▁jove	-9.79726
tério	-9.79777
▁original	-9.7982
mon	-9.79971
remo	-9.80037
▁ampl	-9.80041
▁aspectos	-9.80056
▁discurso	-9.80166
ender	-9.80215
▁tre	-9.80247
cr	-9.80261
▁hum	-9.8027
cionado	-9.80371
len	-9.80414
▁totalmente	-9.80436
tários	-9.80458
tidos	-9.8046
▁transmi	-9.8047
▁concurso	-9.80486
nhas	-9.80515
▁ame	-9.80637
scul	-9.80685
▁inscri	-9.8069
▁ár	-9.80704
nce	-9.80727
▁promover	-9.80765
▁inicial	-9.80785
log	-9.80809
ons	-9.80811
ique	-9.80904
▁desenvolve	-9.80923
▁veículo	-9.8093
iza	-9.80932
▁incluindo	-9.80943
ign	-9.80956
▁cam	-9.8103
▁cultural	-9.81068
vid	-9.81107
▁representantes	-9.81204
▁Ambient	-9.81232
bast	-9.81315
▁convi	-9.81373
▁perf	-9.8138
▁documento	-9.81594
▁crítica	-9.81638
gação	-9.81731
con	-9.81742
gor	-9.81753
rup	-9.81766
ban	-9.81767
tân	-9.81824
▁comemora	-9.81854
iv	-9.81855
end	-9.81884
tora	-9.81944
ebra	-9.81949
▁semelhan	-9.82048
nuncia	-9.82147
▁far	-9.82156
▁continuar	-9.82172
▁regula	-9.82174
▁.	-9.82224
▁usuários	-9.82245
tórios	-9.82262
amentos	-9.82354
▁conflito	-9.82376
▁rea	-9.82395
▁homenage	-9.82462
ativas	-9.82479
▁solicita	-9.82567
▁produtiv	-9.82575
taque	-9.82714
▁detalhe	-9.82761
uito	-9.82767
▁gu	-9.82836
▁segu	-9.8284
pis	-9.82887
tras	-9.83003
seu	-9.83108
minação	-9.83132
nde	-9.83145
▁ensin	-9.83211
▁benefícios	-9.83287
nsão	-9.83301
nó	-9.83349
▁adolescente	-9.83423
▁observ	-9.83429
vador	-9.83448
▁anda	-9.83651
▁esclarec	-9.83653
▁momentos	-9.83686
▁dez	-9.83701
▁peri	-9.83768
entos	-9.83796
lit	-9.838
▁declar	-9.83819
▁religios	-9.83827
▁situações	-9.83916
▁recor	-9.83949
mer	-9.83959
sequência	-9.83962
▁famílias	-9.84001
▁anima	-9.84037
ame	-9.84082
▁Sen	-9.84173
▁militares	-9.84214
▁aumentar	-9.8427
▁sete	-9.84297
▁Departamento	-9.84346
▁associad	-9.84358
promet	-9.84368
▁aborda	-9.84391
oca	-9.84404
▁org	-9.84482
quis	-9.84603
ambém	-9.84778
art	-9.84779
essão	-9.84824
▁Administração	-9.84828
estre	-9.8483
▁contexto	-9.84834
▁fabrica	-9.8484
▁apos	-9.84858
acional	-9.84884
est	-9.84899
▁excelente	-9.8493
▁dever	-9.8496
solução	-9.8508
tanto	-9.85147
▁jurídica	-9.85196
let	-9.85289
▁seguid	-9.85402
tó	-9.85529
▁tendência	-9.85646
▁dire	-9.85727
▁organiza	-9.85749
gra	-9.85802
ola	-9.85821
▁verifica	-9.85838
▁recurso	-9.85848
▁Campeonato	-9.85874
xe	-9.8592
▁Cam	-9.85921
▁ofer	-9.85958
▁entidades	-9.86004
▁prefeitura	-9.86013
▁tradicional	-9.86041
▁novamente	-9.86129
▁Município	-9.86204
▁aceita	-9.86251
ion	-9.86267
cel	-9.86271
sh	-9.86273
▁aprov	-9.86293
▁militar	-9.86305
▁técnicas	-9.86379
pensar	-9.86388
▁oferec	-9.86456
quin	-9.86463
ega	-9.86471
sco	-9.86572
▁moto	-9.86659
▁discussão	-9.86687
utr	-9.86719
ício	-9.86724
▁nasc	-9.87019
▁participa	-9.87036
cado	-9.87071
into	-9.87081
▁preserva	-9.87088
▁pos	-9.87124
ot	-9.87175
▁confirma	-9.87344
▁seguintes	-9.87391
gresso	-9.87525
vale	-9.87549
▁atualmente	-9.87551
sia	-9.87589
bon	-9.87608
ariamente	-9.87621
▁lig	-9.87637
▁Cri	-9.87695
▁facili	-9.87696
ensa	-9.87714
▁comand	-9.87725
ai	-9.87851
▁investimentos	-9.87893
▁tentativa	-9.87926
cios	-9.88046
▁encontr	-9.88082
▁prepar	-9.88089
cula	-9.88206
ss	-9.88229
▁distribuição	-9.88278
▁freq	-9.88514
▁go	-9.88543
▁convida	-9.88546
ant	-9.88588
▁integr	-9.88668
vou	-9.88792
cente	-9.88877
rido	-9.88888
enha	-9.88945
nização	-9.8896
▁experiment	-9.88961
rios	-9.89042
▁constitui	-9.89112
izada	-9.89163
▁rend	-9.89211
briga	-9.89309
▁provoca	-9.8932
ún	-9.89346
▁lanç	-9.89596
▁ale	-9.89599
usa	-9.89628
ulo	-9.89642
scrição	-9.89738
▁Legislativ	-9.89759
▁cust	-9.89884
ficiência	-9.89899
▁cab	-9.90111
gricultura	-9.90133
▁abr	-9.90138
iliar	-9.90155
ende	-9.90213
▁competência	-9.90228
▁pel	-9.90232
nheiro	-9.9025
osos	-9.90271
rir	-9.90279
ingu	-9.90298
▁aprende	-9.90362
zar	-9.90379
▁estuda	-9.90399
▁interesses	-9.90405
pes	-9.90528
▁simplesmente	-9.90597
▁aumenta	-9.90625
anismo	-9.90713
▁casamento	-9.9081
tí	-9.90963
▁pesquisas	-9.90981
▁pag	-9.90998
▁transfer	-9.91003
uel	-9.91046
▁termo	-9.91082
▁americano	-9.91102
▁reconhece	-9.91158
Se	-9.91222
▁respeit	-9.9124
▁aprend	-9.91271
▁conserva	-9.91278
▁especific	-9.91371
rança	-9.91386
ospital	-9.91395
▁permanece	-9.91398
ilho	-9.91431
▁estrangeir	-9.91432
gens	-9.91484
▁Super	-9.91519
▁legislação	-9.91706
▁descon	-9.91746
▁tran	-9.91747
▁indi	-9.91775
fas	-9.91796
▁alcança	-9.91804
nces	-9.91852
porte	-9.91863
▁cir	-9.91866
are	-9.91939
pol	-9.91995
urop	-9.92003
esa	-9.92073
ovi	-9.92091
▁usad	-9.92095
▁restaura	-9.92162
ice	-9.9217
▁corri	-9.92186
▁alternativa	-9.92313
▁exposição	-9.92395
ogo	-9.92414
postos	-9.92443
▁classifica	-9.92504
▁escolhe	-9.92601
oni	-9.9271
ificado	-9.92789
posições	-9.92824
▁Sup	-9.9284
rt	-9.92853
▁específic	-9.92879
cola	-9.92886
▁mes	-9.92939
▁entra	-9.92949
deste	-9.92966
etas	-9.92969
ote	-9.93067
▁esport	-9.93069
▁fator	-9.9307
▁regulament	-9.93072
posta	-9.93113
▁desen	-9.93144
▁estabelecid	-9.93239
▁dificuldades	-9.93257
of	-9.93363
final	-9.9356
▁compromisso	-9.93633
tável	-9.93653
▁expectativa	-9.93654
▁respectiv	-9.93668
ld	-9.9368
lógica	-9.93762
eis	-9.93804
▁corret	-9.93809
lhar	-9.93898
▁pouc	-9.93925
cido	-9.94036
aculdade	-9.9404
▁território	-9.94046
âni	-9.94092
▁funcionamento	-9.9412
ístic	-9.94135
▁negócio	-9.94181
ç	-9.94184
▁coordenador	-9.94218
▁desenvolvido	-9.94362
▁acontecer	-9.94379
▁ato	-9.94505
▁olha	-9.94581
stão	-9.94608
▁aprova	-9.94621
▁velocidade	-9.94771
▁diver	-9.94793
▁ce	-9.94836
▁conc	-9.94836
▁motiv	-9.94852
▁deu	-9.94886
▁participantes	-9.9489
aç	-9.94954
▁julgamento	-9.95108
ep	-9.95227
▁confe	-9.95236
▁olh	-9.95261
ju	-9.95271
ube	-9.95282
uc	-9.95343
tan	-9.95352
uros	-9.95557
▁portugues	-9.95602
▁constitu	-9.95676
▁atualiza	-9.9572
▁publicado	-9.95724
edor	-9.9575
screver	-9.95762
tida	-9.9584
▁destac	-9.95907
ecido	-9.95916
▁jogador	-9.96017
pid	-9.96086
deira	-9.96141
nc	-9.96154
▁Gra	-9.96155
▁interpreta	-9.96173
tamento	-9.96265
▁diferencia	-9.96274
▁pau	-9.96305
eix	-9.96332
▁am	-9.96343
▁comentários	-9.96507
▁cham	-9.96555
▁Paul	-9.96616
bro	-9.9665
ron	-9.96675
çam	-9.96739
tid	-9.96982
ssistência	-9.97028
▁cai	-9.9707
nga	-9.97086
rota	-9.97156
▁inclu	-9.9721
ilh	-9.97271
níveis	-9.9731
▁elabora	-9.97349
riti	-9.97389
pt	-9.97405
▁á	-9.97424
▁institu	-9.9749
bol	-9.97616
▁plane	-9.97659
anda	-9.97725
▁inclui	-9.97728
▁estr	-9.97737
▁promove	-9.97741
▁acompanh	-9.97846
ui	-9.97877
dar	-9.97896
▁amplia	-9.97934
▁relacionamento	-9.97935
berta	-9.97941
▁internacionais	-9.98013
▁requ	-9.98024
lização	-9.98149
▁existente	-9.98149
alto	-9.98209
▁transform	-9.98247
parecer	-9.9833
oje	-9.98395
icar	-9.98416
lida	-9.98547
asse	-9.98625
▁desp	-9.98774
▁significativ	-9.98876
dic	-9.98884
▁termina	-9.98927
▁comun	-9.98937
arem	-9.99001
▁Assembleia	-9.99029
har	-9.99089
▁basta	-9.99098
mba	-9.99171
▁objetivos	-9.99221
tino	-9.9925
rim	-9.9929
▁lim	-9.99304
rros	-9.99336
azer	-9.9937
partamento	-9.99387
▁facil	-9.99449
mico	-9.99484
▁parce	-9.99497
▁baix	-9.99557
▁acredit	-9.99579
▁comunica	-9.99584
▁concentra	-9.99647
▁utilizada	-9.99728
▁disciplina	-9.99793
▁cen	-9.99828
▁apresentou	-9.99863
inos	-9.99877
ibilidade	-9.99901
cê	-9.99987
▁negocia	-9.99994
▁compreende	-10.0007
sí	-10.0007
▁Ol	-10.0009
▁responsáveis	-10.0028
▁direto	-10.003
nquanto	-10.0031
aud	-10.0032
▁parlamentar	-10.0037
▁aceit	-10.0045
eg	-10.0045
ama	-10.0047
ceu	-10.0048
▁concor	-10.0053
▁Vo	-10.0056
logia	-10.0065
ráfico	-10.0069
▁condi	-10.0071
paração	-10.0074
rço	-10.0083
▁levanta	-10.009
▁impos	-10.0093
▁tant	-10.0094
lite	-10.0098
eto	-10.0106
estão	-10.011
▁determinado	-10.0113
▁empregado	-10.0124
▁procedimentos	-10.013
▁autoriza	-10.0131
eo	-10.0134
lada	-10.0135
▁realizadas	-10.0141
ôm	-10.0152
udi	-10.0152
stica	-10.0161
pon	-10.0169
▁entidade	-10.0174
ltura	-10.0177
▁autom	-10.0186
▁comprova	-10.0186
▁princípios	-10.0195
dido	-10.0197
egurança	-10.0199
acho	-10.0209
nças	-10.0213
colh	-10.0224
▁gost	-10.0227
▁investimento	-10.023
cumprimento	-10.0239
▁sent	-10.024
▁aprovad	-10.0241
▁indicado	-10.0244
▁ama	-10.025
ini	-10.0259
lan	-10.0266
▁destinad	-10.027
sou	-10.0274
itário	-10.0275
oc	-10.028
▁jorna	-10.0281
enas	-10.0282
▁estra	-10.0289
▁amig	-10.0299
▁sentimento	-10.0301
▁produtor	-10.0303
▁inde	-10.0314
lamento	-10.0322
▁verdadeiro	-10.0324
▁planejamento	-10.0325
▁daquel	-10.0327
▁especializad	-10.0332
omb	-10.0333
▁julga	-10.0335
anco	-10.0338
▁exclusiv	-10.034
▁apre	-10.0346
igi	-10.0348
▁aproveita	-10.0351
▁verdadeira	-10.0363
▁publicação	-10.0366
▁Assi	-10.0378
chei	-10.038
americana	-10.0385
uração	-10.0386
lé	-10.0392
▁personagens	-10.0398
▁construíd	-10.0404
crescent	-10.0405
entar	-10.0425
▁carg	-10.0429
▁aplic	-10.0431
aqui	-10.0433
▁recomenda	-10.0433
▁intern	-10.044
mia	-10.0444
▁utiliz	-10.0448
▁subs	-10.0469
▁prot	-10.0471
▁paciente	-10.0472
▁colabora	-10.0475
idamente	-10.0476
▁ú	-10.0485
licidade	-10.0485
▁agente	-10.049
aga	-10.049
▁consciência	-10.0493
mé	-10.05
▁pat	-10.0519
▁instalação	-10.0529
▁il	-10.0532
▁treinamento	-10.0534
ife	-10.0535
▁programação	-10.0545
ea	-10.0546
▁confor	-10.0549
▁dispositivo	-10.0555
▁document	-10.0564
tualmente	-10.0567
▁qualifica	-10.0567
lei	-10.0572
sal	-10.0572
▁pare	-10.0573
encial	-10.0575
erá	-10.0585
▁ata	-10.0593
corre	-10.0595
▁autoridades	-10.0603
cimento	-10.0605
▁ret	-10.0607
▁manifest	-10.0608
▁movimentos	-10.0615
arga	-10.0622
▁poli	-10.0628
erta	-10.063
▁considerada	-10.0639
rida	-10.0641
rac	-10.0658
ortal	-10.0665
quele	-10.0673
aldo	-10.0682
atório	-10.0683
igência	-10.069
ícia	-10.0693
▁jurídic	-10.07
▁mud	-10.0705
▁estabelecimento	-10.0708
▁nove	-10.0708
▁perce	-10.071
oder	-10.0725
sul	-10.073
▁Conf	-10.0741
sos	-10.0745
▁av	-10.0746
ian	-10.0752
uras	-10.0756
gal	-10.0767
cal	-10.0768
aís	-10.0794
iros	-10.0794
indica	-10.0795
orme	-10.0797
tações	-10.08
▁Ass	-10.0806
▁Fer	-10.0821
ten	-10.0824
urgi	-10.0824
▁Mai	-10.0825
▁Je	-10.0831
zen	-10.0839
▁campe	-10.0844
▁Ap	-10.0845
▁individual	-10.0849
leg	-10.085
▁vá	-10.0851
nica	-10.0854
uss	-10.0854
▁integrante	-10.0855
▁usuário	-10.0863
▁revel	-10.0875
▁universidade	-10.0877
▁acontec	-10.0879
▁temperatura	-10.0882
Não	-10.0894
ificar	-10.0906
tê	-10.091
▁direta	-10.0914
redo	-10.0915
ioso	-10.0916
lat	-10.0923
ans	-10.0923
▁implanta	-10.0925
▁fam	-10.0929
lig	-10.0932
gia	-10.0934
cionamento	-10.0938
▁administrativa	-10.0939
nsino	-10.094
if	-10.094
▁alimentação	-10.0944
▁Ent	-10.0953
▁Centr	-10.0955
nado	-10.097
cionada	-10.0975
▁err	-10.0976
▁cort	-10.0977
▁justifica	-10.0982
fia	-10.0989
enso	-10.1013
ich	-10.1014
▁controla	-10.1018
ris	-10.1028
dação	-10.1031
reve	-10.1041
uação	-10.1048
dependência	-10.1058
▁direit	-10.1064
▁corresponde	-10.107
nico	-10.1082
▁mer	-10.1084
▁alimenta	-10.1096
vidas	-10.1107
rico	-10.1108
▁comercia	-10.1115
rando	-10.1115
▁localizado	-10.1117
▁publica	-10.1117
▁encaminha	-10.1123
▁medicamento	-10.1126
▁relacionada	-10.1127
ustr	-10.1128
ange	-10.1138
▁perspectiva	-10.1139
▁específico	-10.1142
▁resulta	-10.115
ulho	-10.1159
lh	-10.1159
gente	-10.1162
▁tiver	-10.1163
rom	-10.1168
▁recuperação	-10.1169
▁entende	-10.1172
izados	-10.1175
can	-10.1178
▁personage	-10.1183
cou	-10.1187
▁caracteriza	-10.1196
cante	-10.1204
isso	-10.1209
mobili	-10.1211
flu	-10.1212
▁garant	-10.1215
▁industria	-10.1217
▁determin	-10.1231
veni	-10.1242
erior	-10.1249
rin	-10.1256
▁termin	-10.1262
▁dificuldade	-10.1269
áb	-10.1271
ota	-10.1284
çar	-10.1286
▁contrat	-10.1296
biliza	-10.1301
oz	-10.1303
▁filh	-10.1313
▁anuncia	-10.1316
imo	-10.1327
mina	-10.133
▁alter	-10.1331
▁praticamente	-10.1333
▁produzid	-10.1337
▁passage	-10.1347
ítulo	-10.1355
▁aproveit	-10.1355
áticas	-10.1358
ório	-10.1366
ús	-10.1369
ntar	-10.137
ficial	-10.1385
usão	-10.1388
lube	-10.1401
▁possibili	-10.1413
▁candidat	-10.1413
dim	-10.1418
eço	-10.1438
ate	-10.1441
iente	-10.1469
voca	-10.1471
▁organizações	-10.1478
vidência	-10.1479
▁mante	-10.1485
▁compr	-10.1487
▁policia	-10.1492
bertura	-10.15
bas	-10.1503
rr	-10.1508
fício	-10.1516
▁fic	-10.1532
atura	-10.1539
▁compar	-10.1549
▁infl	-10.1553
nais	-10.1564
stos	-10.1573
lina	-10.1576
mbi	-10.1581
rb	-10.1588
▁solu	-10.1612
au	-10.1614
torno	-10.1616
▁voc	-10.1622
edi	-10.163
▁reconhecimento	-10.1633
▁carre	-10.1644
nca	-10.165
edores	-10.1651
vemos	-10.1656
pat	-10.1666
▁med	-10.1668
▁refor	-10.1669
▁compet	-10.1681
▁Fernand	-10.1691
erg	-10.1693
▁cost	-10.1694
aca	-10.1698
▁aproximadamente	-10.17
iram	-10.1702
▁completamente	-10.1705
ial	-10.1713
vant	-10.1716
sporte	-10.1718
▁plan	-10.1724
anti	-10.1725
ind	-10.1745
▁dura	-10.1745
mentar	-10.1747
▁estratégi	-10.1749
▁Mil	-10.1752
▁associa	-10.1754
anto	-10.1757
▁perceb	-10.176
endente	-10.1763
lv	-10.1776
ndas	-10.1779
▁morador	-10.1781
pensa	-10.1793
▁is	-10.1793
▁cabe	-10.1799
lê	-10.18
▁moviment	-10.1801
ego	-10.1808
fic	-10.1814
uni	-10.1814
▁médic	-10.1815
ov	-10.1816
americano	-10.1817
▁federa	-10.182
diante	-10.1831
iência	-10.1837
▁efic	-10.1838
metro	-10.1848
▁efet	-10.1855
égi	-10.1861
ampeonato	-10.1864
av	-10.1875
ulares	-10.1879
▁esqu	-10.1884
▁crit	-10.189
▁compartilha	-10.1892
ile	-10.19
▁registrad	-10.1902
tt	-10.1913
▁recentemente	-10.1917
▁ten	-10.192
hão	-10.1931
labora	-10.1933
▁on	-10.1937
osto	-10.1938
▁administra	-10.1946
rcio	-10.1949
/20	-10.1958
ces	-10.196
net	-10.1965
ene	-10.1966
oto	-10.1969
▁organizado	-10.1972
nada	-10.1986
tivamente	-10.1987
inta	-10.1993
▁pesquisadores	-10.1994
▁sec	-10.2002
fim	-10.2002
▁aluno	-10.2007
▁começo	-10.2008
▁fornec	-10.201
▁disponibiliza	-10.2016
99	-10.2023
iências	-10.2025
▁priva	-10.2026
eficiente	-10.2028
tava	-10.2031
doras	-10.2035
rd	-10.204
feri	-10.2046
cade	-10.2052
▁portugu	-10.2059
▁ofici	-10.2059
peração	-10.2067
rçament	-10.2069
erv	-10.207
▁proprie	-10.2072
▁procedimento	-10.2072
▁Un	-10.2072
uca	-10.2074
▁and	-10.2079
antas	-10.2087
▁promov	-10.2088
▁experiências	-10.2092
tendimento	-10.2101
ece	-10.2111
viv	-10.2122
▁concorr	-10.2123
ipe	-10.2143
tua	-10.2145
utores	-10.2146
citação	-10.2147
gr	-10.216
mic	-10.2177
evidência	-10.2181
estiv	-10.2185
▁aproxima	-10.2188
aj	-10.2189
iri	-10.2189
mental	-10.2193
▁exclusiva	-10.2193
imp	-10.2201
rre	-10.2208
dito	-10.2209
▁leit	-10.2211
vil	-10.2212
ers	-10.2213
▁Res	-10.2215
▁resolv	-10.2222
ecnologia	-10.2225
adamente	-10.2226
ue	-10.2232
sc	-10.2238
ídi	-10.224
dida	-10.2246
▁relacionados	-10.2248
ati	-10.2248
tic	-10.2252
▁Segu	-10.2262
istória	-10.2264
nacionais	-10.2266
▁eleito	-10.2268
ramento	-10.2275
solu	-10.2275
colo	-10.2277
▁financiamento	-10.2279
▁receb	-10.2283
ânc	-10.2284
paga	-10.2285
▁Mari	-10.2291
bé	-10.2292
lis	-10.2293
segura	-10.2298
cesso	-10.2298
deia	-10.23
▁séri	-10.2302
ntos	-10.2305
ogos	-10.2306
mat	-10.2312
dra	-10.2313
▁reg	-10.2315
▁oportunidades	-10.2319
onista	-10.232
▁rem	-10.2324
minar	-10.2325
cerca	-10.2344
esquisa	-10.2346
bate	-10.235
taram	-10.2353
adoras	-10.2355
ront	-10.2361
▁encontrado	-10.2362
No	-10.2363
▁desa	-10.2367
gui	-10.2369
aix	-10.238
▁cami	-10.238
ulos	-10.2383
▁emp	-10.2383
▁cient	-10.2383
olha	-10.2389
▁governa	-10.2396
▁especia	-10.2408
▁fech	-10.2419
199	-10.243
cionados	-10.2433
▁mensa	-10.2437
ár	-10.2437
nôm	-10.2448
brica	-10.2462
▁ajud	-10.2465
duzir	-10.2465
uperior	-10.2472
ssas	-10.2486
rgen	-10.2487
mul	-10.2506
nato	-10.2518
▁segura	-10.252
pu	-10.2531
ualmente	-10.2535
▁religi	-10.2545
ical	-10.2551
çamento	-10.2552
ist	-10.2555
cri	-10.2562
▁ferr	-10.2566
▁interessado	-10.2568
▁propor	-10.2576
fíci	-10.258
itora	-10.2586
▁ampli	-10.2586
▁inten	-10.2592
sição	-10.2604
rodução	-10.2614
linha	-10.2614
▁indic	-10.2618
▁registra	-10.2627
ence	-10.2634
▁trabalhador	-10.2638
taria	-10.2638
radi	-10.264
íni	-10.2641
▁hist	-10.2642
▁colet	-10.2644
ivas	-10.2645
rações	-10.2652
itado	-10.2659
▁fundament	-10.2668
éria	-10.2677
deu	-10.2678
melho	-10.2693
istente	-10.2702
ulado	-10.2709
velmente	-10.2711
▁Port	-10.2712
▁conse	-10.2718
▁prom	-10.2718
issão	-10.2723
▁Au	-10.2734
rados	-10.2735
▁situa	-10.2736
siva	-10.2743
jeit	-10.2746
▁necessi	-10.275
▁conseq	-10.2764
gro	-10.2765
cto	-10.2788
édia	-10.2791
encer	-10.28
mada	-10.2804
tira	-10.2805
laboração	-10.2815
abel	-10.2825
▁met	-10.2832
propri	-10.2848
mete	-10.2865
gador	-10.2882
▁plant	-10.2885
fre	-10.2885
api	-10.2888
bran	-10.2894
▁provavelmente	-10.2903
isão	-10.2906
centes	-10.2915
Eu	-10.2932
idenci	-10.2935
▁emba	-10.2937
▁implementa	-10.2946
gando	-10.295
nciamento	-10.2955
▁confirm	-10.2955
sisti	-10.2957
Os	-10.2958
gráfic	-10.2958
▁orient	-10.2968
▁fundamenta	-10.297
▁abord	-10.2971
▁equipa	-10.2975
agrad	-10.2997
▁produz	-10.2998
siste	-10.3005
▁mont	-10.3006
rav	-10.3011
icí	-10.3016
enário	-10.3021
▁benefício	-10.3027
▁Cons	-10.3031
▁rela	-10.3032
lando	-10.3035
▁espec	-10.3047
af	-10.3052
▁identific	-10.3055
▁aten	-10.3059
men	-10.3062
efesa	-10.3062
vin	-10.3063
▁contin	-10.3067
▁aspecto	-10.3087
▁apresentada	-10.3089
dução	-10.3096
tros	-10.3101
▁perman	-10.3101
▁compara	-10.3106
amar	-10.3106
star	-10.3109
sivo	-10.3121
▁capaci	-10.313
lico	-10.3131
▁tecn	-10.3134
tadores	-10.3145
Que	-10.3153
▁sig	-10.3155
assina	-10.3172
▁ví	-10.3174
▁libera	-10.3176
▁represent	-10.3177
bert	-10.3182
vendo	-10.3189
pin	-10.3198
rganização	-10.3203
amb	-10.3207
orias	-10.3214
▁din	-10.3214
cele	-10.3222
▁contrata	-10.3225
ciona	-10.3231
▁posi	-10.3232
▁objetiv	-10.3244
levant	-10.3246
eficiência	-10.3246
aú	-10.3249
ude	-10.3257
ont	-10.3261
▁divulgad	-10.3261
▁companh	-10.3262
nham	-10.3268
uri	-10.3272
vido	-10.3278
▁estud	-10.3283
▁funda	-10.3288
esmo	-10.3291
▁tent	-10.3292
stante	-10.3299
▁constitucional	-10.3301
▁assist	-10.3302
▁susp	-10.3317
eceu	-10.3319
reto	-10.332
inação	-10.3332
▁ent	-10.3333
iança	-10.3334
todos	-10.3337
onomia	-10.3337
▁analis	-10.335
▁Pla	-10.3352
▁agen	-10.3353
vem	-10.3361
manhã	-10.3366
rreira	-10.3381
nch	-10.3393
▁domin	-10.3403
▁pod	-10.3414
iversidade	-10.3415
izando	-10.3431
erson	-10.3435
▁localizad	-10.3443
boa	-10.3449
iste	-10.346
▁crític	-10.3463
valo	-10.3468
▁Comp	-10.3469
▁administrativo	-10.3473
camp	-10.3475
lismo	-10.3483
mbora	-10.3493
▁Fu	-10.3494
▁dize	-10.3495
feitos	-10.3499
ssi	-10.3506
éri	-10.3515
pos	-10.3515
strui	-10.3516
ibe	-10.3529
▁membro	-10.3534
▁recomend	-10.3534
▁soci	-10.3535
eitas	-10.3536
ren	-10.354
reu	-10.3542
eria	-10.3551
▁acord	-10.3554
▁convers	-10.3559
reira	-10.3563
▁cuida	-10.3564
ond	-10.3568
▁conquist	-10.3575
▁log	-10.3578
rma	-10.3585
▁históric	-10.3593
▁surg	-10.3601
íti	-10.3609
rece	-10.3618
▁Franc	-10.3628
▁compost	-10.3635
ilidade	-10.3636
spe	-10.3636
dência	-10.3638
De	-10.364
▁aju	-10.3641
▁municipa	-10.3643
ses	-10.3643
▁explo	-10.3644
plica	-10.3649
erro	-10.3651
ecisão	-10.3652
tei	-10.3679
▁mini	-10.3684
strado	-10.3689
tagem	-10.3692
▁personal	-10.3695
ientes	-10.3707
▁detalh	-10.3709
▁representante	-10.3721
▁parc	-10.3723
▁instru	-10.373
▁test	-10.3738
curso	-10.3741
radic	-10.375
stre	-10.3758
peti	-10.3759
▁proje	-10.3767
cano	-10.3776
lma	-10.3776
essor	-10.3787
nador	-10.3787
mini	-10.3788
ham	-10.379
alta	-10.3798
▁previ	-10.3802
scimento	-10.3807
▁compreen	-10.3822
sol	-10.3822
▁pergunt	-10.3823
▁desig	-10.384
quela	-10.3841
▁fina	-10.3843
erem	-10.3847
cil	-10.3863
▁dur	-10.3872
▁Pol	-10.3874
▁profiss	-10.3879
igente	-10.3882
rtar	-10.3887
han	-10.3891
iti	-10.3914
dr	-10.3922
ifica	-10.3939
órios	-10.3942
scar	-10.3947
has	-10.3952
mentais	-10.3954
rante	-10.3955
rofessor	-10.3956
minado	-10.3964
▁inte	-10.3991
iados	-10.3991
▁solicit	-10.3997
ebr	-10.401
erviço	-10.4011
rina	-10.4014
leitor	-10.4017
▁pou	-10.4022
▁ren	-10.4028
▁cad	-10.403
▁publicad	-10.403
rs	-10.4033
▁distribu	-10.4043
▁planeja	-10.4043
stra	-10.4053
eter	-10.406
eratura	-10.4063
bil	-10.407
teira	-10.4071
ila	-10.4076
cana	-10.4085
fec	-10.4093
emi	-10.4097
▁estive	-10.4098
▁desco	-10.4099
rinc	-10.4108
▁disposi	-10.4112
▁Ac	-10.4115
anças	-10.4119
▁eletr	-10.4123
▁recu	-10.4125
rop	-10.4131
▁inve	-10.4133
ticamente	-10.4134
urado	-10.4137
▁medic	-10.4139
ícul	-10.4161
Re	-10.4167
lou	-10.4172
estar	-10.4179
▁temp	-10.418
eir	-10.4185
rã	-10.4192
urg	-10.4193
nós	-10.4195
itada	-10.4196
▁defen	-10.4197
rocesso	-10.4198
▁contribu	-10.4199
medi	-10.4211
▁dado	-10.4214
ect	-10.422
▁sustenta	-10.4224
radas	-10.4232
terna	-10.4233
rol	-10.4234
cent	-10.4242
▁mand	-10.4248
ple	-10.4249
â	-10.4252
▁tradiciona	-10.4265
nismo	-10.4277
terra	-10.4278
ndes	-10.4279
gica	-10.4292
erais	-10.4295
cord	-10.4297
▁possíve	-10.4304
▁parec	-10.4308
pro	-10.4309
nária	-10.4318
▁autoridade	-10.432
egar	-10.4324
▁dispos	-10.4329
erna	-10.433
senho	-10.4335
▁Tri	-10.4335
su	-10.4338
entre	-10.4341
tabel	-10.4344
ane	-10.4345
▁Federa	-10.4349
onde	-10.4349
▁legisla	-10.4352
strada	-10.4372
lguns	-10.4385
nclusão	-10.4394
▁alu	-10.4396
ess	-10.44
▁press	-10.44
▁desenvolvid	-10.4402
itação	-10.4403
pel	-10.4405
ificada	-10.4409
coração	-10.4421
inais	-10.4421
eros	-10.4424
azend	-10.4428
▁precis	-10.4434
corpora	-10.4435
melh	-10.4442
ícios	-10.4446
riamente	-10.4447
ncias	-10.4453
rne	-10.4454
ntre	-10.4454
▁comentário	-10.4457
tender	-10.4458
tador	-10.4459
▁Fran	-10.4459
queles	-10.4459
Em	-10.446
▁red	-10.4462
didos	-10.4466
▁aprendi	-10.4468
quem	-10.4471
ticas	-10.4472
▁preocup	-10.4479
sti	-10.4483
tificação	-10.449
alismo	-10.449
▁sur	-10.4493
feito	-10.4496
▁control	-10.4498
vidade	-10.4498
▁servidor	-10.4503
cin	-10.4507
ualidade	-10.4511
cra	-10.4511
ociedade	-10.4515
▁mani	-10.4516
olog	-10.4524
▁transport	-10.4526
▁aba	-10.4532
cionário	-10.4539
uerra	-10.4548
ie	-10.4551
dados	-10.4555
loc	-10.4564
rig	-10.4573
ulto	-10.4573
iado	-10.4577
▁Silv	-10.4577
▁govern	-10.4584
fl	-10.4589
mobil	-10.4596
dentes	-10.4621
lim	-10.4625
▁implant	-10.4631
atos	-10.464
cias	-10.4642
sp	-10.4644
▁jog	-10.4645
dimen	-10.4646
▁previs	-10.4652
Para	-10.4658
Com	-10.4663
▁ord	-10.4673
▁funcion	-10.4677
met	-10.468
▁investig	-10.4685
aval	-10.4707
mir	-10.4715
tre	-10.4724
▁rei	-10.4737
cidente	-10.4739
idência	-10.4742
ntas	-10.4744
cando	-10.4747
trá	-10.4747
astro	-10.4749
urso	-10.4751
▁pac	-10.4755
ísticas	-10.4761
ículo	-10.4766
▁reconheci	-10.4768
ceb	-10.4768
▁Intern	-10.4788
miti	-10.4792
érie	-10.4793
nunci	-10.4804
alidades	-10.4805
▁fot	-10.481
operação	-10.4833
envolvidos	-10.4836
olo	-10.4841
ime	-10.4842
▁caus	-10.4849
▁partid	-10.4857
rag	-10.4858
▁melhora	-10.4861
enci	-10.487
uar	-10.4876
entado	-10.4879
lados	-10.4884
▁livr	-10.4888
ole	-10.4892
▁eleitor	-10.4902
erto	-10.4911
uno	-10.493
xer	-10.4934
ecu	-10.4934
▁part	-10.4937
▁adi	-10.494
▁metr	-10.494
clusão	-10.4953
líci	-10.4954
▁manu	-10.4962
volução	-10.4964
hos	-10.4968
ster	-10.4969
equência	-10.4969
inc	-10.4985
dicado	-10.4985
▁arm	-10.4997
aus	-10.5002
mostra	-10.5003
tuto	-10.5005
rto	-10.5044
dente	-10.5057
▁insta	-10.5064
çado	-10.5064
ív	-10.5065
arqui	-10.5065
rdi	-10.5078
▁exclu	-10.5081
▁fort	-10.5091
ric	-10.5098
▁classific	-10.5098
iá	-10.5108
▁jo	-10.5111
ntemente	-10.5114
▁event	-10.5127
▁escr	-10.5127
agr	-10.5127
▁obrig	-10.5129
▁consci	-10.5134
gestão	-10.5146
cus	-10.5159
ade	-10.5162
mino	-10.5162
▁exi	-10.5175
cedor	-10.5178
ref	-10.5181
▁estadua	-10.519
inado	-10.5191
▁fisca	-10.5193
..	-10.5194
sof	-10.5197
ridade	-10.5204
▁tradi	-10.5242
omunicação	-10.5243
atamente	-10.5245
▁tel	-10.5245
reno	-10.5253
▁priv	-10.5254
pula	-10.5254
sível	-10.5273
mu	-10.5274
efe	-10.5276
geral	-10.528
enos	-10.5285
umanos	-10.529
iário	-10.5292
timos	-10.5296
entou	-10.5301
ali	-10.5304
tórias	-10.5311
unda	-10.5322
esso	-10.5325
▁coordena	-10.5325
lva	-10.5327
dições	-10.5356
úni	-10.5359
▁pas	-10.5359
▁reto	-10.5363
enho	-10.5367
tér	-10.5368
▁ev	-10.5372
ev	-10.5383
tração	-10.5409
▁Quan	-10.5412
vela	-10.5412
iedade	-10.5418
gam	-10.5422
ncer	-10.5426
lógico	-10.5426
argo	-10.5427
▁mens	-10.5433
oli	-10.5434
dig	-10.5435
vento	-10.5435
plementa	-10.5436
nfer	-10.5438
colhe	-10.544
miss	-10.5447
onal	-10.5452
tinha	-10.5452
vul	-10.5454
den	-10.5462
▁anu	-10.5463
▁levant	-10.5465
special	-10.5474
▁projet	-10.5475
▁resid	-10.548
▁rev	-10.5483
olítica	-10.5487
▁Comi	-10.5497
icidade	-10.55
perfei	-10.5504
lidades	-10.5508
mpresa	-10.5522
ndia	-10.5526
▁respectiva	-10.553
rtigo	-10.5531
trato	-10.5531
▁divers	-10.5533
staria	-10.5544
mbra	-10.5548
▁atu	-10.5552
▁conver	-10.5555
▁simp	-10.5556
▁Mund	-10.5562
pela	-10.5566
cí	-10.5567
nov	-10.5568
ede	-10.5569
alizado	-10.5569
▁defin	-10.5587
rtes	-10.559
▁mínim	-10.5595
▁ani	-10.5606
duzido	-10.5611
porta	-10.5611
mag	-10.562
lid	-10.5624
orar	-10.5639
tente	-10.5642
nova	-10.5645
cident	-10.5648
cedo	-10.5655
aba	-10.566
fund	-10.5668
licos	-10.567
nj	-10.5672
dre	-10.5683
guar	-10.5685
rm	-10.5686
abri	-10.5692
▁localiza	-10.5701
din	-10.5708
uiz	-10.5716
rid	-10.5718
▁visit	-10.5726
xima	-10.5729
▁crim	-10.5739
scrito	-10.5741
rela	-10.5743
▁proced	-10.5747
ompanhia	-10.5748
▁distribui	-10.5757
segui	-10.5776
▁recupera	-10.5779
▁apresent	-10.5786
▁determinad	-10.5792
ató	-10.5799
ilhos	-10.5804
▁ident	-10.5807
stes	-10.581
ili	-10.5824
roc	-10.5835
dado	-10.5836
ír	-10.5838
fet	-10.584
nar	-10.5845
ceita	-10.5846
lib	-10.5846
deiro	-10.5848
for	-10.5864
▁anim	-10.5865
▁obs	-10.5868
gan	-10.5871
▁necess	-10.5872
cip	-10.5882
▁aç	-10.5889
vés	-10.5891
▁Inte	-10.5896
rot	-10.5903
fal	-10.5903
▁instal	-10.5905
inheiro	-10.5919
▁destina	-10.5945
urais	-10.5947
guard	-10.5949
▁Esc	-10.5953
ônic	-10.5953
▁transp	-10.5954
rama	-10.596
▁demonstr	-10.5965
atividade	-10.5974
ave	-10.5976
orre	-10.598
▁parti	-10.5982
▁passag	-10.6001
▁pró	-10.6013
rário	-10.6033
gura	-10.6034
rinho	-10.6036
alm	-10.6037
gados	-10.604
sion	-10.6042
▁venc	-10.6067
long	-10.6069
▁assin	-10.6076
amília	-10.6076
ãos	-10.6079
nente	-10.6089
lência	-10.6093
iso	-10.6093
itores	-10.6099
dades	-10.6102
cur	-10.6103
lav	-10.6104
upa	-10.6118
▁sucess	-10.6137
ecem	-10.6137
união	-10.6139
▁comple	-10.6146
omo	-10.6174
ossa	-10.6179
▁conte	-10.6184
pre	-10.619
elha	-10.6196
rgo	-10.62
▁ini	-10.6204
sar	-10.6206
ncio	-10.6207
rador	-10.6211
▁futur	-10.6216
▁profe	-10.6217
vidades	-10.6221
hu	-10.6228
▁cheg	-10.6231
enhor	-10.6235
▁treina	-10.6248
terr	-10.6257
tante	-10.6258
eputado	-10.6263
alizar	-10.6271
força	-10.6279
cre	-10.6279
volta	-10.6283
ped	-10.63
▁opini	-10.6307
▁var	-10.6311
lian	-10.6313
pert	-10.6327
▁equipamento	-10.6333
anh	-10.6334
▁port	-10.6341
essoa	-10.6341
▁estu	-10.6343
sando	-10.6346
utebol	-10.6347
▁aqu	-10.6348
tência	-10.6348
▁Sant	-10.6355
enças	-10.6359
sex	-10.6361
bora	-10.6365
cidade	-10.6369
eri	-10.6369
▁apo	-10.6374
▁au	-10.6377
arte	-10.6377
cordo	-10.6379
▁ate	-10.6382
anhã	-10.6385
▁músic	-10.6388
pira	-10.6406
cret	-10.641
▁ministr	-10.6414
ori	-10.6421
▁Ou	-10.6434
ndamento	-10.644
▁diret	-10.644
▁colabor	-10.6441
oma	-10.6457
erviços	-10.6462
libera	-10.6466
ági	-10.647
sentado	-10.6472
▁jan	-10.6474
fu	-10.6474
▁nov	-10.6484
dific	-10.6488
▁coment	-10.6496
▁negoci	-10.6511
damente	-10.6518
ncontro	-10.6534
out	-10.6537
igos	-10.6538
magem	-10.6543
oriz	-10.6552
col	-10.6553
heiro	-10.6572
aco	-10.6574
edes	-10.6574
org	-10.6578
rocurado	-10.6581
▁elemento	-10.6584
dita	-10.6586
▁interessa	-10.6586
rativa	-10.6586
tindo	-10.6589
ornal	-10.6617
estes	-10.6621
▁conjunt	-10.6621
sio	-10.663
▁pesquisador	-10.664
ransporte	-10.6649
lanç	-10.6652
Por	-10.6657
lanejamento	-10.6659
▁Prefeit	-10.6667
nso	-10.6674
▁Pl	-10.6682
▁inscriç	-10.6705
lum	-10.6709
eses	-10.671
rta	-10.672
rantes	-10.6724
▁consi	-10.6739
utos	-10.6739
íp	-10.6756
▁serv	-10.6759
anca	-10.6767
rista	-10.6771
erente	-10.6785
uso	-10.6793
▁estudante	-10.6794
form	-10.6815
▁supo	-10.6824
umo	-10.6824
ben	-10.6827
studos	-10.6831
▁envolvid	-10.6832
migos	-10.6835
já	-10.684
até	-10.685
gni	-10.6854
pera	-10.6855
conceito	-10.6862
▁adequa	-10.6863
mit	-10.6864
audi	-10.6871
rqui	-10.6874
rgu	-10.688
firma	-10.6899
▁fei	-10.6905
riva	-10.691
▁lid	-10.6911
▁lega	-10.6919
legal	-10.6923
abo	-10.6924
▁Trabalh	-10.6926
mante	-10.693
oga	-10.6932
stru	-10.6935
nse	-10.6944
▁or	-10.6954
▁ment	-10.6958
proxim	-10.6961
▁fazend	-10.6978
▁decor	-10.6992
▁avali	-10.6994
▁escrev	-10.7007
▁fest	-10.7007
mposto	-10.7015
▁result	-10.7024
▁correspond	-10.7028
tipo	-10.7028
etr	-10.703
onta	-10.7041
preen	-10.7042
parar	-10.7042
terno	-10.7045
▁permane	-10.7058
rata	-10.7061
erme	-10.7065
mil	-10.7068
Na	-10.7078
fici	-10.7079
obra	-10.7086
íc	-10.7099
mora	-10.7104
forme	-10.711
izadas	-10.7112
caso	-10.7122
apital	-10.7126
▁bas	-10.713
enção	-10.7133
rato	-10.7141
tia	-10.7142
opera	-10.7144
▁sobr	-10.715
oridade	-10.7151
atória	-10.7153
passe	-10.7155
▁Minist	-10.7158
cen	-10.7159
▁viage	-10.716
evolu	-10.7164
úl	-10.7174
uda	-10.7174
pet	-10.7178
▁defend	-10.7179
▁registr	-10.7184
▁característica	-10.7185
át	-10.7186
niz	-10.7188
aticamente	-10.719
teve	-10.7196
–	-10.7207
ecidos	-10.7211
doria	-10.7214
▁Fun	-10.7228
▁permit	-10.7228
screve	-10.7233
▁dif	-10.7245
áti	-10.7246
ntegra	-10.7248
▁legi	-10.7255
rais	-10.7258
cadas	-10.7262
▁comemor	-10.7262
istério	-10.7273
ulta	-10.7274
ndústria	-10.7275
Con	-10.7276
xistem	-10.7277
eça	-10.7283
difíci	-10.7289
isco	-10.7296
lev	-10.7301
dici	-10.731
voc	-10.7314
▁comuni	-10.733
ale	-10.7331
riais	-10.7331
erança	-10.7336
ome	-10.7336
visa	-10.7337
cidos	-10.734
ssion	-10.7346
ovimento	-10.7348
verno	-10.7349
nor	-10.7351
lon	-10.7354
▁adv	-10.7365
úm	-10.7366
desse	-10.7369
▁soli	-10.7373
▁julg	-10.7377
esper	-10.7387
spens	-10.7409
rez	-10.7409
esp	-10.7417
ecendo	-10.7417
▁trat	-10.7433
articula	-10.7439
▁cat	-10.7456
grante	-10.7456
▁natura	-10.746
▁Universi	-10.746
▁autoriz	-10.7462
sem	-10.7478
legi	-10.7478
▁abor	-10.7494
uído	-10.7494
gricult	-10.75
▁funcionário	-10.75
▁ace	-10.7508
marca	-10.7509
ndi	-10.7514
lém	-10.7521
age	-10.7525
▁responsabilidad	-10.7532
▁origin	-10.7535
bele	-10.7537
ác	-10.7538
erido	-10.7542
rel	-10.7549
iões	-10.7552
urar	-10.7552
quadr	-10.756
▁atend	-10.7572
▁come	-10.7573
▁atrav	-10.7574
ape	-10.7583
anc	-10.7583
ustiça	-10.7586
onselh	-10.7589
▁mel	-10.7592
tag	-10.7596
▁interpret	-10.7596
tiza	-10.7604
▁Univers	-10.7614
empre	-10.7625
▁comer	-10.7628
▁expo	-10.7632
neiro	-10.7635
alista	-10.7639
▁civi	-10.7662
ive	-10.7663
imi	-10.7666
▁justi	-10.7669
endimento	-10.7674
postas	-10.7676
prefeito	-10.768
uela	-10.769
▁vers	-10.7691
▁exempl	-10.7693
▁vid	-10.7697
cados	-10.7709
cultura	-10.7723
nome	-10.7724
dicional	-10.7725
teriormente	-10.7731
rna	-10.7732
ecei	-10.7734
reço	-10.7747
endido	-10.7749
▁conhe	-10.7753
▁alcan	-10.776
arra	-10.7774
dê	-10.7775
quente	-10.778
▁espor	-10.7791
▁tempor	-10.7793
ípi	-10.7793
sado	-10.7795
asta	-10.7806
riga	-10.7808
panha	-10.7811
nação	-10.7812
domin	-10.7827
nstitucional	-10.7829
rimeiro	-10.7846
ern	-10.7849
tis	-10.7853
As	-10.7867
onforme	-10.788
mig	-10.7886
sibilidade	-10.7887
▁impo	-10.7895
spírit	-10.7896
emocr	-10.79
mando	-10.79
▁educ	-10.79
oque	-10.7903
nergia	-10.7904
teria	-10.7907
pelo	-10.7919
stá	-10.7932
▁evita	-10.7937
▁ating	-10.7947
odo	-10.7952
ssociação	-10.7959
ministro	-10.7963
lgumas	-10.7972
órias	-10.7977
rist	-10.7978
conomia	-10.7979
cant	-10.798
▁Pres	-10.7981
caba	-10.7981
▁tend	-10.7982
▁fat	-10.7985
grav	-10.7986
ssos	-10.7992
▁ambienta	-10.7992
áli	-10.8006
turais	-10.8015
▁infe	-10.8016
▁economi	-10.8017
Mas	-10.8024
clara	-10.8031
ormalmente	-10.8037
▁ati	-10.8039
▁financia	-10.804
reta	-10.8053
mericana	-10.8064
certo	-10.8072
profund	-10.8079
órico	-10.8083
alv	-10.8097
tric	-10.8102
scri	-10.811
▁compos	-10.8112
sor	-10.8116
▁presid	-10.8116
Um	-10.8131
ísica	-10.8134
nhor	-10.8135
ntá	-10.8149
ao	-10.8153
pio	-10.8153
ace	-10.8163
▁empr	-10.8169
▁alcanç	-10.818
▁compreend	-10.8183
fri	-10.8194
▁cidad	-10.82
emprego	-10.8201
últi	-10.8203
pan	-10.8208
itu	-10.8215
lamen	-10.8219
ventos	-10.8224
mpa	-10.8227
mper	-10.8229
uitas	-10.8235
toma	-10.8238
atu	-10.8244
udici	-10.8245
gico	-10.8256
ivi	-10.827
sper	-10.8274
▁nú	-10.8276
iária	-10.8293
ocupação	-10.8305
eli	-10.8313
▁equ	-10.8316
▁camp	-10.8317
migo	-10.8319
▁individua	-10.8324
eceita	-10.8331
▁aliment	-10.8332
anta	-10.8333
alho	-10.8339
▁apont	-10.8343
Fo	-10.835
ater	-10.8354
▁discuss	-10.8357
▁pretend	-10.8365
écnico	-10.8365
▁Nes	-10.8369
vir	-10.838
▁escri	-10.8386
preci	-10.8388
versa	-10.8389
sados	-10.839
ecta	-10.8392
▁enfrent	-10.8393
▁refe	-10.8402
▁passad	-10.8405
izo	-10.8408
aquele	-10.8411
tistas	-10.8413
mundo	-10.8416
ire	-10.8418
iras	-10.8419
erência	-10.844
fin	-10.8446
oce	-10.8448
ntem	-10.8465
logi	-10.8468
enc	-10.8473
pic	-10.8477
ari	-10.8491
▁mate	-10.8501
dada	-10.8503
ort	-10.8511
rme	-10.8512
emin	-10.852
orri	-10.8521
▁tamb	-10.8528
duzi	-10.8532
▁assum	-10.8541
▁convid	-10.8542
▁emb	-10.855
▁subst	-10.8551
produção	-10.8577
▁esti	-10.8586
eriores	-10.8589
▁vel	-10.8592
duz	-10.8593
lista	-10.8596
cla	-10.8599
mado	-10.8602
▁energ	-10.8603
▁organiz	-10.8605
arão	-10.8605
mentação	-10.8618
oxi	-10.8625
▁provoc	-10.8631
▁criad	-10.8645
tificado	-10.8645
▁prátic	-10.8662
▁capit	-10.8665
▁ach	-10.8665
ala	-10.8666
▁pap	-10.8668
ustent	-10.8683
redi	-10.8687
imos	-10.8687
óxi	-10.8687
ciso	-10.8689
Co	-10.8692
ndustrial	-10.8692
lher	-10.8692
gou	-10.8692
201	-10.8694
conhecido	-10.8706
▁quanti	-10.8719
onar	-10.8723
lus	-10.8725
dencia	-10.8727
firm	-10.8744
assa	-10.8759
morado	-10.8761
▁pratic	-10.878
▁encaminh	-10.8784
▁aca	-10.8802
tici	-10.8807
aixo	-10.8809
cara	-10.8817
▁secretári	-10.8817
▁obje	-10.8822
conômica	-10.884
tern	-10.8841
arca	-10.8843
stituição	-10.8844
rut	-10.8855
▁Feder	-10.8859
▁usu	-10.8868
ble	-10.887
positivo	-10.8875
▁ativ	-10.8877
ental	-10.8879
rimeira	-10.8889
have	-10.8891
nista	-10.8896
▁quin	-10.8914
▁estran	-10.8914
vanta	-10.8915
dias	-10.892
cura	-10.8942
iada	-10.8953
red	-10.896
figur	-10.8961
▁praz	-10.8963
▁tec	-10.8964
inistério	-10.8967
sada	-10.8968
▁igua	-10.8978
riado	-10.8981
ntece	-10.8986
▁expos	-10.8993
cialmente	-10.8994
▁rel	-10.8999
far	-10.9001
nci	-10.9005
stor	-10.9006
▁desempenh	-10.9006
neg	-10.9011
nados	-10.9014
▁Jan	-10.9023
edida	-10.9025
pr	-10.9028
dutor	-10.9032
oi	-10.9048
eda	-10.9054
Quando	-10.9058
▁ocup	-10.9058
rava	-10.9062
grafia	-10.9076
acha	-10.9081
cam	-10.9082
cisão	-10.9083
ezembro	-10.9083
talh	-10.9083
▁alimento	-10.9086
nhar	-10.9091
loca	-10.9093
lag	-10.9101
▁cult	-10.9103
▁origina	-10.9107
essas	-10.9116
liga	-10.9125
rob	-10.9131
izações	-10.9137
édi	-10.9144
▁arti	-10.9145
lênci	-10.9146
itiva	-10.9156
uição	-10.9158
rnal	-10.9161
tendo	-10.9169
▁distri	-10.9181
só	-10.9189
cor	-10.9195
▁pot	-10.9199
biliz	-10.9204
cess	-10.9208
lici	-10.921
itando	-10.9235
▁respond	-10.9238
vista	-10.925
artido	-10.9263
ear	-10.928
esc	-10.9283
rgi	-10.9286
eca	-10.9294
erno	-10.9298
ampa	-10.9298
cação	-10.9299
▁implement	-10.9303
dvogado	-10.9305
▁desem	-10.9312
ecretário	-10.9313
nomia	-10.9316
nit	-10.9321
posit	-10.9322
▁conceit	-10.9325
erida	-10.933
iar	-10.9332
▁Reg	-10.9333
ógica	-10.9333
▁Segund	-10.9343
jam	-10.9344
▁impl	-10.9377
oper	-10.9378
acionais	-10.938
fazer	-10.9383
ortugues	-10.9386
▁pequen	-10.9387
mercado	-10.939
cili	-10.9391
▁env	-10.9391
édico	-10.9404
▁revis	-10.9405
use	-10.941
.....	-10.9423
▁concentr	-10.9435
over	-10.9441
eber	-10.9449
inada	-10.9449
ontrole	-10.9452
▁preci	-10.9453
▁jane	-10.9455
ercado	-10.946
igação	-10.9463
arg	-10.9464
ógico	-10.9464
uv	-10.9464
mal	-10.9473
▁tan	-10.9474
▁evi	-10.9478
bat	-10.948
isti	-10.9483
▁cumpr	-10.9485
itoral	-10.9487
arre	-10.9487
tari	-10.9488
▁alt	-10.9494
tenta	-10.9503
iscal	-10.9507
▁cris	-10.9514
hora	-10.9533
ute	-10.9534
âmara	-10.9538
iver	-10.9541
vação	-10.9544
stado	-10.9556
▁simpl	-10.9561
pec	-10.9565
gistrad	-10.9577
Como	-10.9592
médi	-10.9596
lhado	-10.9597
avelmente	-10.9605
pl	-10.9608
troc	-10.9619
ici	-10.9619
parado	-10.9633
▁interv	-10.9635
▁carr	-10.9636
ionar	-10.9641
lec	-10.9647
ngo	-10.9658
▁atendi	-10.9661
alh	-10.9666
▁Assembl	-10.9674
alizada	-10.9677
ndido	-10.9683
mpresas	-10.9684
entados	-10.9698
liber	-10.9717
▁resta	-10.9717
▁compa	-10.9728
rmas	-10.9732
▁oficia	-10.9735
fen	-10.9735
pen	-10.9739
água	-10.9754
tare	-10.9758
Est	-10.9773
▁conform	-10.9778
lizar	-10.978
▁compo	-10.9783
orrer	-10.9785
vive	-10.9785
má	-10.9792
ivro	-10.9802
del	-10.9804
rib	-10.9809
airro	-10.9815
leiro	-10.9818
éc	-10.9824
inalmente	-10.9828
ntou	-10.9832
▁experi	-10.9853
mátic	-10.9853
▁resu	-10.9853
amp	-10.9858
err	-10.9859
cursos	-10.9859
▁conheci	-10.986
stri	-10.9861
gular	-10.9862
prende	-10.9863
baixa	-10.9865
colas	-10.9867
gent	-10.9868
▁econom	-10.9871
atri	-10.9892
versão	-10.9894
tod	-10.991
▁lan	-10.9912
preende	-10.992
abili	-10.9921
aju	-10.9925
liza	-10.9934
▁cau	-10.9941
arque	-10.9945
uco	-10.9947
▁comprov	-10.9948
▁capita	-10.9959
press	-10.9966
segur	-10.9979
eles	-10.9979
▁fico	-10.9979
rade	-10.9981
▁proporcion	-10.9989
▁popula	-10.9998
osta	-11.0008
▁desafi	-11.0013
oport	-11.0014
abi	-11.0016
endendo	-11.002
omingo	-11.0022
vado	-11.0025
▁ai	-11.0032
▁fis	-11.004
ví	-11.0048
ct	-11.0054
▁jun	-11.0059
elhor	-11.0069
tera	-11.0073
gri	-11.0073
raci	-11.0077
reiro	-11.0078
mpe	-11.0079
alt	-11.0082
vor	-11.0082
gest	-11.0085
▁film	-11.0086
stat	-11.0087
rimento	-11.0095
envolvimento	-11.0106
opa	-11.011
▁reduz	-11.0115
isc	-11.0116
uitos	-11.0125
inci	-11.0126
écnica	-11.0132
ndr	-11.0132
stã	-11.0133
itári	-11.014
lita	-11.0151
act	-11.0153
opular	-11.0165
▁organi	-11.017
mei	-11.0181
fac	-11.0182
ox	-11.0188
gin	-11.0188
rat	-11.0197
diant	-11.0198
▁bl	-11.0209
game	-11.0213
rever	-11.0223
▁ant	-11.0227
uário	-11.0227
usto	-11.0229
érica	-11.0241
ional	-11.0243
▁espo	-11.0245
liz	-11.0254
In	-11.0258
jor	-11.0259
íde	-11.0275
idi	-11.0276
tribuição	-11.0286
iná	-11.0293
disciplina	-11.0293
▁quant	-11.0302
emas	-11.0313
pra	-11.0313
gão	-11.0315
servação	-11.0323
▁verific	-11.0323
onais	-11.0324
▁elabor	-11.0325
lações	-11.033
▁tar	-11.0331
sen	-11.0335
▁Govern	-11.0337
usi	-11.0338
▁universi	-11.0347
indic	-11.0354
estação	-11.0361
sticas	-11.0369
▁autori	-11.0372
mbro	-11.0373
nic	-11.0373
omem	-11.0385
rof	-11.0397
bem	-11.0415
▁Soci	-11.0417
▁mús	-11.0418
▁prob	-11.0425
▁soluç	-11.0427
rdo	-11.045
egou	-11.0458
unca	-11.0458
▁depoi	-11.0472
nis	-11.0478
▁preten	-11.0479
▁restaur	-11.048
tui	-11.0489
mai	-11.049
passa	-11.0511
tab	-11.0515
azo	-11.0517
▁consumi	-11.0518
trata	-11.0518
hor	-11.0519
undo	-11.052
didas	-11.052
licado	-11.0524
eti	-11.0531
reg	-11.0554
elos	-11.0557
▁progr	-11.0562
gional	-11.0566
tria	-11.0567
edido	-11.0569
▁comprom	-11.057
Lei	-11.0572
hin	-11.0574
nalista	-11.0578
creta	-11.0579
▁compre	-11.0585
ova	-11.0595
▁asse	-11.0603
ispo	-11.0615
credit	-11.0623
▁ape	-11.0629
iais	-11.0641
▁assu	-11.0645
conômico	-11.0645
▁suc	-11.0651
nicas	-11.0669
rmi	-11.0679
rque	-11.0691
nem	-11.0703
tral	-11.0711
▁revi	-11.0714
nálise	-11.0715
▁propost	-11.0739
etos	-11.0744
dur	-11.075
oordenador	-11.0751
vide	-11.0751
fundo	-11.0754
rização	-11.0767
oco	-11.0768
▁expe	-11.0776
▁quere	-11.078
▁presiden	-11.0781
tifica	-11.0788
icações	-11.0791
úb	-11.0799
▁cresc	-11.08
ges	-11.0801
listas	-11.0804
▁constr	-11.0806
sf	-11.0811
▁centr	-11.0813
reas	-11.0817
Ele	-11.0839
aci	-11.0846
publica	-11.0854
▁produ	-11.0855
▁Educa	-11.0867
▁Jos	-11.0868
oral	-11.0871
▁fabric	-11.0881
mero	-11.0886
▁apa	-11.0888
ivamente	-11.091
ulher	-11.0913
poio	-11.0918
licita	-11.0919
ocar	-11.092
▁propri	-11.0922
enado	-11.0939
▁anal	-11.094
inar	-11.0942
ien	-11.0947
igual	-11.0961
▁busc	-11.0967
erce	-11.097
rec	-11.0978
ntão	-11.0984
▁aument	-11.0992
iss	-11.0997
▁envolv	-11.0998
band	-11.1014
▁entreg	-11.1024
▁american	-11.1026
carre	-11.1032
▁possi	-11.1039
irm	-11.1042
ech	-11.1043
▁import	-11.1044
ficiente	-11.1045
mano	-11.1046
cobert	-11.1053
rola	-11.1071
nan	-11.1086
obr	-11.1091
ília	-11.1093
rum	-11.1109
▁ambient	-11.1118
avo	-11.1121
governador	-11.1128
alc	-11.113
▁afi	-11.1132
baix	-11.1141
tori	-11.1146
ntal	-11.1147
▁empre	-11.1159
pag	-11.1161
pit	-11.1165
raf	-11.117
niza	-11.1178
ceira	-11.1178
rovi	-11.1194
graç	-11.1202
rega	-11.1223
junto	-11.1224
▁verd	-11.1227
à	-11.1227
lógi	-11.123
emana	-11.123
plic	-11.1234
▁model	-11.1237
lga	-11.1239
ltima	-11.1244
▁ori	-11.1249
sidade	-11.1252
▁suce	-11.126
mana	-11.128
oj	-11.1281
▁devid	-11.1299
Ch	-11.131
tenc	-11.131
rativo	-11.1319
bor	-11.1319
entral	-11.132
ast	-11.1322
ranc	-11.1328
ortanto	-11.1353
anim	-11.1354
alter	-11.1361
formação	-11.1366
ecida	-11.1368
▁relacionado	-11.1371
tru	-11.1379
rian	-11.138
atur	-11.1381
emente	-11.1383
▁prat	-11.1386
menda	-11.1387
ócio	-11.139
▁cond	-11.1408
bado	-11.1425
vera	-11.1426
inte	-11.1439
uga	-11.1447
igu	-11.1449
▁enco	-11.1458
gat	-11.1468
▁organ	-11.1475
blo	-11.1481
▁esto	-11.1502
anal	-11.1504
tamos	-11.1512
▁moder	-11.1514
▁dificul	-11.1525
tância	-11.1525
sca	-11.1526
icia	-11.1527
▁Unido	-11.1528
tran	-11.1529
úsica	-11.155
ej	-11.1552
ret	-11.1554
rivad	-11.1563
▁organizad	-11.1573
hei	-11.1576
rabalhadores	-11.1579
Ca	-11.1585
tenci	-11.1585
▁circ	-11.1592
▁bai	-11.1599
▁pref	-11.1599
▁Cent	-11.1613
tempor	-11.1627
omba	-11.1629
▁arqu	-11.1629
fase	-11.163
▁aproxim	-11.1635
▁dific	-11.1641
taca	-11.1661
nternet	-11.1664
▁difíc	-11.1676
essoas	-11.1685
olu	-11.1686
motor	-11.169
▁eleitora	-11.1693
rc	-11.1699
▁compartilh	-11.1699
plicação	-11.1709
cli	-11.1714
ngresso	-11.1714
aquela	-11.1717
penas	-11.172
▁relaciona	-11.1722
úmer	-11.1724
esti	-11.1742
xecutiv	-11.1743
icialmente	-11.1743
pulação	-11.1744
▁bast	-11.1746
▁comerci	-11.1748
▁secret	-11.1764
▁referen	-11.1768
stados	-11.177
▁discut	-11.1784
quando	-11.1787
▁Associa	-11.1797
pois	-11.1798
constitucional	-11.1805
olar	-11.1812
ocorr	-11.1827
▁instrument	-11.1834
passar	-11.1844
▁impres	-11.1849
lema	-11.1851
gosto	-11.1855
rita	-11.1874
entando	-11.1884
úmero	-11.1889
vidos	-11.1895
▁inco	-11.1897
arcel	-11.1907
▁inclus	-11.1918
hada	-11.1926
▁prof	-11.1927
cipa	-11.1929
nti	-11.1929
nh	-11.1933
ls	-11.1939
inári	-11.1954
▁pensam	-11.1956
laro	-11.1965
▁reve	-11.197
Uma	-11.1971
▁amo	-11.1986
veis	-11.1991
sim	-11.1997
▁afirm	-11.2004
ilia	-11.2008
teri	-11.2017
sur	-11.2023
ortes	-11.2026
▁associ	-11.2035
gina	-11.2037
ograma	-11.2045
ntários	-11.2052
ore	-11.2053
ific	-11.2061
nsa	-11.2065
▁sé	-11.2073
idores	-11.2073
▁Sec	-11.2075
▁perc	-11.2078
bs	-11.2082
etembro	-11.2097
lusão	-11.2104
▁div	-11.2106
otos	-11.211
licada	-11.2114
segue	-11.2115
Vi	-11.2116
grama	-11.2116
ergu	-11.2131
tive	-11.2137
metr	-11.2156
ulheres	-11.216
lme	-11.2166
equi	-11.2176
utra	-11.2189
esco	-11.219
ulti	-11.2191
namento	-11.2194
ionado	-11.2202
fora	-11.2204
rad	-11.2205
obras	-11.2211
tabilidade	-11.2213
▁resp	-11.2226
our	-11.2241
▁Secret	-11.2251
nam	-11.2253
▁oportun	-11.227
▁centra	-11.2271
orque	-11.2278
▁gran	-11.2291
vent	-11.2291
stou	-11.2305
agra	-11.2314
essar	-11.2318
▁administr	-11.2319
leito	-11.2319
enador	-11.2323
reza	-11.2326
sores	-11.2342
▁Carl	-11.2343
▁competiç	-11.235
ono	-11.2355
lem	-11.2362
adr	-11.237
iça	-11.2378
▁evit	-11.2382
soli	-11.2387
apon	-11.2392
rtado	-11.2392
▁mei	-11.24
primento	-11.2402
lac	-11.242
tende	-11.2429
▁cola	-11.2456
▁Int	-11.2466
rofissional	-11.2472
articul	-11.2475
olí	-11.2476
amada	-11.2476
agu	-11.248
abor	-11.2484
rcu	-11.2506
lta	-11.2507
conce	-11.2511
▁condiç	-11.2519
Al	-11.2532
gul	-11.2533
Rio	-11.2539
ert	-11.254
eito	-11.2541
rcia	-11.2555
▁tip	-11.2584
númer	-11.2585
ít	-11.2586
aná	-11.2588
▁vit	-11.2593
ssembleia	-11.2603
verá	-11.2606
rif	-11.2611
semb	-11.2617
rê	-11.2621
verso	-11.2623
▁execu	-11.2623
▁comunic	-11.2624
ami	-11.2631
siona	-11.2638
uti	-11.2649
fico	-11.2673
cei	-11.2676
rnar	-11.2683
roteção	-11.2686
comenda	-11.2693
diciona	-11.2701
inter	-11.2704
ramente	-11.2711
dependente	-11.2727
ois	-11.2728
ixar	-11.2741
erca	-11.2751
itam	-11.2754
▁Unid	-11.2762
isa	-11.2762
▁incl	-11.2776
ere	-11.2806
▁demo	-11.2822
idente	-11.2824
pedi	-11.2828
alistas	-11.2831
ejam	-11.2831
▁ess	-11.2839
▁deputad	-11.2841
sional	-11.2848
jet	-11.2851
▁descr	-11.2868
cretaria	-11.2871
ntamento	-11.288
▁tê	-11.2889
uarda	-11.2901
íl	-11.2901
vé	-11.2908
enti	-11.2922
iretor	-11.2925
tões	-11.2929
onto	-11.2936
assin	-11.2938
ncial	-11.2944
lente	-11.2946
través	-11.295
nções	-11.2954
zem	-11.2961
imen	-11.2967
corrid	-11.2969
unidade	-11.2979
▁coorden	-11.2982
negócio	-11.3005
odos	-11.3006
▁diminu	-11.301
▁compl	-11.3011
▁reconhec	-11.3019
icular	-11.302
bord	-11.3024
ong	-11.3029
rentes	-11.303
vimento	-11.3031
trou	-11.3031
bjetivo	-11.3034
tividades	-11.3041
vers	-11.3049
▁alternativ	-11.3056
confi	-11.3065
nformação	-11.3066
manda	-11.3075
rgia	-11.3077
▁not	-11.3077
racio	-11.3079
vest	-11.3079
▁encontrad	-11.308
bjetiv	-11.3081
pareci	-11.31
inistro	-11.3102
ness	-11.3108
▁recom	-11.311
atar	-11.3113
téria	-11.312
valiação	-11.3123
▁pop	-11.3126
▁fas	-11.3134
isp	-11.3134
ndida	-11.3143
Fi	-11.315
ormação	-11.3152
ntor	-11.316
nomi	-11.316
elega	-11.3169
▁text	-11.3171
udos	-11.3183
urídic	-11.3196
regado	-11.3197
orça	-11.3198
▁Tribu	-11.3201
çou	-11.3202
rmo	-11.3208
aque	-11.321
ritório	-11.3225
▁loc	-11.3229
anas	-11.3233
ló	-11.3239
erim	-11.3242
senta	-11.3247
lori	-11.3248
▁exte	-11.325
toral	-11.326
ircu	-11.3261
rreg	-11.3264
iores	-11.3267
possível	-11.327
rn	-11.327
▁justific	-11.3273
orto	-11.3277
ntando	-11.3278
Ex	-11.3282
oliciais	-11.3285
feita	-11.3286
cau	-11.3289
▁mater	-11.3299
ope	-11.3301
essoal	-11.3302
ág	-11.3303
rição	-11.3303
rga	-11.3315
xar	-11.3317
ntabilidade	-11.3324
gamento	-11.3342
samente	-11.3346
ofi	-11.3354
camente	-11.3361
▁interessad	-11.3371
nagem	-11.3377
raz	-11.3384
edic	-11.3392
cum	-11.3398
hou	-11.3401
rige	-11.3404
pri	-11.3412
seus	-11.3415
ividade	-11.3422
esquisas	-11.3424
rej	-11.3424
▁empregad	-11.3426
erencia	-11.343
▁Interna	-11.3431
agi	-11.3433
denci	-11.3448
sma	-11.3454
ministra	-11.3462
▁reform	-11.3471
oras	-11.3472
dam	-11.3475
imenta	-11.348
▁Dir	-11.348
preendi	-11.3481
mpar	-11.3486
cendo	-11.3487
med	-11.3487
iação	-11.3492
foto	-11.3502
put	-11.3503
ipo	-11.3504
há	-11.3511
recer	-11.3514
▁econ	-11.3519
onsumidor	-11.3532
▁del	-11.3547
erman	-11.3547
rome	-11.3551
▁tes	-11.3564
corpor	-11.3567
2015	-11.3578
omercial	-11.3583
judic	-11.3584
lien	-11.3595
▁descob	-11.3596
eder	-11.3602
bserv	-11.3603
utubro	-11.3609
residente	-11.3613
Car	-11.3616
limit	-11.3616
além	-11.3617
Di	-11.3623
tiz	-11.3626
stin	-11.363
luta	-11.3632
tali	-11.3636
omp	-11.3638
ionais	-11.3638
certeza	-11.3647
elações	-11.3652
nã	-11.3654
contra	-11.3669
▁institui	-11.3679
tiv	-11.3681
▁compor	-11.3688
eas	-11.3703
atores	-11.3707
ngen	-11.3709
Pro	-11.3711
rri	-11.3714
manos	-11.3716
▁dese	-11.3717
igura	-11.3721
roduzi	-11.3723
egr	-11.3733
▁troc	-11.3734
▁agra	-11.3743
Esta	-11.3744
▁disponibiliz	-11.3751
nção	-11.3753
proveit	-11.3768
scu	-11.3769
nou	-11.3772
formas	-11.3777
aze	-11.3781
pac	-11.3782
vada	-11.3784
▁brasil	-11.3787
eric	-11.3795
estim	-11.3796
ativamente	-11.3798
fato	-11.3802
eleg	-11.3807
mplementa	-11.3812
cap	-11.3813
iber	-11.3819
gadores	-11.3852
vert	-11.3853
iqu	-11.3867
nec	-11.3867
uas	-11.3868
unt	-11.3872
oo	-11.3873
ologi	-11.3883
entro	-11.3883
mericano	-11.3891
air	-11.3895
▁Fra	-11.3896
stiça	-11.3901
▁impr	-11.3902
icação	-11.3906
Ma	-11.3908
jei	-11.3913
aliz	-11.3914
ciado	-11.3916
lizado	-11.3932
mpo	-11.3933
zin	-11.3933
ciar	-11.3935
ntado	-11.3941
istórico	-11.3944
inalidade	-11.3947
istri	-11.3972
▁president	-11.3984
▁emprega	-11.399
dando	-11.3993
▁lad	-11.3994
▁dim	-11.3994
onsidera	-11.3997
▁prefeit	-11.4005
stitucional	-11.4005
atra	-11.4006
cup	-11.401
ricano	-11.4016
atal	-11.4019
rente	-11.4025
nei	-11.4036
opo	-11.4043
▁dispo	-11.4044
nstru	-11.4061
utro	-11.4063
icial	-11.4065
▁exc	-11.4083
▁decorr	-11.4091
▁industri	-11.4097
icou	-11.4102
lizando	-11.4103
lm	-11.4108
ltar	-11.4112
▁feit	-11.4122
sil	-11.4124
cult	-11.4124
inf	-11.4138
cham	-11.4142
eita	-11.4143
bserva	-11.4146
cipação	-11.4148
nu	-11.4152
erve	-11.4152
▁sistem	-11.4166
eitos	-11.4169
reen	-11.417
nom	-11.4192
estr	-11.4194
passado	-11.4211
óric	-11.4214
arreira	-11.4214
lore	-11.4219
tendência	-11.4222
evereiro	-11.4227
pir	-11.4231
dendo	-11.4237
prend	-11.4249
esca	-11.4252
arc	-11.4258
Me	-11.4258
To	-11.4263
corr	-11.4265
▁recuper	-11.4272
cionalidade	-11.4274
azen	-11.4279
usc	-11.4281
ntário	-11.4282
lad	-11.43
ecto	-11.4302
ouco	-11.4305
cita	-11.4308
▁sign	-11.4311
aliza	-11.4315
▁milita	-11.4315
▁merc	-11.4317
moto	-11.4319
▁quint	-11.4327
hado	-11.4337
rand	-11.4338
▁cabel	-11.4338
▁minuto	-11.4345
idad	-11.4347
úd	-11.4348
usca	-11.4354
itivo	-11.4358
▁consul	-11.4361
ator	-11.4367
lve	-11.4368
▁disponibil	-11.4369
arro	-11.4373
▁const	-11.4373
ize	-11.4374
adi	-11.4375
ionário	-11.4378
borda	-11.4381
rv	-11.4389
Brasil	-11.439
dministrativo	-11.4393
▁individu	-11.4396
scrit	-11.4399
▁Inst	-11.44
san	-11.4411
radores	-11.4412
ponta	-11.4417
utu	-11.4419
merican	-11.4423
omplex	-11.4427
espera	-11.4427
prov	-11.4432
ífico	-11.4443
licar	-11.4445
▁impor	-11.4454
ouve	-11.4472
ressão	-11.4477
olíticas	-11.448
rmado	-11.4493
▁diferenci	-11.4494
éric	-11.4503
São	-11.4503
etário	-11.4509
dou	-11.4517
site	-11.4521
téri	-11.4525
lança	-11.4526
▁cla	-11.4529
itório	-11.4534
scal	-11.4545
▁jov	-11.4551
▁pers	-11.4552
▁contro	-11.4553
embro	-11.4557
ulh	-11.4572
ciente	-11.4574
lt	-11.4579
unção	-11.4579
nfo	-11.4582
ariam	-11.4593
strar	-11.4598
orado	-11.4604
conhecida	-11.4605
avan	-11.4605
▁comporta	-11.4615
ergi	-11.4626
evit	-11.4629
▁tecno	-11.463
ecursos	-11.4639
erentes	-11.464
uir	-11.4653
▁refl	-11.4684
nciado	-11.4686
▁person	-11.4688
qua	-11.4689
ecretaria	-11.469
putado	-11.469
tit	-11.4697
egado	-11.4725
oradores	-11.4726
ricul	-11.4726
nest	-11.4739
poca	-11.4744
aparece	-11.4754
duzid	-11.4763
icado	-11.4764
lizados	-11.4765
lie	-11.4773
entada	-11.4773
▁potencia	-11.4785
▁popul	-11.4787
mbr	-11.4789
▁aparec	-11.4792
▁desenvolv	-11.4801
undamental	-11.481
mpla	-11.4824
pal	-11.4824
tavam	-11.4826
hã	-11.483
esas	-11.4839
ebol	-11.4858
rer	-11.4865
sumi	-11.487
evista	-11.4879
ientífic	-11.4891
▁proc	-11.4892
dian	-11.49
grup	-11.4902
panh	-11.4906
meu	-11.491
▁disput	-11.4912
licas	-11.4918
articular	-11.4922
fere	-11.4925
aqu	-11.4934
nat	-11.4934
uman	-11.4937
atr	-11.494
dial	-11.4944
fina	-11.4961
▁Portug	-11.4965
cionári	-11.4973
▁palest	-11.4977
referência	-11.499
iberdade	-11.4995
versos	-11.4996
ald	-11.4996
spaço	-11.5002
eres	-11.5003
ressa	-11.502
▁regul	-11.5038
empo	-11.5038
▁lut	-11.5047
amo	-11.5048
nicos	-11.5057
mação	-11.506
prova	-11.5069
aio	-11.5072
orém	-11.5098
pens	-11.5098
tativa	-11.5101
ntada	-11.5107
uções	-11.5118
raram	-11.5125
mprego	-11.5125
cem	-11.5128
dolescente	-11.5146
ture	-11.515
▁ig	-11.5156
ass	-11.5175
▁eco	-11.519
▁familia	-11.5193
▁ed	-11.5199
condi	-11.5203
tulo	-11.5212
spera	-11.5217
elec	-11.5221
iona	-11.5245
mod	-11.5246
ese	-11.5246
▁constituciona	-11.5248
oces	-11.5248
bl	-11.5251
eni	-11.5257
tom	-11.5265
ueno	-11.5266
xiste	-11.5272
▁Municipa	-11.5278
ebo	-11.5282
▁especializa	-11.5288
▁util	-11.529
partida	-11.5292
jamento	-11.5294
mad	-11.5304
rego	-11.5306
2016	-11.5322
▁dev	-11.5341
adiciona	-11.5363
▁problem	-11.5406
xim	-11.5411
exa	-11.5411
unh	-11.5414
zado	-11.5414
artes	-11.5415
▁sus	-11.5425
▁quar	-11.5427
áv	-11.5427
Mar	-11.5428
cient	-11.5432
companh	-11.5435
dep	-11.5443
elh	-11.5443
▁elei	-11.5451
lc	-11.5453
egócios	-11.5453
▁inst	-11.5456
dico	-11.5458
▁perfei	-11.5493
ure	-11.5514
misso	-11.5525
evisão	-11.5526
ossível	-11.5528
Des	-11.5547
idên	-11.5547
pouco	-11.5555
aparec	-11.5556
ltimo	-11.5557
▁norm	-11.5561
eralmente	-11.5571
▁funcionam	-11.5573
▁reco	-11.5577
jeto	-11.5586
presentação	-11.5588
consci	-11.5595
etros	-11.56
icultura	-11.5613
dua	-11.5618
venda	-11.5622
construção	-11.5626
grande	-11.563
Do	-11.5636
uj	-11.5647
▁recon	-11.5661
adequad	-11.5663
uita	-11.5668
▁aconte	-11.5669
▁mundia	-11.5673
▁persona	-11.5693
▁porqu	-11.5699
▁legisl	-11.5702
tigo	-11.5704
ateria	-11.5707
ní	-11.5729
egional	-11.5733
ferentes	-11.5737
rva	-11.574
▁fisc	-11.5759
izad	-11.5764
quipe	-11.5767
▁loca	-11.5783
Es	-11.5787
▁participante	-11.5791
ciação	-11.5792
fini	-11.5794
rrei	-11.5803
rês	-11.5805
ridades	-11.5817
erado	-11.5819
bilidades	-11.5824
▁identi	-11.5829
nfi	-11.5835
▁pret	-11.5835
inguém	-11.5837
entu	-11.5839
▁Euro	-11.5852
▁mul	-11.5862
destin	-11.5867
Uni	-11.5869
▁depend	-11.5871
▁depo	-11.5874
oss	-11.5875
riança	-11.5877
▁ambi	-11.5879
onselho	-11.5883
icano	-11.5884
rans	-11.5894
róp	-11.5898
uvi	-11.5902
capacidade	-11.5904
impl	-11.5913
alavra	-11.5914
oro	-11.5919
zendo	-11.5923
tand	-11.5924
icada	-11.5926
produzi	-11.5946
arma	-11.5947
partilha	-11.5953
▁investigaç	-11.5957
▁indicad	-11.5969
nformações	-11.5974
tares	-11.5975
ecutivo	-11.5978
oração	-11.5978
▁localiz	-11.5997
▁alteraç	-11.601
ilma	-11.601
letrônic	-11.6011
etá	-11.6016
ifi	-11.6017
obert	-11.6019
Ba	-11.6025
credi	-11.604
faz	-11.6041
divid	-11.6041
▁diss	-11.6044
ntro	-11.6044
social	-11.6045
pare	-11.6049
mou	-11.6055
aro	-11.6073
lano	-11.6094
▁empres	-11.6094
estado	-11.6097
arr	-11.6098
mbiental	-11.6114
▁regr	-11.6118
estas	-11.6123
segurança	-11.6124
elen	-11.6124
nadas	-11.6128
conhecimento	-11.6128
etivo	-11.6137
ordena	-11.6138
▁escol	-11.6144
ropor	-11.6166
cais	-11.6176
sina	-11.6181
itória	-11.6184
radu	-11.6186
ntu	-11.6191
▁construí	-11.6191
▁polici	-11.6202
▁jus	-11.6207
▁Tribuna	-11.6209
mprensa	-11.6217
quar	-11.6223
▁invest	-11.6224
arlamentar	-11.6225
odemos	-11.6225
valor	-11.6226
▁impre	-11.6227
empenho	-11.6231
iadas	-11.6237
▁regist	-11.6243
lembra	-11.6255
▁candida	-11.6262
hando	-11.627
stem	-11.6272
▁trabalhado	-11.6273
rônic	-11.6279
ncip	-11.6287
sport	-11.629
nf	-11.6306
▁advogad	-11.6316
▁Brasileir	-11.632
iter	-11.6326
vestimento	-11.6328
dança	-11.6333
lícia	-11.6341
presa	-11.6345
ovembro	-11.6353
▁algu	-11.6354
defini	-11.6369
édic	-11.6379
hom	-11.6384
evi	-11.6389
ancia	-11.6395
▁especi	-11.6406
▁Grand	-11.6407
aia	-11.6411
nô	-11.6412
lecimento	-11.6426
vit	-11.6428
federa	-11.6437
cta	-11.6443
mplo	-11.6445
rov	-11.6446
lavra	-11.6448
ereador	-11.6448
sentimento	-11.6449
gistra	-11.6451
trol	-11.6455
speito	-11.6459
▁consum	-11.6464
diretor	-11.6476
rimin	-11.6479
agen	-11.6481
hecimento	-11.649
Ju	-11.6511
iag	-11.6515
candidato	-11.652
texto	-11.6536
firmou	-11.6558
suficiente	-11.6559
▁começ	-11.6567
íci	-11.657
gramas	-11.6582
rce	-11.6589
romo	-11.66
icida	-11.6605
sci	-11.6605
......	-11.6606
lvi	-11.6622
mita	-11.6632
trem	-11.6651
tuação	-11.6653
ignifica	-11.6657
mados	-11.6673
xpress	-11.6674
cit	-11.669
estra	-11.6694
erações	-11.6701
labor	-11.6702
inam	-11.6703
▁personali	-11.6703
oção	-11.6707
ssível	-11.6714
▁debat	-11.6723
ratura	-11.6724
estões	-11.6728
2014	-11.6736
direta	-11.6738
orden	-11.6742
respeito	-11.6746
cador	-11.675
nstrução	-11.6757
volver	-11.6764
ssor	-11.6772
pai	-11.6774
eco	-11.6774
egue	-11.678
seguir	-11.6782
strutura	-11.6785
formado	-11.6785
orada	-11.679
▁cob	-11.6793
▁propo	-11.6798
minha	-11.6807
democr	-11.681
sei	-11.6813
iço	-11.6818
rgão	-11.6819
▁tratam	-11.684
ionários	-11.6863
inh	-11.6865
stratégi	-11.6876
ilizar	-11.6886
ovo	-11.6888
▁presen	-11.6889
▁adolesc	-11.6892
orta	-11.6894
rote	-11.6904
peito	-11.6905
quanto	-11.6908
dad	-11.6923
▁contrári	-11.693
riv	-11.6933
icion	-11.6945
sand	-11.6948
ndimento	-11.6952
esponsabilidade	-11.6955
gram	-11.6959
Ro	-11.6963
muito	-11.6968
certa	-11.6974
emb	-11.6976
gol	-11.6977
estina	-11.6979
amin	-11.6985
▁tim	-11.6996
tebo	-11.7004
adicional	-11.7005
▁financeir	-11.7009
egal	-11.7012
cede	-11.7016
favor	-11.7023
enç	-11.703
norm	-11.7032
Po	-11.7033
aqueles	-11.704
afi	-11.704
Te	-11.7043
acu	-11.7046
ulista	-11.705
specialista	-11.7055
bun	-11.7059
▁deze	-11.7062
dis	-11.7076
rve	-11.7079
▁conhec	-11.7089
uem	-11.7095
▁necessári	-11.7099
judicia	-11.7121
ssar	-11.7121
essores	-11.7121
diretamente	-11.7125
▁milit	-11.7125
An	-11.7128
▁manifestaç	-11.713
▁ofe	-11.7134
orr	-11.7137
icula	-11.7141
erão	-11.7142
stav	-11.7163
ndivid	-11.7164
latório	-11.7166
alor	-11.7168
icando	-11.7174
don	-11.7192
ost	-11.7194
ológic	-11.7196
plan	-11.7201
▁Out	-11.7204
rede	-11.7208
enh	-11.7208
formações	-11.7224
media	-11.7228
▁Institu	-11.7234
ordo	-11.7242
onstrução	-11.7248
hec	-11.7248
ambi	-11.725
aran	-11.7252
nhe	-11.7266
olas	-11.7271
magi	-11.7278
▁conju	-11.7287
itante	-11.7309
rqu	-11.7315
odelo	-11.732
▁Conselh	-11.7321
▁Mun	-11.7324
▁gan	-11.7329
ainda	-11.7331
isse	-11.7341
▁caracteriz	-11.736
ureza	-11.7367
vistas	-11.7369
rab	-11.7373
▁Gran	-11.7379
▁feder	-11.7391
vá	-11.7391
cab	-11.7396
▁municip	-11.7403
▁princip	-11.741
astr	-11.741
▁trad	-11.7415
rno	-11.7429
▁mú	-11.743
rédito	-11.7433
eição	-11.7435
Jo	-11.7437
acion	-11.7458
escente	-11.7461
sses	-11.7466
Ne	-11.7471
dec	-11.7472
rep	-11.7476
Bo	-11.7478
Presidente	-11.7486
andi	-11.7502
tenha	-11.7502
ode	-11.751
tempo	-11.7519
umento	-11.7526
adoria	-11.7532
rença	-11.7535
número	-11.7537
rodutos	-11.754
ômica	-11.754
alhar	-11.7552
egulament	-11.7558
pad	-11.7566
constru	-11.7569
arde	-11.7579
orização	-11.7585
erc	-11.7586
▁ond	-11.7588
▁ade	-11.7588
culdades	-11.7597
▁consumido	-11.7614
roduto	-11.7616
calização	-11.7621
menta	-11.7623
▁muni	-11.7626
ublic	-11.7637
▁amp	-11.7643
ricana	-11.7645
pular	-11.7654
ceiro	-11.7658
▁discurs	-11.766
ntin	-11.7668
sua	-11.7683
▁signific	-11.7685
ostos	-11.7687
inco	-11.769
▁equip	-11.7697
onstitucional	-11.7704
mpos	-11.7709
amil	-11.7732
▁deci	-11.7735
existência	-11.775
▁cuid	-11.7757
uç	-11.776
ervidores	-11.7788
lun	-11.7798
emo	-11.7815
▁comportament	-11.7818
ndependente	-11.7829
meira	-11.7844
mens	-11.7847
Gera	-11.7852
óci	-11.7852
▁home	-11.7859
ilização	-11.7862
▁curs	-11.7865
endência	-11.7874
promisso	-11.7875
nsi	-11.7881
aridade	-11.7886
ril	-11.7888
Fa	-11.7889
tribui	-11.7893
ndu	-11.7901
ferente	-11.7924
foi	-11.7925
banc	-11.7929
menos	-11.793
egra	-11.7932
dicion	-11.7932
▁insti	-11.7934
mel	-11.794
inv	-11.7944
secretário	-11.7945
stabelece	-11.7953
cífic	-11.7968
edição	-11.7972
rtos	-11.7976
rang	-11.7985
tig	-11.7992
rianças	-11.7999
strução	-11.8002
ursos	-11.8012
ever	-11.8013
onsider	-11.8016
liar	-11.8028
capa	-11.803
nol	-11.8041
ecia	-11.805
olta	-11.8054
eran	-11.8061
ermos	-11.8083
raç	-11.8091
▁grand	-11.8091
amado	-11.8092
juda	-11.8097
também	-11.8102
lizada	-11.8103
comb	-11.8111
▁coordenado	-11.8132
parece	-11.8133
icul	-11.8135
▁den	-11.8145
▁capi	-11.8153
terial	-11.8165
▁Esco	-11.8172
eite	-11.8186
fesa	-11.8189
Le	-11.8197
teir	-11.8215
sistem	-11.8216
erial	-11.8218
Qu	-11.822
empenh	-11.8222
porque	-11.8224
▁age	-11.8224
▁empresári	-11.8226
leiros	-11.8231
normal	-11.8244
ifer	-11.8252
▁corp	-11.8261
ergia	-11.8268
▁empreg	-11.827
licit	-11.828
▁Cris	-11.8281
mem	-11.8285
alizados	-11.829
econômico	-11.8293
▁adequ	-11.8308
rigi	-11.831
▁repres	-11.8314
perd	-11.8316
echa	-11.8323
▁Escol	-11.8328
▁acident	-11.8329
rmente	-11.8332
irei	-11.8342
▁Administra	-11.8348
vai	-11.8351
▁dest	-11.8354
trav	-11.8355
▁Regiona	-11.8356
fat	-11.8357
embr	-11.8368
onstru	-11.8372
arta	-11.8378
nad	-11.8389
poder	-11.8397
unta	-11.8403
desco	-11.8414
ating	-11.8416
ropo	-11.8428
bili	-11.8431
mont	-11.8444
éd	-11.845
▁decid	-11.8451
rincípio	-11.8455
▁Const	-11.8465
esqui	-11.8469
▁levan	-11.8472
stração	-11.8475
ompe	-11.8476
odi	-11.8477
orpo	-11.8477
eliz	-11.8488
aranti	-11.85
▁perí	-11.8516
razo	-11.8537
ionamento	-11.8537
demais	-11.8538
▁comi	-11.8543
ove	-11.8544
cabeça	-11.855
rofessores	-11.8552
tific	-11.8557
ecentemente	-11.8565
nima	-11.8568
locar	-11.857
mpre	-11.8587
centro	-11.8591
sistema	-11.8604
▁hab	-11.8609
posi	-11.8611
cionários	-11.8623
olicia	-11.8627
cid	-11.8629
sm	-11.8636
▁ris	-11.8643
▁mesm	-11.8646
têm	-11.8665
mite	-11.8692
deputado	-11.8713
bj	-11.873
ldade	-11.8738
uan	-11.8749
▁responsabil	-11.8749
rência	-11.8771
ission	-11.881
rca	-11.8816
enhum	-11.882
asso	-11.8823
uis	-11.8828
meno	-11.8829
esto	-11.8839
três	-11.8846
ionada	-11.8846
Associação	-11.886
ampanha	-11.8884
▁planej	-11.8885
▁estad	-11.8888
fes	-11.889
trans	-11.8923
icana	-11.8925
usar	-11.8928
ssunto	-11.8942
▁Ins	-11.8948
overnador	-11.8951
roduzid	-11.8954
spectiva	-11.8954
ossos	-11.8956
Instituto	-11.8971
sagem	-11.8979
▁decl	-11.8992
puta	-11.8995
▁pagam	-11.9001
credita	-11.9015
ciada	-11.9021
▁..	-11.9025
ande	-11.9029
not	-11.9036
integra	-11.9038
ombate	-11.9039
▁reserv	-11.9045
▁ami	-11.905
nter	-11.905
afirma	-11.9051
pass	-11.9067
elatório	-11.9068
▁capac	-11.9068
ecutiv	-11.9074
ncion	-11.9076
udar	-11.9087
spect	-11.909
ferid	-11.91
pendência	-11.9123
acionamento	-11.9128
▁Rep	-11.9129
scim	-11.913
tiliza	-11.9132
ífica	-11.9132
alar	-11.9144
cide	-11.9148
▁acon	-11.9148
▁cidadã	-11.9154
ider	-11.9161
Universidade	-11.9164
▁desenvolvi	-11.9178
▁estabelec	-11.9183
Programa	-11.9184
fort	-11.9187
bid	-11.9187
uturo	-11.9203
monstr	-11.9218
estou	-11.922
post	-11.9225
tat	-11.923
▁descobr	-11.9233
rganiza	-11.9247
imples	-11.9252
▁dom	-11.9252
▁utili	-11.9258
amiliar	-11.927
omissão	-11.9275
move	-11.9277
conhece	-11.9305
▁movi	-11.9325
nav	-11.9327
real	-11.9331
novo	-11.9333
▁estudant	-11.9345
sistemas	-11.9364
tecnologia	-11.9364
existente	-11.9373
isca	-11.9385
mpu	-11.9389
▁princ	-11.939
ferencia	-11.9392
▁jogado	-11.9396
ocal	-11.9409
rti	-11.9415
oriza	-11.9422
pode	-11.9432
Pa	-11.9437
empregado	-11.9452
prete	-11.9456
rco	-11.9469
lementos	-11.9472
ançado	-11.9473
abil	-11.9479
jan	-11.9479
ebe	-11.9483
viment	-11.9487
erre	-11.9488
evo	-11.9495
artilha	-11.9502
apo	-11.9503
lament	-11.9506
equ	-11.9508
▁aco	-11.9513
▁estabeleci	-11.9514
endi	-11.9521
cíp	-11.9525
rf	-11.9535
orda	-11.9538
imas	-11.9543
espe	-11.9544
list	-11.9547
▁nor	-11.9553
mpreende	-11.9569
acidade	-11.9576
duto	-11.9578
cris	-11.9583
cinco	-11.9586
▁compro	-11.9587
▁computa	-11.9589
ilhões	-11.9591
nstituição	-11.9593
Qua	-11.9595
Ap	-11.9597
umano	-11.9602
produtiv	-11.9607
repar	-11.9607
▁enqua	-11.9612
licia	-11.9621
tac	-11.9633
itan	-11.9636
zan	-11.9637
espon	-11.9645
edit	-11.9658
egistro	-11.9666
nimo	-11.9667
▁out	-11.967
Além	-11.9676
vali	-11.969
aut	-11.9695
ivil	-11.9699
ress	-11.9703
rofissionais	-11.9703
articipação	-11.9706
arco	-11.9708
respeit	-11.9709
sam	-11.9716
▁servido	-11.972
cend	-11.9723
Centro	-11.9728
pita	-11.973
mis	-11.974
▁propos	-11.9756
cações	-11.9765
sub	-11.9775
econômica	-11.9781
bilita	-11.9783
tent	-11.9783
arl	-11.9791
gov	-11.9794
▁natur	-11.9798
ficou	-11.9803
revi	-11.9812
destina	-11.9823
▁def	-11.9828
lheres	-11.9829
terio	-11.983
rístic	-11.9837
Depois	-11.9856
icio	-11.9859
base	-11.9865
outr	-11.9867
ersão	-11.9869
pública	-11.9874
▁Sil	-11.9883
▁limi	-11.9888
▁ana	-11.99
segu	-11.9902
▁conjun	-11.9904
stratégia	-11.9912
qualifica	-11.9932
cultural	-11.9935
pou	-11.9936
liação	-11.9948
▁ens	-11.9948
ábado	-11.9951
dent	-11.9953
sab	-11.9955
produz	-11.9967
lut	-11.9971
upo	-11.9973
cert	-11.9983
▁exclus	-11.9989
ubl	-12.0009
óg	-12.0014
▁er	-12.0018
screv	-12.0039
▁próxim	-12.0043
ales	-12.005
deração	-12.0051
sistê	-12.0055
nqu	-12.0056
tul	-12.0057
alo	-12.0076
mesmo	-12.008
clar	-12.0086
stic	-12.0088
▁distr	-12.0098
guém	-12.01
ced	-12.0138
▁té	-12.0145
merica	-12.0152
corpo	-12.0154
ponto	-12.0154
▁bus	-12.0154
zados	-12.0164
ivr	-12.0165
orpora	-12.0169
icados	-12.0171
amental	-12.0177
rcado	-12.018
dministrativa	-12.0181
ári	-12.0181
erece	-12.0181
rior	-12.0185
hoje	-12.0191
cat	-12.0202
amen	-12.0226
edita	-12.0229
acaba	-12.023
Ess	-12.0234
dei	-12.0241
contece	-12.0243
▁Desenvolv	-12.0266
▁interess	-12.0272
bai	-12.0273
Gra	-12.0285
▁preocupaç	-12.0285
Ge	-12.0293
nando	-12.0298
mestr	-12.0303
edimento	-12.0308
reinamento	-12.0308
comunica	-12.0309
justi	-12.031
ribunal	-12.0323
entam	-12.0328
ualquer	-12.0332
campo	-12.0335
rden	-12.0348
vita	-12.0361
ocr	-12.0362
trada	-12.0365
liv	-12.0366
arm	-12.0367
manh	-12.0369
uve	-12.037
emplo	-12.0371
▁redu	-12.0393
▁Jane	-12.0394
sejam	-12.0402
▁tin	-12.0405
zação	-12.0417
apit	-12.0423
mido	-12.0426
iante	-12.0435
scen	-12.0439
stir	-12.0442
tenho	-12.0443
fí	-12.0451
vari	-12.0454
esses	-12.0458
tex	-12.046
▁sel	-12.0463
ssibilidade	-12.0469
Su	-12.047
xemplo	-12.0478
guin	-12.0494
▁Estadua	-12.0497
studantes	-12.0497
ee	-12.0501
bom	-12.0505
reti	-12.0506
▁program	-12.0507
blog	-12.0514
curs	-12.0515
ossui	-12.0515
abora	-12.0516
etam	-12.0517
▁verifi	-12.0522
eme	-12.0524
▁própri	-12.0527
▁ec	-12.0528
Mo	-12.0529
perado	-12.0535
arece	-12.0552
▁Dep	-12.0552
omunidade	-12.0558
Paulo	-12.0559
você	-12.0559
▁pon	-12.0559
ontinua	-12.0561
gost	-12.0562
ntam	-12.0573
adu	-12.0577
cebi	-12.0585
ssio	-12.0606
▁jorn	-12.0614
natural	-12.0624
spec	-12.0626
zando	-12.0627
erar	-12.0636
mam	-12.0644
rie	-12.0649
educa	-12.0654
specializad	-12.0674
elação	-12.0678
▁caracter	-12.068
deir	-12.0683
vei	-12.0684
olet	-12.0687
çad	-12.0694
nhei	-12.0695
tên	-12.0695
aren	-12.0696
super	-12.0722
lab	-12.0732
▁set	-12.0736
quec	-12.0753
valia	-12.0771
his	-12.0787
ndado	-12.0788
▁utilizad	-12.0789
seja	-12.0796
▁meno	-12.0799
cari	-12.0804
parti	-12.0808
cont	-12.0811
tã	-12.0812
compa	-12.0815
rman	-12.082
chega	-12.0829
tualiza	-12.0831
▁asso	-12.0835
trado	-12.0841
eze	-12.0841
▁resi	-12.0852
cob	-12.0862
▁opin	-12.0865
Cor	-12.0869
confor	-12.0873
onhecimento	-12.088
▁estadu	-12.0885
istr	-12.0886
▁situ	-12.089
inici	-12.0899
▁nó	-12.0909
rática	-12.0917
rtido	-12.0917
nossa	-12.0919
funda	-12.0926
encio	-12.0939
timento	-12.0939
arin	-12.0939
▁Comiss	-12.0943
oordena	-12.0948
competência	-12.0954
nifica	-12.0958
assado	-12.0963
erd	-12.0966
▁even	-12.0968
Go	-12.0972
stal	-12.0972
▁terç	-12.0972
apel	-12.1006
presas	-12.1007
lugar	-12.1013
Pe	-12.102
uando	-12.1025
monta	-12.1034
õ	-12.1035
mist	-12.1041
▁combat	-12.1046
▁apó	-12.1049
necessário	-12.105
▁tard	-12.1057
ovos	-12.1061
▁risc	-12.1064
física	-12.1071
oná	-12.1077
nqui	-12.1077
dã	-12.1084
quência	-12.1086
depois	-12.1088
serva	-12.1095
nici	-12.1111
esquerd	-12.1117
rrad	-12.1118
imin	-12.1119
xist	-12.112
parte	-12.1122
perceb	-12.1124
edidas	-12.1125
sobre	-12.1131
nsável	-12.1149
eng	-12.1151
desej	-12.116
spital	-12.1166
sel	-12.1172
espa	-12.1174
alte	-12.1175
stação	-12.1178
direito	-12.1184
sentar	-12.1191
ionados	-12.1194
ativ	-12.1196
diz	-12.1208
▁característic	-12.1211
considera	-12.1214
trat	-12.1214
tif	-12.122
ômico	-12.1223
egião	-12.1226
artigo	-12.1235
▁estrat	-12.1245
limentação	-12.1255
motivo	-12.1258
pers	-12.1258
rmin	-12.1258
níci	-12.1272
onato	-12.1278
mí	-12.1281
ntei	-12.1282
alhado	-12.1286
mida	-12.1293
▁cate	-12.1294
presentam	-12.1301
▁objet	-12.1311
unidades	-12.1314
undi	-12.132
agora	-12.1326
ase	-12.1334
▁diri	-12.1334
rticula	-12.1348
▁coordenad	-12.1353
etem	-12.1354
▁alun	-12.1355
uido	-12.1371
está	-12.1379
cali	-12.1391
rescimento	-12.1393
▁jogad	-12.1398
comum	-12.1406
▁resol	-12.1408
mage	-12.141
pesar	-12.1411
ançamento	-12.1415
atural	-12.142
▁mai	-12.1446
pres	-12.1457
fun	-12.1483
▁responsabili	-12.1496
▁eleiç	-12.1497
nacional	-12.151
assi	-12.1514
dan	-12.1514
Mi	-12.1526
▁forç	-12.1527
lário	-12.1527
rganizações	-12.1532
quista	-12.1533
atureza	-12.1536
lembr	-12.1537
seq	-12.1543
ropriedade	-12.1543
centr	-12.1545
infl	-12.155
omet	-12.1551
inanceira	-12.1556
▁Muni	-12.1557
▁enfr	-12.1564
cons	-12.1567
minist	-12.1578
▁estil	-12.1579
uce	-12.1594
nç	-12.1595
▁minu	-12.1598
jus	-12.16
tiliz	-12.1604
roca	-12.1607
equen	-12.1615
leira	-12.1618
prote	-12.1628
orm	-12.1634
mant	-12.164
uência	-12.1641
dois	-12.1655
écul	-12.1668
ornalista	-12.1668
artilh	-12.167
icam	-12.1672
pré	-12.1676
alquer	-12.1677
istribuição	-12.168
ontinu	-12.1683
egu	-12.1693
ntra	-12.1695
obi	-12.1705
mensa	-12.1712
uzi	-12.1715
Entre	-12.1716
hores	-12.1717
▁consegu	-12.1725
ssembl	-12.1727
itad	-12.1732
sempre	-12.1737
volve	-12.1741
eva	-12.1742
rso	-12.1762
ítica	-12.1765
sino	-12.1769
▁mov	-12.177
Ho	-12.1773
dit	-12.1776
comun	-12.1781
versas	-12.1783
Esp	-12.1799
oda	-12.1803
acr	-12.1809
midade	-12.1813
erada	-12.1814
demos	-12.1815
nstituições	-12.182
▁gent	-12.1822
▁tecnol	-12.1827
blico	-12.1827
inanceiro	-12.1829
rest	-12.1836
plement	-12.1842
ontos	-12.1842
▁forn	-12.1844
munidade	-12.1845
specto	-12.1854
nin	-12.1856
lug	-12.1865
azendo	-12.1866
forç	-12.1873
quent	-12.1881
uste	-12.1887
ntan	-12.189
edo	-12.1896
lto	-12.1896
amor	-12.1901
ebi	-12.1903
olução	-12.1904
gun	-12.1907
impo	-12.1907
cionam	-12.1909
blica	-12.1916
sob	-12.192
Ar	-12.1935
articipa	-12.1942
ades	-12.1947
ntage	-12.1948
escreve	-12.1948
neira	-12.1964
umi	-12.1965
Cl	-12.1972
corp	-12.1978
ndam	-12.1988
▁aque	-12.199
orde	-12.2008
ceria	-12.2008
lti	-12.201
oncurso	-12.2011
Ja	-12.2026
determinado	-12.2037
leva	-12.2037
uer	-12.2039
▁prog	-12.2039
▁Pau	-12.2039
etal	-12.2046
ege	-12.2049
Tra	-12.2051
Segundo	-12.2056
junt	-12.2072
▁entrevist	-12.2074
linh	-12.2075
ficado	-12.2076
▁Justi	-12.2077
▁mos	-12.2084
▁Constitui	-12.2087
aquel	-12.21
exi	-12.21
spi	-12.2102
uris	-12.2103
suce	-12.2105
eado	-12.2106
versidade	-12.2108
▁expl	-12.211
squi	-12.2111
impe	-12.2125
ntag	-12.2134
▁oc	-12.2151
organização	-12.2158
noite	-12.216
fesso	-12.216
méri	-12.2161
eículos	-12.2168
▁inclusiv	-12.2169
lamenta	-12.217
rda	-12.2174
jud	-12.2185
So	-12.2189
dustrial	-12.2202
Li	-12.221
Da	-12.2213
passou	-12.2214
▁minis	-12.2218
onsult	-12.2228
▁alterna	-12.223
▁pesquis	-12.2235
▁dan	-12.2241
rimi	-12.2253
▁repr	-12.2253
▁formad	-12.2268
iciais	-12.2273
ualiza	-12.2273
ograf	-12.2279
vulga	-12.2287
esi	-12.2294
acredit	-12.2301
ecn	-12.2303
▁membr	-12.2305
orn	-12.2305
tentar	-12.2308
mara	-12.2318
equeno	-12.2329
pendente	-12.2335
dimentos	-12.2341
dema	-12.2346
▁prá	-12.2352
indi	-12.2357
onceito	-12.2361
▁alé	-12.238
▁expli	-12.238
etiva	-12.2386
cresci	-12.2393
erda	-12.2398
ain	-12.2408
dentifica	-12.2408
onquista	-12.2411
▁alg	-12.2413
pop	-12.2413
zada	-12.2429
▁parlament	-12.2431
efes	-12.2444
alia	-12.2447
Un	-12.2448
spo	-12.2461
lisa	-12.2463
erte	-12.2469
ext	-12.2471
reside	-12.2474
feder	-12.2476
esar	-12.248
ocalizad	-12.2482
ontrol	-12.2483
arqu	-12.2491
▁apr	-12.2496
lg	-12.2501
sin	-12.2502
▁Pes	-12.2502
gad	-12.2504
eleito	-12.251
culdade	-12.251
lari	-12.2514
terá	-12.2518
conde	-12.2523
▁Entr	-12.2523
lizadas	-12.2537
alizadas	-12.2538
Pr	-12.2538
Deus	-12.2542
presente	-12.255
▁Just	-12.2556
onse	-12.2563
erva	-12.2569
mult	-12.2569
endê	-12.2574
cir	-12.2588
ispos	-12.2588
iferente	-12.2595
▁estrutur	-12.2599
dif	-12.2605
▁comparti	-12.2605
onômico	-12.2625
presenta	-12.2629
adicion	-12.2645
divi	-12.267
util	-12.2674
morad	-12.2676
ince	-12.2682
sque	-12.2683
hum	-12.2689
La	-12.2697
asc	-12.2711
encontro	-12.2725
En	-12.2726
avia	-12.2738
▁ofere	-12.2739
ipa	-12.2744
▁apresentad	-12.2745
hand	-12.275
toc	-12.2762
For	-12.2768
xperiment	-12.2771
sário	-12.2773
▁important	-12.2781
serem	-12.2784
stamos	-12.279
ctiv	-12.2803
oleti	-12.2805
rde	-12.2807
xis	-12.2813
ogia	-12.2813
▁fut	-12.2823
reo	-12.2824
Sa	-12.2824
conomi	-12.2831
mpli	-12.2832
crit	-12.2837
etra	-12.2842
lemento	-12.285
lda	-12.2852
omar	-12.2854
então	-12.286
conceit	-12.286
plicad	-12.2863
eriormente	-12.2866
assim	-12.2867
ordenado	-12.2873
gres	-12.2873
ming	-12.2875
tut	-12.2878
veri	-12.2886
ponde	-12.2888
escu	-12.2889
▁tiv	-12.2891
eman	-12.2892
omi	-12.2897
El	-12.2899
stava	-12.2915
▁verdadeir	-12.2922
rci	-12.2942
aprend	-12.2942
cipar	-12.2943
educ	-12.2947
exto	-12.2949
conven	-12.2952
Gu	-12.2954
esque	-12.2963
▁secre	-12.2975
crim	-12.2979
▁Seg	-12.2981
▁falt	-12.2985
nforme	-12.2992
▁pala	-12.2994
dinh	-12.3008
caç	-12.3011
Ad	-12.3016
modern	-12.3017
▁apl	-12.3026
lítica	-12.3035
tip	-12.3045
inclusive	-12.3045
▁polí	-12.305
▁Educ	-12.3057
apar	-12.3068
here	-12.3074
principalmente	-12.3077
ingo	-12.3082
orno	-12.3091
▁his	-12.3095
onado	-12.3097
anutenção	-12.3104
▁Mini	-12.3109
rodu	-12.3112
partid	-12.3113
omina	-12.3121
preend	-12.3135
ecimentos	-12.3138
▁alca	-12.3141
mér	-12.3143
dire	-12.3154
sabe	-12.3156
quipamentos	-12.3162
necessária	-12.317
trar	-12.3173
cientes	-12.3186
atin	-12.3196
essi	-12.3203
sumido	-12.3212
nivers	-12.3213
istem	-12.3233
elei	-12.3237
▁eleit	-12.325
Man	-12.3254
equena	-12.3265
▁especializ	-12.3271
ensi	-12.3272
gani	-12.3275
utoridade	-12.3275
organ	-12.328
▁most	-12.328
mportante	-12.3281
gur	-12.3283
falt	-12.3284
rceiro	-12.3286
reci	-12.329
ransp	-12.3294
▁ní	-12.3301
ntados	-12.3307
opor	-12.3307
ocument	-12.3307
utros	-12.3313
ustria	-12.3314
negocia	-12.3315
articip	-12.3315
eal	-12.3316
elev	-12.333
▁acr	-12.3345
científic	-12.3347
▁qua	-12.3348
imeira	-12.3352
cate	-12.3356
esponsável	-12.3359
temas	-12.3372
membr	-12.3379
erm	-12.3385
Cont	-12.3385
tore	-12.3386
tamentos	-12.3389
nac	-12.3413
erci	-12.3414
Br	-12.3422
▁desd	-12.3426
levar	-12.3442
educação	-12.3463
técnica	-12.3467
envolvido	-12.3472
nidades	-12.348
umentos	-12.3482
ulg	-12.3488
sist	-12.349
lati	-12.3496
nut	-12.3497
eserva	-12.3499
sita	-12.3515
udanças	-12.3516
▁Internaciona	-12.3516
▁permi	-12.3524
rocur	-12.3525
resse	-12.3526
zembro	-12.3527
impa	-12.3531
nist	-12.3532
▁Projet	-12.3538
doença	-12.3539
dências	-12.3545
isi	-12.3547
leitora	-12.3548
ortun	-12.3549
▁contr	-12.3551
nove	-12.3562
▁Cen	-12.3564
▁faci	-12.3591
Per	-12.361
quel	-12.3611
opi	-12.3611
enca	-12.3615
▁portu	-12.3658
onjunto	-12.366
▁funç	-12.366
exig	-12.3666
companha	-12.3667
cter	-12.3678
nida	-12.3702
preço	-12.371
cis	-12.3717
part	-12.3722
▁apli	-12.3735
nhecer	-12.3735
gic	-12.374
residen	-12.3743
ise	-12.3753
stam	-12.3753
responsável	-12.3753
técnico	-12.3757
rime	-12.3759
itá	-12.3764
tio	-12.3765
ambiental	-12.3772
recisam	-12.3774
volvido	-12.3789
pleta	-12.3815
Be	-12.3823
irr	-12.3825
ntegr	-12.3825
candidat	-12.3828
eriam	-12.3828
ovem	-12.3832
ndendo	-12.385
projeto	-12.3858
série	-12.3862
▁ág	-12.3865
ublica	-12.3881
natura	-12.3885
▁Socia	-12.3888
rtas	-12.389
efini	-12.389
▁relacion	-12.3894
Ger	-12.3894
hamento	-12.3898
aber	-12.3907
ergunta	-12.3908
dicad	-12.3915
senh	-12.392
sete	-12.3923
ezes	-12.3932
rend	-12.3942
solv	-12.3943
control	-12.3944
▁contribuiç	-12.395
Nov	-12.395
roduz	-12.3956
mani	-12.3958
romove	-12.3963
apenas	-12.3965
rret	-12.397
▁permanec	-12.3972
áve	-12.3973
isciplina	-12.398
viol	-12.3984
iníci	-12.3992
quatro	-12.4001
mações	-12.4002
omunica	-12.4002
revis	-12.4004
Lu	-12.4004
motiv	-12.4007
comp	-12.401
ulga	-12.4013
onômica	-12.4015
conteceu	-12.4021
disse	-12.4022
nário	-12.4033
epende	-12.4033
egi	-12.4036
ísi	-12.4037
obriga	-12.4038
rtu	-12.4044
ateriais	-12.4052
sucesso	-12.4056
Sul	-12.4059
ssu	-12.4081
tural	-12.4087
gurança	-12.409
rev	-12.4091
Am	-12.4091
Camp	-12.4093
falta	-12.4094
úme	-12.4095
▁fav	-12.41
nasc	-12.4101
Par	-12.4109
escola	-12.4119
tud	-12.4121
esquisadores	-12.4124
olvi	-12.4126
epar	-12.4127
dante	-12.4136
governo	-12.4138
duas	-12.4147
plet	-12.415
embros	-12.4167
política	-12.4178
nvestiga	-12.4179
compet	-12.4197
nfl	-12.4208
éculo	-12.4211
Fe	-12.4215
urs	-12.4243
conf	-12.4245
escobri	-12.4247
ssado	-12.4248
conhecer	-12.4251
ntr	-12.4252
rtida	-12.4252
usta	-12.4258
onc	-12.4258
stabelecimento	-12.4268
▁reconhe	-12.4272
atamento	-12.4275
efen	-12.4285
jogador	-12.4287
passo	-12.4289
▁concurs	-12.429
oram	-12.4291
exta	-12.4295
rtur	-12.4302
▁dispu	-12.4305
casa	-12.4318
aceit	-12.4321
lara	-12.4322
mand	-12.4331
desde	-12.4335
segundo	-12.4341
▁funcionári	-12.4349
brig	-12.4351
ntidade	-12.4359
ermo	-12.4367
epresentantes	-12.4368
▁altern	-12.437
inst	-12.4382
▁mode	-12.4383
▁Estad	-12.4387
icat	-12.4387
nselh	-12.439
▁seguin	-12.4397
rça	-12.4403
iços	-12.4405
revista	-12.4413
fis	-12.4414
ostra	-12.442
meiros	-12.4422
acre	-12.4428
pessoa	-12.4433
ualiz	-12.4443
▁estab	-12.4446
exce	-12.4449
abr	-12.4449
maçã	-12.4453
retamente	-12.4458
▁envolvi	-12.4465
had	-12.4465
▁quali	-12.4465
▁Câm	-12.4466
▁extr	-12.4466
nários	-12.4468
dol	-12.4482
odern	-12.4483
ubstitu	-12.4483
esport	-12.4491
antos	-12.4498
aíses	-12.4507
ntif	-12.4511
▁Francisc	-12.4513
jetivo	-12.4518
Cas	-12.452
brasileira	-12.4535
ree	-12.4554
incluindo	-12.457
xperiência	-12.4575
istência	-12.4575
agos	-12.4576
▁perm	-12.458
erti	-12.4582
rocessos	-12.4589
▁Carlo	-12.4603
acordo	-12.461
▁orige	-12.4613
dern	-12.4617
nera	-12.462
conh	-12.4629
iscu	-12.463
num	-12.4651
estadual	-12.4654
tornar	-12.4656
ener	-12.4657
etar	-12.4662
obili	-12.4668
ropa	-12.467
feit	-12.467
set	-12.4676
▁fren	-12.4677
iolência	-12.4677
lunos	-12.4682
▁aces	-12.4686
nesta	-12.469
ntador	-12.4695
utras	-12.4705
Escola	-12.4706
tribu	-12.4706
governa	-12.4708
olh	-12.4709
nive	-12.4725
cabe	-12.4725
fez	-12.4734
Ser	-12.4735
icional	-12.4735
pesa	-12.474
letr	-12.4749
transmi	-12.476
Fu	-12.4772
deri	-12.4782
etor	-12.4782
devido	-12.4795
trib	-12.4796
▁der	-12.4797
nfor	-12.4804
▁queri	-12.4819
ionári	-12.4823
isl	-12.4823
verna	-12.4829
municipal	-12.4838
▁identifi	-12.4838
rceb	-12.4846
esidência	-12.4862
▁estam	-12.4872
Ed	-12.4877
sit	-12.4879
dantes	-12.4879
xercício	-12.488
Estado	-12.488
nalidade	-12.4895
ncontr	-12.4895
process	-12.4898
▁atri	-12.4904
▁sentiment	-12.4906
▁inscr	-12.4908
eitor	-12.4919
Marc	-12.4926
teres	-12.4933
egislação	-12.4936
ltim	-12.4946
▁aval	-12.495
rocura	-12.4953
nimais	-12.4955
poi	-12.4956
anhar	-12.4957
auto	-12.4961
sionais	-12.4967
ontem	-12.497
pedido	-12.4971
sce	-12.4979
ervidor	-12.4993
.......	-12.4996
ecno	-12.5002
strangeir	-12.5012
profissional	-12.5025
perc	-12.5026
▁difere	-12.5037
ried	-12.5047
▁relacionam	-12.5055
emp	-12.5067
embora	-12.5074
eferência	-12.5075
mplanta	-12.5079
central	-12.5089
rifica	-12.5101
classe	-12.5105
função	-12.5135
gê	-12.5139
▁class	-12.5167
▁doc	-12.5178
▁consumid	-12.5183
Sistema	-12.5187
▁cump	-12.5192
epend	-12.5197
▁comput	-12.5206
lhões	-12.5218
diferença	-12.5219
temos	-12.5227
rídic	-12.5229
ibu	-12.5229
ítico	-12.5233
direto	-12.5237
ossibilidade	-12.5238
controle	-12.524
xecu	-12.5243
ostas	-12.5244
▁ente	-12.5246
ssou	-12.5261
quase	-12.5264
ienta	-12.5264
ivis	-12.5269
nua	-12.5272
rtir	-12.5278
material	-12.5289
rati	-12.5296
tad	-12.53
ngre	-12.5301
obe	-12.531
área	-12.5312
mate	-12.5324
passad	-12.5325
unid	-12.5334
fei	-12.534
▁visi	-12.5346
mulher	-12.5347
versári	-12.5351
▁lib	-12.5359
nterna	-12.5362
cred	-12.537
esultados	-12.537
▁domi	-12.5375
rara	-12.538
tilização	-12.5381
deo	-12.5387
iment	-12.5408
ouv	-12.541
ctiva	-12.5414
compreen	-12.5417
olítico	-12.5422
rilh	-12.543
erceiro	-12.5431
omin	-12.5437
vend	-12.5438
inad	-12.5446
▁dete	-12.5447
ausa	-12.5449
autor	-12.5469
▁det	-12.5497
uper	-12.5503
imagin	-12.5507
escrit	-12.5512
▁Constitu	-12.5517
▁sit	-12.5527
ratamento	-12.5531
nerg	-12.5534
João	-12.5541
orne	-12.5547
▁seman	-12.5548
oci	-12.5557
municação	-12.5568
▁Direit	-12.5569
rticul	-12.5569
cumpri	-12.5587
zend	-12.5587
▁moment	-12.5588
conta	-12.559
▁publi	-12.5591
Grande	-12.5595
▁cresci	-12.5601
public	-12.5607
ituação	-12.5611
pelos	-12.5626
meiro	-12.5629
ficar	-12.5633
explic	-12.5636
evido	-12.5636
div	-12.5641
sider	-12.5651
▁gru	-12.5653
iando	-12.5657
integr	-12.5661
▁cos	-12.5666
arda	-12.5668
quest	-12.5679
mid	-12.5683
Lo	-12.5686
odas	-12.5688
inanciamento	-12.5694
renç	-12.5695
desc	-12.5701
▁primeir	-12.5706
orna	-12.5706
militar	-12.5709
▁anál	-12.5715
sup	-12.5718
rai	-12.5719
sustent	-12.5719
parec	-12.5729
Si	-12.5729
risc	-12.5733
▁mili	-12.5737
benefício	-12.5738
iental	-12.5743
▁fes	-12.5749
fala	-12.5752
▁recurs	-12.5755
pessoal	-12.5762
time	-12.5763
blicos	-12.5765
ercebe	-12.5766
hama	-12.5767
sente	-12.5767
ifes	-12.5767
dentro	-12.5777
▁aber	-12.5778
▁desti	-12.578
▁econômic	-12.58
uli	-12.5809
anifest	-12.581
modelo	-12.5813
aracterísticas	-12.5818
nclui	-12.5826
título	-12.5832
ilme	-12.5838
rganizad	-12.585
onh	-12.5851
rp	-12.5852
adeir	-12.5856
escrito	-12.5856
neste	-12.5859
nunca	-12.5864
▁desaf	-12.5874
vol	-12.5875
................	-12.5876
eit	-12.5876
aminho	-12.5877
vestimentos	-12.5882
análise	-12.5912
utado	-12.592
▁socie	-12.592
▁seri	-12.5924
istó	-12.5925
alis	-12.5931
roce	-12.5932
emor	-12.5933
oman	-12.5935
cimentos	-12.5949
região	-12.596
edia	-12.5977
peri	-12.5981
nciona	-12.5983
onco	-12.6001
▁conti	-12.6007
uente	-12.6019
melhor	-12.6021
retor	-12.6021
▁mot	-12.6031
ralmente	-12.6036
diferente	-12.6045
aul	-12.6047
sitivo	-12.6051
▁ges	-12.6052
prefeit	-12.6057
ferece	-12.606
emátic	-12.606
organiza	-12.6061
onalidade	-12.6063
avor	-12.6068
consider	-12.6081
omeça	-12.6082
conform	-12.6083
nível	-12.6086
articipar	-12.6105
Conselho	-12.6105
dela	-12.6115
▁dec	-12.6115
eligi	-12.612
lui	-12.6124
última	-12.6141
mpeonato	-12.6149
rocess	-12.6155
▁técnic	-12.6158
entação	-12.617
model	-12.6174
nvestimentos	-12.6182
rienta	-12.6188
físic	-12.619
hega	-12.6207
▁jornalis	-12.621
acter	-12.6213
seguid	-12.6218
arceria	-12.6231
ament	-12.6244
▁cerc	-12.6249
▁abo	-12.6256
ergunt	-12.626
apesar	-12.6264
tinh	-12.6267
lver	-12.6273
duc	-12.6293
rod	-12.6295
referi	-12.6296
aneja	-12.6302
uo	-12.6312
umas	-12.6313
maç	-12.6322
vulg	-12.6335
▁muit	-12.6339
trabalho	-12.6339
jornal	-12.634
rrer	-12.6341
Maria	-12.6342
question	-12.6343
rcer	-12.6351
ceito	-12.6355
ossi	-12.6359
aproveita	-12.636
direit	-12.6367
ivulga	-12.6394
▁nom	-12.6406
discut	-12.6409
arn	-12.6411
mérica	-12.6417
étic	-12.6421
▁benefic	-12.6426
ient	-12.6429
recisa	-12.6429
candidatos	-12.6444
▁diversa	-12.6465
clus	-12.6477
fazendo	-12.6481
alme	-12.6482
oorden	-12.6487
unica	-12.6488
guir	-12.6491
essante	-12.6499
lamentar	-12.6507
(1	-12.6507
iê	-12.651
ogi	-12.6518
▁históri	-12.652
empresa	-12.6521
contin	-12.6522
▁mane	-12.6526
▁acom	-12.6527
asa	-12.6528
merc	-12.6537
nício	-12.654
risco	-12.6545
rganiz	-12.6564
▁estiv	-12.6566
ução	-12.6567
▁mund	-12.657
▁dir	-12.6585
uaç	-12.6588
pend	-12.6588
osse	-12.6591
capital	-12.6595
nota	-12.6596
somente	-12.66
ocumento	-12.6615
▁Francis	-12.6618
vad	-12.6619
estaura	-12.6622
ficação	-12.6638
omeçou	-12.6641
ocupa	-12.6644
funciona	-12.6644
qualquer	-12.6646
egui	-12.6651
lítico	-12.6652
Projeto	-12.6656
▁havi	-12.6659
▁considerad	-12.6668
ocali	-12.667
resc	-12.668
resta	-12.6688
prop	-12.6689
evid	-12.6689
eci	-12.6691
uci	-12.6693
mostr	-12.6694
ein	-12.6699
ovas	-12.6704
sid	-12.6704
nstrumento	-12.6709
uit	-12.6717
estin	-12.6722
studant	-12.6723
mpanhia	-12.6731
vereador	-12.6732
volt	-12.6733
uei	-12.6756
ontribui	-12.6756
▁assi	-12.6759
ervi	-12.6764
tóric	-12.6787
Ent	-12.6794
cupa	-12.6799
erritório	-12.6801
uindo	-12.6809
torn	-12.681
qual	-12.6815
ialista	-12.6818
rtam	-12.6829
▁disponibili	-12.6836
▁espaç	-12.684
menor	-12.6841
reciso	-12.6845
estabelecid	-12.6848
odem	-12.6852
ciamento	-12.6856
ilm	-12.6857
▁conhecid	-12.6859
roposta	-12.6862
▁ut	-12.6863
ndica	-12.6866
▁dent	-12.6871
▁abe	-12.6874
gum	-12.6876
lane	-12.6882
sociais	-12.6884
riar	-12.6885
saúde	-12.6895
errament	-12.6897
lent	-12.6901
primeiro	-12.6903
istribui	-12.6909
▁brasileir	-12.6912
tara	-12.6918
cie	-12.6919
teg	-12.6924
mbiente	-12.6932
nalis	-12.6933
interesse	-12.6938
▁administrativ	-12.6939
ssiona	-12.6943
stitut	-12.6943
nalisa	-12.696
▁efe	-12.6967
assar	-12.6972
▁tex	-12.6998
dústria	-12.6998
cart	-12.7003
▁crian	-12.7011
▁aci	-12.7013
ssiv	-12.7017
Mu	-12.703
rodutor	-12.7032
esqu	-12.7032
uncionários	-12.7037
serv	-12.7042
roced	-12.7042
marc	-12.7062
pecial	-12.7071
rofes	-12.708
Cri	-12.7086
▁term	-12.7087
erne	-12.709
ngress	-12.7091
lassifica	-12.7094
Durante	-12.7098
orci	-12.7098
Secretaria	-12.7116
hore	-12.7117
mater	-12.7124
▁superi	-12.7131
tifi	-12.7134
nq	-12.7136
homem	-12.714
▁artist	-12.7146
adequa	-12.7147
lhad	-12.7148
suário	-12.7154
erenci	-12.7158
gula	-12.7162
espaço	-12.7165
iamente	-12.7172
upos	-12.7172
efic	-12.7175
ues	-12.7175
▁operaç	-12.7181
ontrato	-12.7183
xt	-12.7193
▁palavr	-12.7201
apacidade	-12.7217
enefícios	-12.7219
vestiment	-12.7224
text	-12.7227
ontar	-12.7235
lant	-12.7235
possibilidade	-12.7244
ltera	-12.7255
admi	-12.7276
▁cuidad	-12.7279
blem	-12.7289
algo	-12.7292
cessos	-12.7293
zadas	-12.7295
será	-12.7295
▁cois	-12.7303
iou	-12.7304
tade	-12.7317
tecn	-12.7318
▁President	-12.7326
dual	-12.7328
omens	-12.7333
▁apro	-12.7334
indústria	-12.7335
afirmou	-12.7338
mund	-12.7347
coisa	-12.7348
ntende	-12.7353
entais	-12.7357
cut	-12.7359
horas	-12.7361
ífi	-12.7362
semana	-12.7369
▁proj	-12.7371
classifica	-12.7384
▁paci	-12.7386
ndente	-12.7391
cond	-12.7403
ssores	-12.7405
ossibili	-12.7406
comunic	-12.7414
omer	-12.7418
eletrônic	-12.742
ompetência	-12.742
gera	-12.7425
tati	-12.7434
ncen	-12.7439
Va	-12.7445
▁atin	-12.7453
religi	-12.7455
buna	-12.7455
cte	-12.7457
iveram	-12.7457
tece	-12.7461
Ter	-12.7472
nalmente	-12.7474
olência	-12.7482
▁Polí	-12.7482
comend	-12.7483
dvogad	-12.7489
rincipal	-12.7494
▁relacionad	-12.7496
financeira	-12.7509
ceber	-12.7513
ubli	-12.7519
temp	-12.752
mati	-12.7525
nteressante	-12.7529
Quan	-12.7534
hões	-12.7537
ntir	-12.7541
▁unida	-12.7547
ciedade	-12.755
prego	-12.7555
stina	-12.7555
nselho	-12.7556
stiga	-12.7558
▁preç	-12.756
ntais	-12.7567
nolog	-12.7574
erdade	-12.759
isita	-12.7595
visto	-12.7597
seri	-12.7601
▁chego	-12.7606
ifíci	-12.7617
▁preve	-12.762
nim	-12.762
▁minut	-12.7626
rincipais	-12.7627
rviço	-12.7628
▁minist	-12.7637
ategoria	-12.7644
nif	-12.7649
romet	-12.7655
scente	-12.7655
rete	-12.7661
essan	-12.7662
ordenador	-12.767
bst	-12.767
delo	-12.7674
fende	-12.768
verd	-12.7685
diç	-12.7685
maior	-12.769
mov	-12.7701
▁gos	-12.7702
anima	-12.7704
onhecido	-12.7706
upe	-12.7716
embra	-12.773
ét	-12.7734
relação	-12.7735
▁exper	-12.7736
▁grup	-12.7742
alhad	-12.7743
exist	-12.7744
continu	-12.775
▁forne	-12.775
mpresário	-12.7753
agamento	-12.777
reito	-12.7787
dutos	-12.7787
complet	-12.7793
meio	-12.7793
pital	-12.7799
antig	-12.7808
tiga	-12.7813
▁Dese	-12.7825
bie	-12.7832
Pre	-12.7845
nologia	-12.7853
ntim	-12.7855
▁tenh	-12.7858
Ve	-12.7872
brasil	-12.7876
Gr	-12.7878
omuni	-12.7882
nen	-12.7882
seg	-12.7893
varia	-12.7895
envolver	-12.7902
american	-12.7904
ciam	-12.7915
cheg	-12.7933
asto	-12.7939
stant	-12.7944
sum	-12.7955
▁tempora	-12.7956
onsiderado	-12.7959
nheir	-12.7962
olvido	-12.7967
orienta	-12.7972
amanh	-12.7977
lame	-12.7981
transporte	-12.7988
▁pesqu	-12.7996
licad	-12.8004
economia	-12.8005
uidado	-12.801
subst	-12.8014
▁materia	-12.8015
significa	-12.8019
formar	-12.8029
empor	-12.803
reque	-12.8033
sun	-12.8046
teste	-12.8047
conse	-12.8057
ransport	-12.8059
▁dispon	-12.8061
ncluindo	-12.8062
itura	-12.8063
rtic	-12.8069
jun	-12.8075
grupo	-12.8081
leit	-12.8096
▁Institut	-12.8102
especialmente	-12.8102
▁devi	-12.8111
produto	-12.8113
did	-12.8117
damento	-12.812
▁cora	-12.8124
▁Améric	-12.8128
oming	-12.8133
efeito	-12.8138
redit	-12.8144
gulament	-12.8145
produzid	-12.8149
▁cres	-12.8149
anci	-12.8158
arti	-12.8162
ampo	-12.8174
inten	-12.8177
▁compu	-12.819
adua	-12.8197
liente	-12.8199
stó	-12.8204
resci	-12.8217
▁Cultur	-12.8217
osição	-12.8226
leti	-12.8228
squ	-12.8229
último	-12.8244
stig	-12.8245
limentos	-12.8262
José	-12.8275
▁faze	-12.8278
irro	-12.8279
spa	-12.8279
▁potenci	-12.8289
oqu	-12.8291
íticos	-12.8292
outro	-12.8296
▁medicament	-12.8303
alguns	-12.8305
renta	-12.831
vembro	-12.8315
sl	-12.832
▁particula	-12.8321
assou	-12.8327
começar	-12.8337
lidad	-12.8344
ensamento	-12.8355
▁estabele	-12.8359
come	-12.8371
deixa	-12.838
rient	-12.8386
emba	-12.8389
▁minh	-12.8397
aste	-12.84
ribu	-12.8402
claro	-12.8408
ntidades	-12.8454
rein	-12.8466
entrar	-12.8473
som	-12.8487
modo	-12.8493
iári	-12.8497
▁soc	-12.8497
alimentação	-12.8508
▁preside	-12.8512
pora	-12.8516
corri	-12.8541
esf	-12.8554
niciativa	-12.8555
Ant	-12.8559
ransform	-12.8565
sponsabilidade	-12.8569
▁palestr	-12.8572
Saúde	-12.8575
ocumentos	-12.8575
sulta	-12.8596
inicia	-12.8598
stitu	-12.8599
abal	-12.86
grafi	-12.8628
arantir	-12.8632
programa	-12.8637
rnando	-12.8638
mprimento	-12.8649
temporada	-12.8651
equer	-12.8651
infe	-12.8656
rofi	-12.8664
▁envol	-12.8666
evita	-12.8667
regula	-12.8669
ndividua	-12.8673
conto	-12.8675
carro	-12.8678
crític	-12.8683
sus	-12.8688
..........	-12.8691
produtor	-12.8696
▁linh	-12.8697
gistr	-12.8703
eríodo	-12.8706
roblemas	-12.8706
▁espéci	-12.8707
criação	-12.871
▁Jus	-12.8735
amí	-12.8743
▁concl	-12.8764
naliza	-12.8794
Cu	-12.8795
sten	-12.8797
ômi	-12.8804
ontas	-12.8813
partir	-12.8818
Port	-12.882
........	-12.882
acab	-12.8827
média	-12.8837
riza	-12.8843
ganha	-12.8847
cati	-12.8848
▁chamad	-12.8851
ectiv	-12.8853
Ass	-12.8853
rican	-12.886
▁aquel	-12.8867
Tribunal	-12.8871
olt	-12.888
circu	-12.8881
ucesso	-12.8884
inu	-12.8895
gara	-12.8901
reir	-12.8908
mplement	-12.8909
▁exer	-12.8909
pli	-12.8912
presentar	-12.8915
kkkkkkkkkkkkkkkk	-12.892
Rec	-12.8922
itua	-12.8922
laç	-12.8929
enciona	-12.893
cien	-12.8945
existe	-12.8946
▁diverso	-12.8947
Bar	-12.8951
▁interp	-12.8957
história	-12.8959
ectiva	-12.8969
portam	-12.8975
rocedimento	-12.8976
mort	-12.8977
lanta	-12.898
portunidade	-12.8986
tai	-12.8997
urad	-12.9017
▁difer	-12.9019
nciam	-12.9019
▁excl	-12.9028
orqu	-12.9029
omentários	-12.9033
espos	-12.9038
▁element	-12.9039
óx	-12.9047
muda	-12.9048
ambiente	-12.9049
proveita	-12.905
▁revist	-12.9069
enor	-12.9072
▁transf	-12.9084
entrada	-12.9087
▁sext	-12.9092
nvestimento	-12.9096
rgan	-12.91
olver	-12.9106
ontra	-12.9115
ídic	-12.912
plant	-12.9122
onteúdo	-12.9145
oncei	-12.9147
uin	-12.9147
dimento	-12.9155
pios	-12.9164
requ	-12.9172
prime	-12.9175
crédito	-12.9201
eclara	-12.9214
eitura	-12.922
▁categori	-12.922
ncent	-12.9226
oa	-12.9232
ormal	-12.9239
às	-12.9248
sai	-12.9254
filme	-12.9257
Departamento	-12.9257
lime	-12.9259
comunicaç	-12.9263
ntido	-12.9269
rocedimentos	-12.9274
tage	-12.9283
habi	-12.929
atualiza	-12.9295
ssan	-12.9295
prin	-12.9299
acima	-12.9308
Comp	-12.9309
At	-12.9327
judici	-12.9338
onstituição	-12.9341
iç	-12.9362
verdade	-12.9366
elhores	-12.9376
empreend	-12.9379
ntífic	-12.9382
ostar	-12.9387
▁dentr	-12.9388
empresas	-12.9399
carr	-12.94
vro	-12.9409
conc	-12.9425
Ministério	-12.9429
role	-12.9437
presentado	-12.9445
izer	-12.9446
rviços	-12.9447
avaliação	-12.9451
Cam	-12.9464
Brasília	-12.9466
ocaliza	-12.9469
mpl	-12.9487
▁abaix	-12.9496
Sen	-12.9499
jur	-12.9503
povo	-12.9521
gual	-12.9528
computador	-12.9528
urante	-12.9539
ugar	-12.9543
estig	-12.9546
quinta	-12.9551
spor	-12.9551
prob	-12.9565
íst	-12.9575
reocupa	-12.9583
esultado	-12.9589
médico	-12.9596
çã	-12.9598
▁Municip	-12.9609
▁confir	-12.9615
olhe	-12.9617
processo	-12.9617
blicas	-12.9631
stan	-12.9631
obs	-12.9635
olíticos	-12.9636
▁discu	-12.9653
eador	-12.9666
onada	-12.9672
entário	-12.9675
desenvolvimento	-12.9687
ism	-12.9692
lemb	-12.9699
sendo	-12.9701
financiamento	-12.9704
criar	-12.9708
ianças	-12.9735
andes	-12.9743
bera	-12.9746
enco	-12.9748
▁orig	-12.9755
specializa	-12.9761
esponde	-12.9772
ubs	-12.9775
crime	-12.9777
Ag	-12.9779
onsciência	-12.9785
cargo	-12.9804
emen	-12.9806
imagem	-12.9813
tencia	-12.9816
primeira	-12.9818
comunicação	-12.9818
▁dem	-12.9819
completa	-12.9821
morte	-12.9838
disponíve	-12.984
prev	-12.9847
ecla	-12.9854
utilização	-12.987
fabrica	-12.9871
ltimos	-12.9875
▁foss	-12.9875
ncl	-12.9876
cuti	-12.9889
Segu	-12.9895
▁Administr	-12.9926
Social	-12.993
nific	-12.994
Min	-12.9951
vário	-12.9952
lass	-12.9958
reforma	-12.9958
▁cultu	-12.9958
seria	-12.9977
movi	-12.998
ajuda	-12.9983
tele	-12.9991
▁independ	-12.9993
disc	-13.0022
sens	-13.0027
coo	-13.0028
stitui	-13.0028
suas	-13.0041
gião	-13.0049
▁susten	-13.0054
utoriza	-13.0073
oti	-13.0073
lgo	-13.0075
human	-13.0078
ercad	-13.0081
ficia	-13.0086
antidade	-13.0091
jogo	-13.0106
een	-13.0145
ntrole	-13.0145
entr	-13.015
▁produt	-13.0151
▁Fed	-13.0158
estad	-13.0158
extra	-13.0167
róprio	-13.0173
mpregado	-13.0174
ongo	-13.0179
muitas	-13.0186
ncor	-13.0194
nform	-13.0195
consult	-13.0197
deria	-13.02
poss	-13.0202
Cr	-13.0204
▁pesquisado	-13.0211
campa	-13.0218
test	-13.0221
idor	-13.0225
táv	-13.0227
traç	-13.0232
livr	-13.0249
espor	-13.025
esempenho	-13.0268
lise	-13.0291
▁proce	-13.0295
omportamento	-13.0301
eque	-13.0308
dest	-13.0313
alu	-13.0323
ssam	-13.0336
veria	-13.0338
▁comportam	-13.0341
enquanto	-13.0345
exer	-13.0348
▁cultur	-13.0361
inheir	-13.038
jorna	-13.0384
▁Cult	-13.0385
onhecer	-13.0387
exe	-13.0388
óri	-13.0389
stad	-13.0391
onados	-13.0397
Direito	-13.0398
sé	-13.0408
jetos	-13.0418
▁outr	-13.043
informação	-13.0436
refo	-13.0436
Ta	-13.0437
pala	-13.0455
Ga	-13.046
produ	-13.046
ermite	-13.0463
prefeitura	-13.0494
centemente	-13.0497
▁cabeç	-13.0498
conom	-13.0498
cresce	-13.0515
▁mundi	-13.0522
ermina	-13.0528
idado	-13.0533
decor	-13.0535
▁pov	-13.0547
queri	-13.0554
eba	-13.0558
xem	-13.057
rmação	-13.0574
pú	-13.0576
apare	-13.0577
nvolvimento	-13.058
instala	-13.058
energia	-13.0585
▁pesso	-13.0597
produtos	-13.0601
proporciona	-13.0604
specia	-13.0609
compar	-13.062
ositivo	-13.0621
lement	-13.0641
ernet	-13.0647
alavras	-13.0648
evel	-13.0649
ige	-13.065
nvi	-13.0655
nteir	-13.066
info	-13.0663
▁desi	-13.0665
limi	-13.0668
forte	-13.0705
eunião	-13.071
▁ofic	-13.0721
▁ouv	-13.0731
anu	-13.0747
ublicad	-13.0754
▁governado	-13.0766
▁hu	-13.0769
stu	-13.0772
▁seme	-13.0795
Santa	-13.0797
caminho	-13.0806
ivulg	-13.0808
deseja	-13.0809
▁enqu	-13.0814
assist	-13.083
oportu	-13.083
onti	-13.0845
isit	-13.0846
dete	-13.0846
staura	-13.0856
bad	-13.0858
▁demand	-13.0863
fazem	-13.0875
nclusive	-13.088
unto	-13.0881
▁orga	-13.0891
orida	-13.0898
ivid	-13.0901
prepar	-13.0906
ionam	-13.0915
▁realizad	-13.0922
express	-13.0936
uen	-13.0938
esde	-13.0945
▁tev	-13.096
Ale	-13.0975
conquista	-13.0977
indicado	-13.098
cresc	-13.0982
▁disciplin	-13.0997
sag	-13.1003
expl	-13.1004
cnologia	-13.1008
speci	-13.101
omen	-13.1013
▁desemp	-13.1018
onheci	-13.1019
arcer	-13.1025
rnado	-13.1077
▁nec	-13.1078
▁merca	-13.1107
ilidades	-13.113
nesse	-13.1135
tratam	-13.116
capit	-13.1164
▁Soc	-13.1164
nologi	-13.1173
sile	-13.1178
mercial	-13.1192
nai	-13.1193
aproveit	-13.1202
entidade	-13.1217
político	-13.1219
Ce	-13.123
livro	-13.1231
responsáveis	-13.124
rigin	-13.1247
reserva	-13.1249
▁obse	-13.125
spécie	-13.1272
acredita	-13.1272
alunos	-13.1273
eferi	-13.1286
serviço	-13.1301
eq	-13.1306
corrent	-13.1307
experi	-13.1319
íticas	-13.1331
ntrevista	-13.1337
rtid	-13.1345
▁candid	-13.1359
prega	-13.1372
ose	-13.1374
▁tota	-13.1377
capaci	-13.1399
família	-13.1402
controla	-13.1402
sent	-13.1403
udança	-13.1409
volv	-13.141
estamos	-13.1418
rmad	-13.1436
fren	-13.1444
ilizado	-13.1446
ransforma	-13.1452
uia	-13.146
▁Deu	-13.1481
termin	-13.1483
cioná	-13.1484
Inter	-13.1486
ompromisso	-13.1489
orp	-13.1493
uil	-13.1494
studo	-13.1499
hav	-13.15
segunda	-13.1502
orrente	-13.1511
visi	-13.1518
▁compromiss	-13.1523
▁águ	-13.1536
proc	-13.1542
iações	-13.155
meta	-13.1558
financeiro	-13.1559
estru	-13.1559
usad	-13.1559
erram	-13.1562
atual	-13.1563
▁reali	-13.1576
reja	-13.1596
nclusiv	-13.1598
ogado	-13.1602
ternet	-13.1604
▁Associ	-13.161
xperi	-13.1612
▁Bras	-13.1613
aior	-13.1617
discuti	-13.1618
mporta	-13.1632
ntár	-13.1641
oloca	-13.1643
estabelece	-13.165
pessoas	-13.1653
encontra	-13.1657
erramenta	-13.1665
orga	-13.1668
nsel	-13.1671
edica	-13.1686
através	-13.1692
Prefeit	-13.1697
▁dúvid	-13.17
categoria	-13.1704
ibera	-13.1712
muni	-13.1717
alhador	-13.1724
distribuição	-13.1727
asi	-13.1729
▁mui	-13.1731
lquer	-13.1747
epresentante	-13.1749
tram	-13.1754
Dire	-13.1762
caminha	-13.1801
abertura	-13.1803
defesa	-13.1805
róximo	-13.1805
jurídic	-13.1818
traz	-13.1818
▁dep	-13.1821
ueri	-13.1834
átic	-13.1836
elacionamento	-13.1856
álise	-13.187
iori	-13.1877
bjet	-13.1889
stões	-13.1896
▁independe	-13.1897
▁sér	-13.1902
▁infor	-13.191
organi	-13.1911
eputad	-13.1912
nscri	-13.1922
cai	-13.1935
comand	-13.1936
sig	-13.1952
▁computado	-13.196
sá	-13.1965
meir	-13.1978
encontrar	-13.1982
carg	-13.2004
compra	-13.2022
cole	-13.2027
issi	-13.2029
oderia	-13.2033
mín	-13.2035
observ	-13.2049
▁sust	-13.205
onsiderada	-13.2051
deix	-13.2055
ialmente	-13.2056
andidato	-13.2083
constituciona	-13.2086
capi	-13.2094
▁usuári	-13.2101
conjunto	-13.2105
quarta	-13.2105
deve	-13.2108
lter	-13.211
ramas	-13.2112
ied	-13.2123
radicional	-13.2127
assage	-13.2129
estaca	-13.2141
gran	-13.2144
ealizado	-13.2146
aterial	-13.215
ênci	-13.2153
Tr	-13.2154
ificad	-13.2163
histórico	-13.2163
foram	-13.2163
usten	-13.2168
vários	-13.2175
vence	-13.2177
possa	-13.2179
áreas	-13.2191
▁tecnologi	-13.2208
studante	-13.2212
ratu	-13.2216
nver	-13.223
ntid	-13.2233
orc	-13.2241
roj	-13.2243
prio	-13.2249
▁populaç	-13.2258
levan	-13.226
▁mun	-13.2265
membros	-13.2271
ruç	-13.2274
denado	-13.229
implesmente	-13.2293
▁transpor	-13.2294
aneira	-13.2308
nsul	-13.2308
ervação	-13.231
lest	-13.2315
esquis	-13.2318
energ	-13.233
igado	-13.2331
dmi	-13.2336
maneira	-13.2341
cuidado	-13.2344
planta	-13.2354
sec	-13.2356
eleiç	-13.236
side	-13.2363
ogramas	-13.2366
limenta	-13.2366
eso	-13.237
Portugal	-13.2374
▁oportuni	-13.2381
xto	-13.2381
otor	-13.2397
preocupa	-13.2397
utiliz	-13.2397
▁desenvol	-13.2398
balho	-13.2407
trole	-13.2411
▁bras	-13.242
▁ferrament	-13.2426
lece	-13.2429
▁profess	-13.2429
Pi	-13.2432
atado	-13.2433
▁Program	-13.2446
oficial	-13.246
determina	-13.2473
heres	-13.2484
possibili	-13.2487
caracteriza	-13.2495
quen	-13.2502
estu	-13.2507
anç	-13.2509
atendimento	-13.2512
olici	-13.252
▁últim	-13.252
terminado	-13.2529
▁disponi	-13.2534
ultado	-13.2535
rova	-13.2537
▁mercad	-13.254
sidência	-13.2544
estava	-13.255
plano	-13.2556
filho	-13.2558
inde	-13.256
apita	-13.2561
evan	-13.2563
▁deter	-13.2573
administrativo	-13.2577
outros	-13.2595
centra	-13.2604
▁conve	-13.2606
lternativa	-13.2614
opulação	-13.2619
gru	-13.2623
alida	-13.2625
tema	-13.2637
inistra	-13.2637
rua	-13.2638
▁Pref	-13.2653
trein	-13.2656
tard	-13.2659
dere	-13.2671
penh	-13.2675
cim	-13.2679
minis	-13.2687
termina	-13.2689
rnet	-13.2705
rmar	-13.2709
erando	-13.2712
▁advoga	-13.2713
etivos	-13.2733
berdade	-13.2737
cti	-13.2762
riação	-13.2762
isas	-13.2769
onhecida	-13.2771
▁tod	-13.2771
utiliza	-13.2776
estrutur	-13.2777
porém	-13.2781
norma	-13.2788
uestion	-13.279
Comissão	-13.2796
ndustria	-13.2799
tiça	-13.2801
conforme	-13.2804
corret	-13.2843
ontade	-13.2844
samento	-13.2847
éti	-13.2848
Educação	-13.2858
enf	-13.286
jetiv	-13.2863
clui	-13.2865
opos	-13.2866
ambienta	-13.2866
tegra	-13.2869
esquisador	-13.287
ompeti	-13.2875
ífic	-13.2892
reção	-13.2893
ociais	-13.2912
pont	-13.2922
busca	-13.2955
nvestig	-13.2962
talmente	-13.2963
igua	-13.2969
dizer	-13.2973
orma	-13.2981
▁decla	-13.2982
erid	-13.2987
crito	-13.2992
constitui	-13.2993
amigos	-13.3002
gué	-13.3002
materiais	-13.3004
onstant	-13.3005
minad	-13.3009
sexta	-13.3025
muitos	-13.3029
encontr	-13.3041
odel	-13.3041
ontrola	-13.3048
descobri	-13.3049
▁reun	-13.3051
laci	-13.3051
▁doenç	-13.3053
lgum	-13.3059
homens	-13.3073
spectiv	-13.3074
prepara	-13.3075
secretári	-13.3088
amig	-13.309
classific	-13.3097
...........	-13.3103
terça	-13.3113
domi	-13.3113
emonstra	-13.3116
fest	-13.3133
▁direi	-13.3135
ermane	-13.3144
▁exposiç	-13.3147
ransmi	-13.3161
rticular	-13.3164
omputador	-13.3173
cretário	-13.3183
▁pape	-13.3184
heir	-13.3186
▁respon	-13.3188
Cons	-13.3202
ltado	-13.3205
nosso	-13.3206
issiona	-13.3208
rç	-13.3244
recurso	-13.3259
venc	-13.3262
princípio	-13.3264
▁instalaç	-13.3272
inhe	-13.3275
rát	-13.3284
vidor	-13.3305
nião	-13.3309
uran	-13.3314
cidades	-13.3325
informações	-13.3333
mpet	-13.3342
sibil	-13.3344
roblema	-13.3346
positiv	-13.3358
lemas	-13.3372
sultados	-13.3377
stituições	-13.3383
scre	-13.3384
transfer	-13.3389
▁pedid	-13.3394
avalia	-13.3395
sess	-13.3396
sfor	-13.3396
lientes	-13.3407
eixa	-13.3411
sentido	-13.3421
govern	-13.3443
tudos	-13.3449
ninguém	-13.345
pamento	-13.3452
continua	-13.3453
▁acre	-13.3463
tilizado	-13.3464
stânci	-13.3467
▁ol	-13.3472
esma	-13.3473
públicas	-13.3487
▁Presid	-13.349
ressante	-13.35
▁apres	-13.3506
erde	-13.3507
▁coo	-13.3509
constitu	-13.3518
deci	-13.3522
rística	-13.3523
▁opo	-13.3535
...............	-13.3548
atica	-13.3554
lançamento	-13.3555
nten	-13.3555
próprio	-13.3556
dut	-13.3557
informa	-13.3567
pod	-13.3567
ersa	-13.3568
iferença	-13.357
profissionais	-13.3574
pena	-13.3574
inamento	-13.3576
rativ	-13.3579
umpri	-13.3592
Estados	-13.3593
raba	-13.3593
contrato	-13.3596
usti	-13.3596
avali	-13.3607
iden	-13.3611
alé	-13.3611
▁dei	-13.3615
açã	-13.3616
▁Desen	-13.362
proposta	-13.3623
sis	-13.3624
aracteriza	-13.3635
ongresso	-13.3635
Paul	-13.3637
período	-13.3648
nstan	-13.3663
rcial	-13.3665
aur	-13.367
rofe	-13.3672
arecer	-13.3675
preten	-13.3678
nst	-13.3679
sociedade	-13.3691
grandes	-13.3695
numa	-13.3703
Bra	-13.3707
interpreta	-13.3709
eclar	-13.3711
medida	-13.3717
exemplo	-13.3721
precisa	-13.3725
▁image	-13.3745
nven	-13.3748
Carlos	-13.3753
▁Desenvolvi	-13.3757
sábado	-13.3759
det	-13.376
após	-13.376
privad	-13.3761
substitu	-13.3761
lógic	-13.3766
▁jul	-13.3766
rtal	-13.378
popular	-13.3784
termo	-13.3794
▁eq	-13.3795
únic	-13.3797
ecnol	-13.38
▁transm	-13.3817
aponta	-13.3823
omia	-13.3824
sala	-13.3825
tuição	-13.3826
algumas	-13.3833
▁garan	-13.3836
procur	-13.3838
ânci	-13.384
reit	-13.3841
umenta	-13.3844
▁Minis	-13.3847
▁Portu	-13.3854
litar	-13.3855
nsumidor	-13.3858
ordenad	-13.3859
aulo	-13.3869
dom	-13.3874
▁categ	-13.3874
podem	-13.3886
iat	-13.3886
▁unid	-13.3887
efício	-13.39
pais	-13.3905
rencia	-13.3907
abaixo	-13.3909
eção	-13.3909
consciência	-13.3909
colocar	-13.3911
▁sere	-13.392
aso	-13.3927
causa	-13.3931
milia	-13.3933
▁financ	-13.3935
cost	-13.3939
qualidade	-13.3949
.........	-13.3953
etári	-13.3953
evant	-13.3958
problema	-13.3962
procura	-13.3963
▁quad	-13.3967
domingo	-13.3971
▁refo	-13.3976
lassific	-13.3976
liberdade	-13.3985
▁deco	-13.3992
ssí	-13.3998
Ci	-13.4001
once	-13.4008
dessa	-13.4009
derá	-13.4015
novos	-13.4024
ature	-13.4039
contribui	-13.4042
Mari	-13.4046
militares	-13.405
etaria	-13.4051
xclusiv	-13.4057
▁caracteri	-13.4061
luga	-13.4064
administrativa	-13.4069
ferenci	-13.4069
balh	-13.4078
▁dispositiv	-13.4091
jornalista	-13.41
ssoci	-13.4107
▁vist	-13.4108
rabalhador	-13.411
quipamento	-13.4111
nidos	-13.4116
cumpriment	-13.4136
▁liv	-13.414
gosta	-13.415
▁obj	-13.4158
ncontrar	-13.4163
praz	-13.4163
aluno	-13.4194
▁encont	-13.4205
ivers	-13.4214
▁polic	-13.4215
▁repre	-13.4219
onat	-13.4223
proxima	-13.4241
familiar	-13.4245
rens	-13.4251
▁cus	-13.4255
rent	-13.4258
▁dess	-13.4259
oduto	-13.4276
cativ	-13.4278
havi	-13.4282
edade	-13.4288
outra	-13.429
temente	-13.429
cretar	-13.4299
Pres	-13.4301
ersos	-13.4303
acio	-13.432
tant	-13.4322
zid	-13.4322
ospita	-13.4324
olve	-13.4329
sifica	-13.4335
proximadamente	-13.4342
início	-13.4344
Santos	-13.436
Dilma	-13.4363
amas	-13.4373
cialista	-13.4378
inform	-13.4382
▁daqu	-13.4384
acidente	-13.4389
brasileiro	-13.4397
Franc	-13.4402
serviços	-13.4404
mpress	-13.4411
cessi	-13.442
ecidi	-13.4421
longo	-13.4428
onhe	-13.4432
▁comport	-13.4433
industria	-13.4434
ráti	-13.4434
Cultura	-13.4438
ngr	-13.4445
investi	-13.4463
disponibil	-13.4466
ecomenda	-13.4469
▁Universidad	-13.4475
ecis	-13.448
spon	-13.4482
▁cum	-13.449
rpo	-13.4503
dera	-13.4508
istóric	-13.4508
dele	-13.4512
repe	-13.4518
▁ava	-13.4519
proxi	-13.4527
rsi	-13.4528
▁servid	-13.453
ntida	-13.4531
partilh	-13.4542
nfrenta	-13.4545
nsu	-13.4549
lusiv	-13.4558
aproximadamente	-13.4563
ilizada	-13.4565
inance	-13.4589
bje	-13.4595
experiência	-13.46
disciplin	-13.4601
cora	-13.4609
rópria	-13.4614
senti	-13.4623
stent	-13.4637
inua	-13.464
empregad	-13.4641
escon	-13.4651
erí	-13.4656
entific	-13.4661
vamente	-13.468
dentific	-13.4684
representa	-13.4684
professor	-13.4691
teriais	-13.4692
timentos	-13.4698
dena	-13.47
ontin	-13.4703
▁assunt	-13.4706
▁responsabi	-13.4711
rtista	-13.4724
provad	-13.4733
▁desenvolviment	-13.4738
▁úl	-13.4755
minho	-13.4774
Edu	-13.4774
portuni	-13.4803
gistro	-13.4807
▁salári	-13.4818
nsider	-13.4819
todas	-13.4822
ssad	-13.4824
▁expres	-13.4824
quere	-13.4827
ontinuar	-13.4828
unci	-13.483
onversa	-13.4838
regu	-13.4839
emora	-13.4845
esposta	-13.485
torna	-13.4868
▁ef	-13.4882
investimento	-13.4883
utilizado	-13.4884
andida	-13.4888
movimento	-13.489
taqu	-13.4894
pesquisa	-13.4899
comerci	-13.4903
▁prod	-13.4926
naliz	-13.4927
ossí	-13.4927
▁demon	-13.4927
rl	-13.4931
mpreend	-13.4931
perf	-13.4938
errame	-13.4944
eleva	-13.495
rvi	-13.4955
comunidade	-13.4961
nicia	-13.4967
oisas	-13.4967
líc	-13.4973
disposi	-13.4974
nsidera	-13.5001
ssional	-13.5013
refle	-13.5013
plane	-13.5015
Federa	-13.5019
ferenc	-13.502
▁nes	-13.5025
imentação	-13.5027
umen	-13.5038
fir	-13.5042
ignific	-13.5052
hecer	-13.5054
lternativ	-13.5062
olic	-13.5063
iên	-13.5067
isponíve	-13.5068
repa	-13.507
dentr	-13.5074
data	-13.5089
blema	-13.5089
espécie	-13.509
pons	-13.5124
dist	-13.5141
ilitar	-13.515
fam	-13.5154
▁Conse	-13.5155
▁substit	-13.5162
grand	-13.5162
saber	-13.5163
concentra	-13.5167
alguém	-13.5174
▁respons	-13.5181
rave	-13.5186
dato	-13.5189
▁siste	-13.5208
ecente	-13.5217
implement	-13.522
onhece	-13.5229
ormas	-13.5234
mercad	-13.5235
iciona	-13.5249
vr	-13.5257
arlo	-13.5267
anização	-13.5287
egad	-13.5293
egócio	-13.53
coordenador	-13.5301
clas	-13.5302
Trabalho	-13.531
entimento	-13.5318
iã	-13.5321
erso	-13.5324
▁prefe	-13.533
roporciona	-13.5334
unida	-13.5335
históric	-13.5352
acientes	-13.5354
tembro	-13.5354
lguma	-13.5359
raciona	-13.5378
aplica	-13.5387
rende	-13.5388
inve	-13.5388
desp	-13.5392
nid	-13.54
instal	-13.5402
Sec	-13.5417
iversos	-13.5419
ileiros	-13.5431
ncontra	-13.5439
ogra	-13.5467
▁melho	-13.5467
cionad	-13.5473
essos	-13.5475
simples	-13.5476
dirig	-13.5479
▁manuten	-13.5482
resença	-13.5488
ornar	-13.5492
proced	-13.5513
▁prati	-13.5526
mportância	-13.553
▁produç	-13.553
stituto	-13.5534
promo	-13.554
▁pú	-13.5547
rancisc	-13.555
rson	-13.5554
aprova	-13.5554
uard	-13.556
▁adolescent	-13.556
iamento	-13.5563
heg	-13.5564
local	-13.5566
assun	-13.5572
volvid	-13.5582
refei	-13.5583
▁exe	-13.5583
ecurso	-13.5595
xecut	-13.5597
▁homen	-13.5597
novas	-13.5598
tificad	-13.5614
▁jor	-13.5616
nido	-13.5616
▁constit	-13.5626
sultado	-13.5626
▁afirmo	-13.5634
lte	-13.5644
interessante	-13.5645
depende	-13.5648
▁documen	-13.5649
coloca	-13.5656
tureza	-13.5669
signific	-13.5677
xte	-13.5701
nív	-13.5704
América	-13.5715
onfi	-13.5718
pontos	-13.5718
nstrument	-13.5733
líticas	-13.5733
▁sã	-13.5739
assu	-13.5747
ormado	-13.5752
erê	-13.5753
festa	-13.5758
orient	-13.577
políticos	-13.5778
home	-13.5782
grupos	-13.5786
munica	-13.5788
visita	-13.5799
atéria	-13.5806
▁ago	-13.581
suc	-13.5816
undia	-13.583
nece	-13.5834
entid	-13.5843
estadua	-13.5852
Polícia	-13.5852
▁bene	-13.5865
objeto	-13.5878
scon	-13.5882
opul	-13.5889
elig	-13.5889
riç	-13.5891
Tri	-13.5897
empl	-13.59
uai	-13.5901
alid	-13.5909
partido	-13.5912
lare	-13.5915
nden	-13.5928
presentou	-13.593
letiv	-13.5934
ofer	-13.5934
independente	-13.5935
transp	-13.5942
capita	-13.5942
image	-13.5946
moc	-13.5955
enefício	-13.5956
hador	-13.5965
nômica	-13.5967
mília	-13.5969
▁númer	-13.5969
orrent	-13.5972
cebe	-13.5974
ticam	-13.5978
paciente	-13.5981
lgu	-13.5981
stiv	-13.5988
rtan	-13.6015
passage	-13.6024
apaci	-13.6027
▁signifi	-13.6033
olocar	-13.6041
guid	-13.6045
elmente	-13.6046
stim	-13.6056
criado	-13.6059
ldad	-13.6063
direitos	-13.6073
organizad	-13.6075
sabi	-13.6076
pequeno	-13.6079
▁argumen	-13.6087
▁lemb	-13.6091
palm	-13.61
▁present	-13.6108
olv	-13.611
evol	-13.6111
▁profi	-13.6112
vern	-13.613
vra	-13.6134
racion	-13.6134
durante	-13.614
ompa	-13.6141
distribu	-13.6142
entra	-13.615
▁interi	-13.6167
redu	-13.6176
articipantes	-13.6184
▁quest	-13.6186
dize	-13.619
efeitos	-13.619
decis	-13.62
present	-13.6201
anejamento	-13.6208
estam	-13.6212
▁apena	-13.6236
quad	-13.6243
percebe	-13.6244
San	-13.6249
▁ativi	-13.6253
▁dinheir	-13.6267
constr	-13.6267
escrev	-13.6269
retar	-13.6278
eletr	-13.6279
iliza	-13.6286
specialmente	-13.6291
Regi	-13.6308
começo	-13.6311
tadu	-13.6317
▁vár	-13.6325
▁diant	-13.6348
outras	-13.6354
matéria	-13.6354
funcionário	-13.6356
diment	-13.6359
reli	-13.6362
▁títul	-13.6369
Trabalh	-13.6379
▁artig	-13.6387
argument	-13.6387
quart	-13.6388
contro	-13.639
▁defe	-13.6394
empresário	-13.64
neir	-13.6407
crescen	-13.6409
prática	-13.6419
unc	-13.6423
fundament	-13.6461
iversas	-13.6463
tóri	-13.6488
Brasileira	-13.6509
vogado	-13.6509
ultural	-13.6522
▁houv	-13.6529
ident	-13.6531
iol	-13.6533
kkkkkkk	-13.6555
nsin	-13.6556
resposta	-13.6557
uíd	-13.6561
cidad	-13.6566
diss	-13.6592
líticos	-13.6609
suspe	-13.6615
resa	-13.6629
políticas	-13.663
ícu	-13.6644
médic	-13.6645
▁huma	-13.6647
▁obr	-13.6652
prensa	-13.6656
dinheiro	-13.6665
rame	-13.6672
estavam	-13.6685
regi	-13.6687
▁estudan	-13.6697
algu	-13.6698
onqui	-13.6698
declara	-13.6702
ernand	-13.6707
ertur	-13.6711
specífic	-13.6721
▁procediment	-13.6737
determinad	-13.6754
▁compart	-13.6761
vontade	-13.6767
diferentes	-13.6776
parta	-13.6781
ecl	-13.6782
emporada	-13.6783
refeito	-13.6783
adolescente	-13.6791
consumo	-13.6795
▁Franci	-13.6796
acionado	-13.6798
aulist	-13.6812
Governo	-13.6814
atua	-13.6816
Fr	-13.6824
vist	-13.6845
▁bairr	-13.6847
ecessidades	-13.6848
regulament	-13.6848
palavras	-13.6865
pap	-13.6873
igni	-13.6882
nômico	-13.69
efer	-13.6929
Justiça	-13.6929
Assi	-13.6937
oença	-13.6941
dore	-13.6948
▁Trib	-13.6949
oló	-13.6967
desta	-13.6971
hist	-13.6972
▁respei	-13.6973
erteza	-13.6974
edu	-13.6978
ntig	-13.6983
proteção	-13.6983
pequena	-13.6984
anej	-13.6987
total	-13.699
nvestigaç	-13.6993
onário	-13.6998
▁pub	-13.7001
amigo	-13.7009
relações	-13.7018
sários	-13.7019
egura	-13.7035
▁finali	-13.7036
evento	-13.7046
mot	-13.7048
icu	-13.7063
servi	-13.7067
música	-13.7086
stran	-13.7088
determin	-13.7093
toda	-13.7095
feitu	-13.7115
oven	-13.7127
▁acont	-13.7136
▁seguran	-13.7149
stória	-13.716
prome	-13.7163
aciona	-13.7163
portanto	-13.7169
desenvolvido	-13.7194
▁comu	-13.7197
▁enten	-13.7202
rincipalmente	-13.7203
organiz	-13.7207
acess	-13.722
ondições	-13.723
entifica	-13.7231
perman	-13.7234
alg	-13.7234
rtura	-13.7244
combate	-13.7248
▁responsabilida	-13.7253
veram	-13.7258
orrid	-13.7267
mud	-13.7279
mple	-13.7287
funcionários	-13.7298
lativa	-13.7303
repara	-13.7306
acon	-13.7318
prest	-13.7324
▁indivi	-13.7327
imit	-13.7339
eç	-13.7339
coisas	-13.7351
recuper	-13.7356
corren	-13.7359
perg	-13.7369
desa	-13.7381
▁lon	-13.7388
lacion	-13.7393
entem	-13.7395
conversa	-13.7402
parad	-13.7406
▁procu	-13.7419
ulad	-13.7443
aten	-13.7444
municipa	-13.7456
lhadores	-13.7456
órgão	-13.7463
arreir	-13.747
andidatos	-13.7472
Fernando	-13.7477
campanha	-13.7478
tâ	-13.7479
▁Públic	-13.7486
imple	-13.7488
ambé	-13.7489
usuário	-13.7506
nterior	-13.7523
escolas	-13.7527
impress	-13.7542
sult	-13.7567
necess	-13.7574
necessidade	-13.7578
oite	-13.76
medidas	-13.7601
avra	-13.7605
tav	-13.761
situação	-13.7613
dev	-13.7618
grej	-13.7621
acompanha	-13.7623
▁responsa	-13.7624
disp	-13.7624
pei	-13.7637
pação	-13.7643
sidera	-13.7651
speit	-13.7655
cessa	-13.7681
ecebe	-13.7685
convi	-13.7692
erio	-13.7692
pect	-13.7694
membro	-13.7703
quip	-13.7706
everia	-13.7726
úvida	-13.773
omunic	-13.7733
▁categor	-13.7743
mpanha	-13.775
assis	-13.7756
eren	-13.7779
écada	-13.7787
erceb	-13.7805
espect	-13.7813
erica	-13.782
gnific	-13.7826
rnalista	-13.7833
atualmente	-13.7859
cultur	-13.7861
selh	-13.7866
priva	-13.7867
erã	-13.7868
comuni	-13.7881
putad	-13.7882
presença	-13.7884
▁some	-13.7886
tist	-13.7887
rigina	-13.7889
erma	-13.7891
ógic	-13.7899
rtig	-13.7913
ortugu	-13.7913
aman	-13.7942
▁relig	-13.7952
afirm	-13.7962
maio	-13.7964
name	-13.7967
omiss	-13.7982
preciso	-13.7983
ntend	-13.8006
ermi	-13.8017
specializ	-13.8021
isado	-13.8022
igad	-13.8027
tebol	-13.8029
▁acredi	-13.8031
candida	-13.8032
stério	-13.8036
atic	-13.8038
ipal	-13.804
▁positi	-13.8057
dever	-13.8061
panhia	-13.8069
considerado	-13.8071
terceir	-13.8074
bse	-13.8075
▁possibil	-13.8086
contrat	-13.8087
ecupera	-13.8089
nômi	-13.8091
▁Fern	-13.8094
nforma	-13.8097
Nacional	-13.8115
caminh	-13.8116
ncei	-13.8119
custo	-13.8124
população	-13.8126
▁Fernan	-13.813
possu	-13.813
aplic	-13.8168
ecomend	-13.8173
xpectativa	-13.8183
ondu	-13.8193
rimeir	-13.821
vidênci	-13.8232
reco	-13.8236
servidor	-13.8243
cuida	-13.8251
▁respe	-13.8269
papel	-13.8275
cedi	-13.828
epa	-13.8285
nizad	-13.8291
rmou	-13.8291
Federal	-13.8292
ocu	-13.8296
stente	-13.8298
▁cien	-13.83
respo	-13.8301
efi	-13.8305
mpenho	-13.831
olicit	-13.8317
▁manifes	-13.8317
sumid	-13.832
▁regulamen	-13.8349
ampl	-13.8354
Comi	-13.8355
público	-13.8368
ersas	-13.8369
Público	-13.8378
tun	-13.8379
adequ	-13.8388
uncionamento	-13.8389
unic	-13.8389
ercial	-13.8389
atenção	-13.8403
tempora	-13.8406
mane	-13.841
entende	-13.8416
oç	-13.8422
uerr	-13.8427
promove	-13.8431
acord	-13.8432
compor	-13.8434
preg	-13.8443
unicação	-13.8445
aminh	-13.8445
▁pess	-13.8448
▁mudan	-13.845
rinh	-13.8458
gnifica	-13.8461
read	-13.8462
extrem	-13.8462
pensamento	-13.8466
..............	-13.8467
erei	-13.8474
iad	-13.8478
ecessidade	-13.8482
peci	-13.8494
epresenta	-13.8499
lhan	-13.85
fot	-13.8504
funcion	-13.8505
pró	-13.8505
▁concei	-13.8508
Pol	-13.8518
erdadeir	-13.8519
regad	-13.8526
troca	-13.8534
devid	-13.8539
req	-13.8546
nage	-13.8547
deputad	-13.8562
portugu	-13.8569
aos	-13.8573
trabalh	-13.8577
strut	-13.8577
▁cand	-13.8578
chamada	-13.858
pagam	-13.8582
hecido	-13.8588
kkkkkkkk	-13.8592
cobr	-13.8593
univers	-13.8593
alque	-13.8596
stabelecid	-13.86
rincip	-13.8601
▁nat	-13.8604
rific	-13.861
ermin	-13.8613
nun	-13.8622
utur	-13.8629
▁interessant	-13.8657
olicita	-13.8678
arac	-13.8696
mentários	-13.8704
Câmara	-13.8705
Interna	-13.8719
ossu	-13.872
pagamento	-13.8726
ssage	-13.8727
ipação	-13.8732
adual	-13.8734
egoria	-13.8737
articipante	-13.8748
antida	-13.8755
rien	-13.8759
refere	-13.8762
presta	-13.8775
próximo	-13.8777
ocup	-13.8779
irma	-13.8788
brasileiros	-13.8794
▁segund	-13.8802
anifesta	-13.8809
mulheres	-13.8815
Brasileiro	-13.8821
poderia	-13.8821
incip	-13.8833
sponsável	-13.8833
▁anterio	-13.8834
palavra	-13.8834
própria	-13.8838
uent	-13.8839
pelas	-13.8842
Educa	-13.8874
▁vereado	-13.8874
sele	-13.8876
▁conh	-13.8877
ntender	-13.8879
nclu	-13.888
trativ	-13.8886
rren	-13.8893
clu	-13.8894
entá	-13.8894
ofis	-13.8902
começa	-13.8925
ositiv	-13.8937
onstr	-13.8941
apresenta	-13.8945
ependência	-13.8945
ernan	-13.8981
reina	-13.8984
rendi	-13.8988
participação	-13.8996
▁opor	-13.9009
tratamento	-13.9015
Reg	-13.9024
amilia	-13.9025
▁socia	-13.9026
assag	-13.9034
explica	-13.9048
isponibiliza	-13.9052
▁profis	-13.9058
aumento	-13.9069
entários	-13.9086
▁idei	-13.9098
deixar	-13.9103
distribui	-13.9119
▁coi	-13.9138
petência	-13.9145
▁quan	-13.9152
presentantes	-13.9166
huma	-13.917
conheci	-13.9176
Ri	-13.9179
institu	-13.9188
realidade	-13.9192
conhe	-13.92
reven	-13.9202
eonat	-13.9209
ndência	-13.9214
estab	-13.9223
importante	-13.9235
arar	-13.9236
condu	-13.9237
creve	-13.9244
▁finan	-13.9251
nju	-13.9255
▁proble	-13.926
ouvi	-13.9273
velocidade	-13.9273
▁atenç	-13.9286
século	-13.9287
omplet	-13.9293
frente	-13.9299
rodut	-13.9301
▁prep	-13.9307
oxim	-13.931
oordenado	-13.9325
filhos	-13.9333
ndid	-13.9334
supo	-13.9341
▁Estadu	-13.9342
otencial	-13.9344
edr	-13.9361
▁conheciment	-13.9363
interessado	-13.9364
raticamente	-13.9396
transpo	-13.9406
terísticas	-13.9411
resente	-13.942
erfei	-13.9422
milhões	-13.9436
ead	-13.9443
escri	-13.9464
inan	-13.9471
nenhum	-13.9474
contrata	-13.948
méric	-13.9482
even	-13.9483
defende	-13.9494
falar	-13.95
▁Secre	-13.9508
ecid	-13.9509
▁púb	-13.9516
▁trabalhad	-13.9524
rsa	-13.9536
paço	-13.9541
futuro	-13.9552
recid	-13.9552
setor	-13.9556
tituição	-13.9559
país	-13.9576
projetos	-13.9586
omeçar	-13.9588
oderá	-13.9593
sibili	-13.9594
ement	-13.9596
mbor	-13.9598
feli	-13.9601
compromiss	-13.9613
alimenta	-13.9618
humano	-13.964
milh	-13.9649
▁libe	-13.9652
muita	-13.9669
entend	-13.9672
omenda	-13.9672
tend	-13.9674
Francisco	-13.9691
ondi	-13.9707
▁Naciona	-13.9713
▁Secretari	-13.9713
aciente	-13.9728
onsul	-13.9736
bairro	-13.9744
espond	-13.9753
▁entrad	-13.9762
Santo	-13.9769
propor	-13.9772
alcan	-13.9775
defin	-13.9782
ocaliz	-13.9792
espeito	-13.9793
ividades	-13.9794
apresentação	-13.9794
luno	-13.9796
▁Tribun	-13.9811
nhad	-13.9811
financia	-13.9811
odutos	-13.9816
Feder	-13.9822
▁munici	-13.9838
▁excelent	-13.9842
aprov	-13.9851
onven	-13.9861
▁alte	-13.9861
pret	-13.9862
vim	-13.9864
chamado	-13.9867
▁conj	-13.9875
invest	-13.9892
escr	-13.9896
olvid	-13.99
execut	-13.9916
Int	-13.9917
ndim	-13.9921
sidente	-13.9921
cort	-13.9927
autoriza	-13.9933
Desenvolvimento	-13.9934
▁acei	-13.9955
ampe	-13.9959
proprie	-13.9968
avé	-13.9969
nsult	-13.9984
conte	-13.9986
anei	-13.9992
valores	-13.9997
verdadeir	-14.0006
sad	-14.0018
tala	-14.0018
relat	-14.0018
vere	-14.0027
mpor	-14.0027
onom	-14.0055
ndividu	-14.006
nquista	-14.0062
ornalis	-14.0064
Escol	-14.0068
decisão	-14.007
▁tud	-14.0073
compr	-14.0075
mentário	-14.0075
▁disponibi	-14.0079
lient	-14.0092
▁jornalist	-14.0104
ompleta	-14.011
alav	-14.0117
sentad	-14.012
ultu	-14.014
terceiro	-14.014
parceria	-14.0141
oportun	-14.0143
▁conside	-14.0147
presentes	-14.0152
mbém	-14.0162
ransf	-14.0176
Seg	-14.0188
▁nen	-14.0188
rátic	-14.019
ografi	-14.02
eículo	-14.0209
isputa	-14.0211
edução	-14.0227
lavr	-14.0236
ontrat	-14.0244
efici	-14.0256
▁Progr	-14.0257
ealizar	-14.0258
nterpreta	-14.0265
icie	-14.0272
partament	-14.0274
ument	-14.0274
▁tinh	-14.028
deveria	-14.0285
fiscal	-14.0287
referen	-14.0298
restaura	-14.0307
econ	-14.0311
complex	-14.0316
alisa	-14.0317
tencial	-14.0325
Fran	-14.0337
▁imag	-14.0368
roje	-14.0372
edera	-14.04
gund	-14.0406
estabelecimento	-14.0442
.............	-14.0443
perde	-14.0453
ogr	-14.0463
ntific	-14.0466
ofe	-14.0472
urai	-14.0472
▁sist	-14.0475
onclu	-14.0492
xpo	-14.0503
▁ocor	-14.0505
revist	-14.0519
quist	-14.052
redução	-14.0544
ocorre	-14.0562
efende	-14.0567
exp	-14.0574
prof	-14.0578
riad	-14.0589
omerci	-14.0597
ulhe	-14.0604
aneiro	-14.0611
▁gara	-14.0644
medicamento	-14.0648
▁representan	-14.065
sant	-14.0657
principal	-14.0659
xter	-14.0683
provo	-14.0684
▁maneir	-14.0715
perfe	-14.0719
futebol	-14.074
transforma	-14.0762
rdena	-14.0764
especialista	-14.0765
film	-14.077
mpenh	-14.0782
▁construç	-14.0786
igur	-14.0808
salário	-14.0818
▁ima	-14.082
realmente	-14.0834
▁classi	-14.0848
▁méd	-14.0851
tamb	-14.0854
registro	-14.0855
mpreg	-14.086
▁contat	-14.0864
ecuper	-14.0867
termos	-14.087
prom	-14.0882
prazo	-14.0888
▁aprovei	-14.0901
omentário	-14.0907
conju	-14.091
rvidores	-14.0915
vot	-14.0917
propriedade	-14.0934
ticul	-14.0936
ferramenta	-14.094
possui	-14.0941
sfo	-14.0947
quantidade	-14.0956
izan	-14.0963
Silva	-14.0975
constante	-14.0976
nhecimento	-14.0977
começou	-14.0983
presid	-14.0985
onamento	-14.0991
spen	-14.0991
ambient	-14.0992
considerada	-14.0996
roprie	-14.0999
lhador	-14.1
sidades	-14.1001
conv	-14.1003
recursos	-14.1004
▁assun	-14.1036
ompet	-14.1038
especial	-14.1051
cn	-14.1056
ouc	-14.1062
tidade	-14.1069
ofr	-14.1086
ofessor	-14.1088
xempl	-14.1091
romov	-14.1095
▁serviç	-14.1097
▁nã	-14.1097
▁prete	-14.1105
escimento	-14.1112
arrei	-14.1123
perfeit	-14.1123
defen	-14.1124
exter	-14.1129
▁favo	-14.1134
ober	-14.1139
▁comen	-14.1158
▁sentid	-14.1171
entrevista	-14.1181
endid	-14.1189
▁democ	-14.1192
intens	-14.12
garanti	-14.1212
cria	-14.1213
participantes	-14.1215
daç	-14.1216
bém	-14.1218
blemas	-14.1226
merci	-14.1231
epartamento	-14.1232
evem	-14.1239
econômic	-14.1253
ract	-14.1257
uida	-14.1264
▁relaç	-14.1264
quais	-14.1266
orresponde	-14.1272
ealiz	-14.1281
onvers	-14.1282
sej	-14.1287
provei	-14.1296
problemas	-14.1296
cres	-14.13
ssário	-14.1314
ganh	-14.132
▁Univ	-14.1323
rancisco	-14.1326
rísticas	-14.1333
mend	-14.1334
selho	-14.1336
condições	-14.1348
nef	-14.1352
mínim	-14.137
tór	-14.1372
efin	-14.1377
cliente	-14.1387
judi	-14.1396
aproxima	-14.1404
meça	-14.1408
▁compe	-14.1411
época	-14.1413
pacidade	-14.142
casos	-14.1425
▁importan	-14.1442
trei	-14.1443
isla	-14.1444
efetiv	-14.1446
Univers	-14.1448
▁fos	-14.1459
adore	-14.147
lhor	-14.1509
▁edu	-14.1524
prec	-14.1525
nsta	-14.1541
amad	-14.1549
aplicação	-14.1552
uad	-14.1574
previst	-14.1574
▁integ	-14.1578
asos	-14.1579
............	-14.1584
xplica	-14.1587
Govern	-14.1602
professores	-14.161
nfe	-14.1629
▁naciona	-14.1629
específic	-14.1637
▁recent	-14.1639
comercial	-14.165
oviment	-14.1661
mesma	-14.1664
nfrent	-14.1667
ísic	-14.1672
▁respost	-14.1681
nstituto	-14.1682
cumen	-14.1685
detalh	-14.1698
stria	-14.1703
nfr	-14.1725
sequ	-14.1728
instrumento	-14.1729
ndivíduo	-14.1735
mpan	-14.1743
entrega	-14.1745
▁prepa	-14.1746
coloc	-14.1759
mport	-14.1762
recis	-14.1778
oposta	-14.1779
ntinua	-14.1782
▁manh	-14.1789
icit	-14.179
▁poderi	-14.1797
erceir	-14.1814
prove	-14.1814
document	-14.1818
▁Brasi	-14.182
otalmente	-14.1821
ssis	-14.1823
iní	-14.183
náli	-14.1835
crescimento	-14.1857
udic	-14.187
aminha	-14.1874
asil	-14.1887
quat	-14.1893
Prefeitura	-14.1906
isten	-14.1908
ssunt	-14.1926
alimentos	-14.193
▁deputa	-14.1941
evis	-14.1956
administração	-14.1972
interpret	-14.1977
sador	-14.1988
ntinu	-14.1997
▁independent	-14.1998
nife	-14.1999
ssin	-14.2002
Fernand	-14.2004
icid	-14.2007
polí	-14.2016
tiver	-14.2017
uinta	-14.2029
ceit	-14.203
nutenção	-14.2038
omente	-14.2063
cand	-14.207
impos	-14.2073
Administração	-14.2084
anis	-14.209
▁uti	-14.2094
lóg	-14.2099
conseq	-14.2106
tivi	-14.2113
rant	-14.2116
basta	-14.2117
▁munic	-14.2123
tár	-14.2123
Silv	-14.2131
adame	-14.214
doc	-14.2143
momento	-14.2148
ortu	-14.2157
convers	-14.2157
apoi	-14.2158
sabili	-14.2162
hecida	-14.2163
meses	-14.2164
kkkkkkkkkk	-14.217
inclui	-14.218
subs	-14.2183
▁Milita	-14.2184
anism	-14.2185
apresentado	-14.2187
relacionada	-14.2187
despe	-14.2188
ráfic	-14.219
ompartilha	-14.2195
chegar	-14.2207
concor	-14.221
nenhuma	-14.2232
ndustri	-14.2247
interior	-14.2251
zações	-14.2254
conteúdo	-14.2257
róxi	-14.2281
ificativ	-14.2302
▁solici	-14.2305
áre	-14.2306
ntrada	-14.2307
janeiro	-14.2309
▁embor	-14.2314
▁inves	-14.2317
gand	-14.2322
superior	-14.2327
permiti	-14.2329
particular	-14.2341
estratégia	-14.2355
benefici	-14.2364
individua	-14.2365
comprar	-14.2366
Segund	-14.2371
kkkkkkkkkkkkkkk	-14.2372
cisa	-14.2377
lvim	-14.2387
espeit	-14.2389
mpara	-14.2393
omunicaç	-14.24
oas	-14.2408
estudo	-14.2412
▁fundamen	-14.2423
▁avan	-14.2425
compre	-14.2427
jornalis	-14.2478
▁manutenç	-14.248
▁apresen	-14.2484
obrig	-14.2492
reador	-14.2494
venç	-14.25
ificuldade	-14.2501
▁Segun	-14.2501
▁matéri	-14.2503
identifica	-14.2505
▁compan	-14.2513
icult	-14.2519
omercia	-14.2525
sunto	-14.2543
▁conteúd	-14.2546
róxima	-14.2549
altera	-14.2576
rlamentar	-14.2578
ntári	-14.258
▁fede	-14.2582
nidad	-14.2586
ican	-14.2605
▁conco	-14.2612
dúvida	-14.2613
mudança	-14.2623
▁campa	-14.2624
características	-14.2629
fornece	-14.2641
nament	-14.2644
oncentra	-14.265
▁terc	-14.2654
egular	-14.2655
ificuldades	-14.2657
contato	-14.2663
eciona	-14.2672
leci	-14.2672
sã	-14.2687
clusiv	-14.2688
▁implan	-14.2707
compromisso	-14.2713
declar	-14.2715
ubst	-14.2716
niv	-14.2755
federal	-14.2763
conclu	-14.2771
esm	-14.2779
ompartilh	-14.2783
iniciativa	-14.2792
siv	-14.2797
receber	-14.2798
dentifi	-14.2802
scent	-14.2803
evar	-14.2805
onceit	-14.2805
▁medid	-14.2808
facil	-14.2822
istribu	-14.2834
acontece	-14.2843
tili	-14.2844
ultura	-14.2851
mpregad	-14.2856
alq	-14.2856
alun	-14.2857
▁Fede	-14.2867
mputado	-14.2868
rreir	-14.2872
praticamente	-14.2879
▁cui	-14.2898
unciona	-14.2915
jovens	-14.2921
resp	-14.2922
mostrar	-14.2937
consumidor	-14.2941
vitória	-14.2942
ideia	-14.2945
▁melhore	-14.2952
resce	-14.2955
▁exec	-14.2958
▁Durant	-14.2961
renc	-14.2969
▁moti	-14.2972
oisa	-14.2975
istro	-14.2978
alores	-14.2979
orador	-14.2982
▁nest	-14.2983
compos	-14.2985
utivo	-14.2992
estran	-14.3008
lifica	-14.3009
▁frent	-14.3012
relacionado	-14.3019
resso	-14.3021
▁luga	-14.3039
conhec	-14.305
Grand	-14.3061
▁Congress	-14.3064
redita	-14.3085
prátic	-14.309
▁aprove	-14.3094
realizado	-14.3095
interessad	-14.3104
Constituição	-14.3108
riores	-14.3126
trev	-14.3137
rimeiros	-14.314
rmal	-14.3141
Desenvolv	-14.3158
escolh	-14.3165
instrument	-14.3165
realização	-14.3168
atividades	-14.3179
sona	-14.3186
quipa	-14.3187
pergunta	-14.3188
prat	-14.3191
conver	-14.3196
nversa	-14.3203
manter	-14.321
ontrata	-14.3212
nhece	-14.3216
nstant	-14.3217
sposta	-14.3218
parlamentar	-14.3223
écnic	-14.3235
egisla	-14.3243
publicado	-14.3247
ilit	-14.3256
reç	-14.3261
enten	-14.3262
ntec	-14.3262
otal	-14.3266
ucio	-14.3282
profe	-14.3289
onjunt	-14.329
diret	-14.33
strad	-14.3322
aq	-14.3325
nvest	-14.3329
▁exis	-14.3339
verdadeira	-14.3346
▁represen	-14.3356
competi	-14.3362
▁comunidad	-14.3369
opinião	-14.338
scr	-14.3391
ersona	-14.3402
trabalhadores	-14.3406
fazend	-14.3415
abilida	-14.3415
violência	-14.3419
houve	-14.3419
proporcion	-14.3426
▁únic	-14.3429
clientes	-14.3431
▁computad	-14.3442
proje	-14.3454
▁supe	-14.3468
Centr	-14.3479
▁saúd	-14.3479
ratic	-14.3482
etermina	-14.3488
xclu	-14.3495
Nes	-14.3498
ocesso	-14.35
ssionais	-14.3506
arado	-14.3507
umido	-14.3511
istrado	-14.3512
nvolvido	-14.3515
▁prime	-14.3533
jogadores	-14.3537
elhora	-14.3539
Pau	-14.3549
julgamento	-14.3554
agosto	-14.3559
ecti	-14.356
▁defi	-14.3565
cativo	-14.3568
laneja	-14.3574
▁prese	-14.3575
entidades	-14.3577
kkkkkkkkk	-14.3577
questão	-14.3586
dependen	-14.3587
tári	-14.3596
▁porq	-14.3599
epública	-14.3606
entender	-14.3617
mpres	-14.3626
programação	-14.3635
manifesta	-14.3642
responde	-14.3651
exercício	-14.3655
internet	-14.3671
acesso	-14.3671
previ	-14.3677
rnan	-14.3677
República	-14.368
natureza	-14.3688
strat	-14.3689
▁trei	-14.369
oste	-14.3699
advogado	-14.3702
nossos	-14.3703
zad	-14.3712
imina	-14.3713
spos	-14.3716
mbé	-14.372
ranti	-14.3722
autori	-14.3737
▁fazen	-14.3749
indicat	-14.3751
associad	-14.3771
▁exemp	-14.3778
esq	-14.3781
eitu	-14.3783
novembro	-14.3786
trabalhar	-14.3795
▁compree	-14.3796
inist	-14.3797
vestiga	-14.38
epe	-14.3807
pende	-14.3816
equipamento	-14.3816
eixar	-14.3824
cretari	-14.3825
▁constant	-14.3829
versi	-14.3837
excelente	-14.3853
nvesti	-14.3861
▁Sistem	-14.3884
chama	-14.3886
ficient	-14.3898
kkkkkkkkkkkkkk	-14.3902
clusive	-14.3903
demonstra	-14.3942
minu	-14.3953
omand	-14.3958
dinheir	-14.3962
cerc	-14.3967
escen	-14.3978
confirma	-14.398
perio	-14.4004
fundam	-14.4013
concentr	-14.4041
equipa	-14.4042
exclu	-14.4045
▁dive	-14.4047
xpl	-14.4047
sific	-14.4049
debate	-14.4049
sde	-14.405
ecretari	-14.4054
▁tot	-14.4062
▁eletrôni	-14.4071
dên	-14.4074
conhecid	-14.4079
▁participan	-14.4094
▁aplicaç	-14.4098
regul	-14.4113
arant	-14.4115
sempenho	-14.4124
programas	-14.4126
apresentar	-14.4157
respectiv	-14.4169
perce	-14.4179
escolha	-14.4181
espec	-14.4187
havia	-14.4194
cono	-14.4196
aliação	-14.4211
erec	-14.4222
elementos	-14.4223
defes	-14.4239
soci	-14.4249
monstra	-14.425
iferencia	-14.4258
ndepend	-14.4268
observa	-14.4277
ileira	-14.4302
epen	-14.4305
▁adm	-14.431
▁anali	-14.432
njunto	-14.4325
difi	-14.4328
lementa	-14.4329
itiv	-14.433
setembro	-14.4344
ltados	-14.4358
stud	-14.4372
prot	-14.4374
adei	-14.4395
imeiro	-14.44
dispon	-14.441
precisam	-14.4418
descon	-14.4424
paci	-14.4428
▁assis	-14.4432
reconhec	-14.4434
abert	-14.4435
ociação	-14.4437
inis	-14.4442
uid	-14.4443
nhã	-14.4443
emonstr	-14.4448
aumenta	-14.4451
nergi	-14.4452
desen	-14.4452
▁neces	-14.4454
manutenção	-14.4458
recom	-14.4464
ssoa	-14.4474
crianças	-14.4493
divers	-14.4496
crev	-14.4496
tradi	-14.4516
necessári	-14.4521
ibil	-14.4532
feitura	-14.4548
Just	-14.4555
inic	-14.4559
▁carac	-14.4562
Fer	-14.4565
recomenda	-14.4581
emoc	-14.459
maioria	-14.4599
hece	-14.4604
america	-14.4611
ibunal	-14.4622
execução	-14.4622
onsegui	-14.4645
tativ	-14.4654
gis	-14.4658
ntrol	-14.4664
nteresse	-14.4674
fevereiro	-14.4676
ssore	-14.4681
moder	-14.469
ntã	-14.4695
nistério	-14.4697
trad	-14.4708
Ins	-14.472
reconhece	-14.4739
arce	-14.474
recomend	-14.476
tendi	-14.4777
artista	-14.4779
sere	-14.4805
assunto	-14.482
mples	-14.4824
presentada	-14.4825
▁fundam	-14.4827
associa	-14.4836
economi	-14.4843
▁relac	-14.4848
ntrar	-14.4852
acompanh	-14.4856
entativa	-14.4864
guns	-14.4866
sociação	-14.4869
Conse	-14.4878
trabalha	-14.4884
diferencia	-14.4896
devem	-14.4899
países	-14.4903
hadores	-14.4907
portun	-14.4914
trução	-14.4914
recon	-14.4917
prox	-14.4919
ontato	-14.4919
squisa	-14.492
stabelec	-14.4937
nag	-14.494
duca	-14.4941
idera	-14.4942
nvolver	-14.4943
comi	-14.4957
▁acor	-14.4985
investimentos	-14.4985
industri	-14.4996
levad	-14.5001
▁Depoi	-14.5002
trutura	-14.5006
▁discus	-14.5007
egur	-14.5007
stive	-14.5035
chegou	-14.5037
Jan	-14.5039
cami	-14.5066
atam	-14.5068
kkkkkkkkkkkkk	-14.5074
▁científi	-14.5075
agam	-14.5075
reserv	-14.5083
recebi	-14.5085
ecreta	-14.5098
nhecido	-14.51
oferece	-14.5114
objetivo	-14.5117
iferentes	-14.5135
mpresári	-14.5143
▁prefeitur	-14.5145
potenci	-14.5149
ensino	-14.515
▁Secreta	-14.5156
bastante	-14.5157
ples	-14.5157
pírit	-14.5159
documentos	-14.5164
▁depu	-14.5174
implanta	-14.5174
eleci	-14.5179
alad	-14.5182
ermit	-14.5182
anter	-14.5187
▁iniciativ	-14.5196
rofiss	-14.522
relaciona	-14.5224
▁situaç	-14.5244
compost	-14.5251
▁portug	-14.5259
ionalidade	-14.5261
dequa	-14.5267
relacionamento	-14.5275
essá	-14.5279
acte	-14.5295
viço	-14.5297
intern	-14.5299
▁doming	-14.5307
elabora	-14.5308
▁professo	-14.5311
Militar	-14.5325
sla	-14.5329
ompreende	-14.535
▁Depo	-14.5353
origina	-14.5357
▁Prefei	-14.5366
ssá	-14.537
prefer	-14.5371
compreend	-14.5372
ropos	-14.5379
derado	-14.5382
serão	-14.5388
some	-14.5391
analisa	-14.5397
utori	-14.5401
ermiti	-14.5407
processos	-14.5411
próxima	-14.5425
aspecto	-14.5436
tificaç	-14.5437
aces	-14.5466
criança	-14.5466
eforma	-14.5469
mportantes	-14.5481
bser	-14.5487
dezembro	-14.5499
rgani	-14.5506
servidores	-14.5507
eitoral	-14.5531
outubro	-14.5532
elet	-14.5533
direção	-14.5543
utoriz	-14.5548
policia	-14.5553
reuni	-14.5555
omento	-14.5567
minh	-14.557
contrad	-14.5574
conquist	-14.5576
difícil	-14.5592
roxi	-14.5595
totalmente	-14.5599
dame	-14.5605
▁contrib	-14.5606
▁func	-14.5608
ógi	-14.5636
produt	-14.5638
foss	-14.5639
encontrad	-14.5639
▁interpre	-14.5645
diver	-14.5652
imprensa	-14.5654
▁america	-14.5662
dispositivo	-14.5667
event	-14.5668
orrespond	-14.5681
istê	-14.5685
experiment	-14.5686
▁jurídi	-14.5688
rmit	-14.5692
Carl	-14.5693
▁transpo	-14.5695
ansporte	-14.5716
camin	-14.572
revela	-14.5727
▁ocu	-14.5728
compo	-14.5734
didat	-14.574
previs	-14.5742
interna	-14.5742
confe	-14.5743
pecialista	-14.5748
afirmo	-14.575
stament	-14.5754
propos	-14.5772
tabil	-14.5773
vament	-14.578
▁fís	-14.5784
filh	-14.5786
▁esq	-14.5791
internacional	-14.5792
xplic	-14.5802
strutur	-14.5811
▁informaç	-14.5821
pecia	-14.5828
▁diferenc	-14.5834
disso	-14.5837
odu	-14.5843
algum	-14.5845
apoio	-14.586
▁trê	-14.5864
orç	-14.5868
deral	-14.5882
rvido	-14.5882
ropri	-14.5887
mprega	-14.5893
assad	-14.5894
joga	-14.5915
iq	-14.5924
obl	-14.5924
simplesmente	-14.593
ecret	-14.5932
entad	-14.5934
epara	-14.5938
ificaç	-14.5952
elat	-14.5955
çõ	-14.5955
▁níve	-14.5957
ssocia	-14.5961
importa	-14.5977
obri	-14.5978
nser	-14.5993
nifest	-14.5997
alidad	-14.6001
fisca	-14.602
tabe	-14.6022
potencial	-14.6041
▁comunicaç	-14.6045
tivam	-14.6047
fessor	-14.6055
sido	-14.6064
cume	-14.6075
ealiza	-14.6087
▁conquis	-14.6098
expo	-14.6099
sponde	-14.6107
undam	-14.6115
comportamento	-14.6117
iativa	-14.6144
podemos	-14.6166
strumento	-14.6179
rutu	-14.618
lacio	-14.6189
vezes	-14.6191
Sant	-14.6205
possi	-14.621
caus	-14.6215
tradicional	-14.6222
omputa	-14.6248
▁carreir	-14.625
ncipa	-14.6275
▁tecnolog	-14.6281
▁diferen	-14.6301
▁comemo	-14.6303
fundamental	-14.6306
continuar	-14.6307
ranç	-14.631
reten	-14.6321
nhum	-14.6337
class	-14.6352
▁comem	-14.636
mili	-14.6363
líti	-14.6366
ivida	-14.6367
caracteriz	-14.6371
kkkkkkkkkkk	-14.6373
alternativa	-14.6377
ensin	-14.6379
▁proces	-14.6384
edid	-14.6391
julga	-14.6399
mode	-14.6406
recupera	-14.6408
presentante	-14.6411
rsos	-14.6419
corresponde	-14.643
pesquisador	-14.6431
ecessário	-14.6451
acie	-14.6458
▁deveri	-14.6475
divulga	-14.6478
investiga	-14.6498
Tribu	-14.6514
exclusiv	-14.6517
reduzi	-14.6518
documento	-14.6536
tame	-14.6537
bien	-14.6538
localizad	-14.6541
▁demonst	-14.655
preocup	-14.6599
jul	-14.6603
Fra	-14.6629
transform	-14.664
administra	-14.6651
meri	-14.6666
rticipação	-14.6667
autoridade	-14.6695
bene	-14.67
fut	-14.6705
presen	-14.6711
nvers	-14.6712
míl	-14.6756
personage	-14.6758
ntação	-14.6763
essencia	-14.6769
coletiv	-14.6781
gist	-14.6785
disponibili	-14.6796
osi	-14.6812
volvi	-14.6816
xp	-14.6818
ntern	-14.6818
equipe	-14.6819
ciden	-14.682
hamado	-14.6821
Minist	-14.6839
resultado	-14.684
espo	-14.686
ivam	-14.6876
melhores	-14.689
Universi	-14.6901
ômic	-14.6908
▁dema	-14.6921
ueir	-14.6925
profiss	-14.6932
mbie	-14.6943
istra	-14.6949
interessa	-14.695
▁ope	-14.695
nside	-14.6952
Deu	-14.6957
xce	-14.6964
interesses	-14.6968
ileiro	-14.6988
ejamento	-14.7001
▁avaliaç	-14.7036
teressante	-14.704
ucion	-14.7047
comportament	-14.7048
omportament	-14.7049
tarde	-14.706
▁campanh	-14.7062
persona	-14.7064
veículos	-14.708
iant	-14.7082
stiç	-14.7113
gaç	-14.7114
quali	-14.7127
▁classifi	-14.7133
feir	-14.7135
particip	-14.7147
ealizada	-14.7147
▁interes	-14.7151
tratégi	-14.7163
▁aq	-14.7171
depend	-14.7174
publi	-14.7175
implant	-14.7186
década	-14.7188
econom	-14.719
eputa	-14.7192
esiden	-14.7213
▁presi	-14.7224
manifest	-14.724
sage	-14.7256
contr	-14.7271
▁campan	-14.7278
person	-14.7286
transport	-14.7303
reconhecimento	-14.7318
Const	-14.7325
▁sid	-14.7334
ísti	-14.7373
resol	-14.7373
usiv	-14.7375
lacionamento	-14.7376
esponsáveis	-14.7379
positi	-14.7385
roporcion	-14.7408
def	-14.7411
envolve	-14.7422
tegr	-14.7443
ecisa	-14.7448
inclu	-14.745
▁específi	-14.7467
nand	-14.7483
ntribui	-14.7501
reocup	-14.7509
▁concent	-14.7516
oportunidade	-14.7531
Pública	-14.7538
homen	-14.7544
nheci	-14.755
sofre	-14.755
munic	-14.7554
tabili	-14.7562
onários	-14.7565
leir	-14.7573
mpra	-14.7581
ornec	-14.7583
dividua	-14.7595
minutos	-14.7608
popul	-14.7611
recebe	-14.7617
pren	-14.7633
kkkkkkkkkkkk	-14.7645
▁pacien	-14.7645
amer	-14.7655
carreira	-14.767
▁aj	-14.7683
ssina	-14.7686
▁Naci	-14.769
volvimento	-14.7694
ocad	-14.7695
isponibil	-14.7702
ribuição	-14.7703
liment	-14.7742
▁quatr	-14.7742
ratica	-14.7743
nv	-14.7746
vária	-14.7751
▁defes	-14.7752
▁futu	-14.7752
demo	-14.7753
▁ensi	-14.7753
reado	-14.7761
▁traba	-14.7782
stér	-14.7784
▁Presiden	-14.7787
aconteceu	-14.7788
uanto	-14.7795
libe	-14.7809
ntri	-14.7815
trevi	-14.7817
jove	-14.7844
eceb	-14.7844
sive	-14.7845
labo	-14.7849
desenvolviment	-14.7856
Unidos	-14.7858
esenvolver	-14.787
ofici	-14.787
iliz	-14.7885
maiores	-14.7892
planejamento	-14.7892
ded	-14.7911
ncon	-14.7918
▁resul	-14.7951
nifes	-14.7956
tuições	-14.7961
benefícios	-14.7966
iníc	-14.7982
lusi	-14.7993
idei	-14.7995
cutivo	-14.8003
▁sis	-14.804
Internacional	-14.8042
mingo	-14.8043
execu	-14.8044
utura	-14.8048
indivíduo	-14.8069
▁perma	-14.8083
colabora	-14.8102
respons	-14.8116
quanti	-14.8119
vernador	-14.8119
erifica	-14.8129
etermin	-14.8134
titucional	-14.814
perm	-14.8145
jorn	-14.8146
omeç	-14.8174
decid	-14.8177
nterpret	-14.8178
ntifica	-14.8181
cnica	-14.8182
anterior	-14.8187
ociedad	-14.8188
nsiderado	-14.8195
permite	-14.82
entido	-14.8226
eceber	-14.8231
nscriç	-14.8239
fend	-14.8242
uições	-14.8252
▁referênci	-14.8254
omemora	-14.8257
tecno	-14.8263
▁lem	-14.827
seguran	-14.828
úde	-14.8284
tere	-14.8286
ependente	-14.8289
▁peque	-14.8306
esist	-14.8318
susp	-14.8318
icita	-14.8322
▁procedi	-14.8324
onômi	-14.8342
esident	-14.8356
cumpr	-14.8356
ipar	-14.8357
organizações	-14.8379
meçou	-14.8381
denti	-14.8384
várias	-14.8385
esce	-14.8388
porqu	-14.8423
▁enfren	-14.8423
estrangeir	-14.8433
elacionado	-14.8433
esidente	-14.8439
estratégi	-14.8444
▁Associaç	-14.8456
caliza	-14.8462
sável	-14.8464
▁info	-14.8474
▁anális	-14.8486
Bras	-14.8502
ultados	-14.8503
env	-14.8505
Campeonato	-14.8517
▁aumen	-14.8523
rrent	-14.8527
▁atuali	-14.8543
participa	-14.8548
rcad	-14.8552
realiz	-14.8552
especia	-14.8554
computa	-14.8574
mentá	-14.8578
vereiro	-14.858
nvolve	-14.8582
ocor	-14.8598
rtun	-14.8603
realizar	-14.8606
erat	-14.8615
itand	-14.862
distri	-14.8668
estudante	-14.8685
parce	-14.8705
icad	-14.8706
ntad	-14.8708
tamo	-14.8724
ciment	-14.8731
planeja	-14.8733
Dep	-14.8758
quas	-14.876
▁realizaç	-14.8773
resi	-14.8785
ealmente	-14.8794
niver	-14.8794
amenta	-14.8802
ajudar	-14.8812
gamen	-14.8814
séri	-14.8819
ivad	-14.8825
mpanh	-14.8826
efo	-14.888
mudanças	-14.8883
íve	-14.8886
adic	-14.8887
decidi	-14.8887
comple	-14.8908
rticipa	-14.8915
cust	-14.8918
demanda	-14.8919
mpr	-14.8921
▁profissiona	-14.893
nent	-14.8933
omun	-14.8935
resultados	-14.8936
origin	-14.8938
ompan	-14.8941
poderá	-14.8952
Jos	-14.8963
▁Dilm	-14.8979
pergunt	-14.8992
▁famil	-14.8994
reform	-14.903
instituição	-14.9032
alternativ	-14.904
esul	-14.9041
ssoas	-14.9042
ostu	-14.9051
escol	-14.9052
evoluç	-14.9054
egula	-14.9069
rvidor	-14.9076
▁coman	-14.9081
imei	-14.9085
pratic	-14.9102
elaciona	-14.912
▁Gov	-14.9128
cutiv	-14.9139
▁pagament	-14.9147
novamente	-14.9147
▁Nac	-14.9153
ituaç	-14.9166
▁instr	-14.9178
const	-14.9185
fiss	-14.9212
presiden	-14.922
treina	-14.9227
treinamento	-14.923
▁algun	-14.925
eleitor	-14.9263
nali	-14.9268
ntrato	-14.9276
ofissional	-14.9277
autoriz	-14.9277
rênci	-14.9286
rafi	-14.9306
liciais	-14.9316
públicos	-14.9325
ioná	-14.9326
▁preocu	-14.9329
encaminha	-14.9343
pacientes	-14.9344
▁míni	-14.9346
participante	-14.9368
ibili	-14.9377
demonstr	-14.9383
utilizad	-14.9394
iciativa	-14.9398
estabeleci	-14.9404
apó	-14.9408
perior	-14.942
pecto	-14.9421
jog	-14.9422
▁correspon	-14.943
▁Trab	-14.9432
abalhadores	-14.9443
▁nad	-14.9446
▁seto	-14.9449
▁apren	-14.9454
▁termi	-14.9455
▁nun	-14.9456
refe	-14.9471
tinu	-14.9474
inicial	-14.9481
aracterística	-14.9484
específico	-14.9484
▁popu	-14.9521
aproxim	-14.9525
▁apen	-14.9526
gênci	-14.9537
animais	-14.9553
▁Nã	-14.9556
Municipal	-14.9566
rtanto	-14.9568
companhia	-14.9575
pectiva	-14.9587
▁quat	-14.9596
inscri	-14.9612
legislação	-14.9615
▁Munic	-14.9615
onfirma	-14.9639
aborda	-14.9644
secret	-14.9652
tabelece	-14.9675
ítul	-14.969
ovad	-14.9691
Fed	-14.9692
isponibiliz	-14.9698
opr	-14.9711
▁joven	-14.9734
stribuição	-14.9739
sumidor	-14.9745
ticular	-14.9751
nstala	-14.9751
uçã	-14.977
relativ	-14.9772
aiores	-14.9788
Inte	-14.9835
Estadual	-14.9846
úsic	-14.9858
recu	-14.9863
efet	-14.9868
Justi	-14.9887
ultur	-14.9894
estuda	-14.9895
▁parceri	-14.991
dispos	-14.9917
objetiv	-14.9918
onômic	-14.9936
staca	-14.9937
nçamento	-14.9939
rrente	-14.9949
rnad	-14.9959
fav	-14.9964
sentação	-14.9965
aracter	-14.9991
entida	-14.9992
▁recomen	-15.0001
eciso	-15.0004
▁noit	-15.002
pecializad	-15.002
recebeu	-15.0023
simpl	-15.0038
Inst	-15.0038
▁recome	-15.0041
onseguiu	-15.0046
faze	-15.005
▁desempen	-15.0063
mpetência	-15.0083
mpost	-15.0086
Congresso	-15.0117
ilei	-15.0135
passag	-15.0145
▁temo	-15.0157
alguma	-15.0164
conjunt	-15.0177
stéri	-15.0197
obje	-15.0204
▁Brasíli	-15.0214
Secret	-15.0215
especi	-15.0227
apac	-15.0229
compl	-15.0247
acontec	-15.0252
elemento	-15.0254
pratica	-15.0255
seto	-15.0261
xpli	-15.0265
simp	-15.0266
▁escre	-15.027
▁regis	-15.0277
roxim	-15.0288
ndependent	-15.0294
reunião	-15.0344
tudantes	-15.0346
ssist	-15.0353
oble	-15.0368
procedimento	-15.0369
destaque	-15.0375
nsum	-15.0377
exc	-15.0389
míli	-15.0396
prog	-15.0398
instru	-15.0407
erf	-15.0411
relacionam	-15.0412
sofr	-15.0414
necessidades	-15.0416
▁benef	-15.0417
tev	-15.043
discuss	-15.0431
onf	-15.0436
dênci	-15.0443
inhei	-15.0454
▁Univer	-15.0455
oit	-15.0456
consegui	-15.046
compara	-15.0462
Constitui	-15.0467
spíri	-15.0474
seguin	-15.0479
danç	-15.0508
Mini	-15.051
projet	-15.0514
balha	-15.0514
pref	-15.0524
território	-15.0534
profi	-15.0551
situ	-15.0554
rali	-15.0556
▁superio	-15.0557
ciativa	-15.056
progr	-15.0562
pesso	-15.0595
oferec	-15.0601
representante	-15.0611
esu	-15.0627
▁noss	-15.0637
renci	-15.064
rticip	-15.0643
Dir	-15.0646
ceir	-15.0661
racterísticas	-15.0666
estabelec	-15.0666
epo	-15.067
andid	-15.0677
característica	-15.0678
resolv	-15.0688
afir	-15.0694
dmin	-15.0714
viços	-15.0731
enef	-15.0731
cuid	-15.0743
▁vitóri	-15.075
estrut	-15.0756
mentad	-15.078
▁disponib	-15.0781
otivo	-15.0788
consta	-15.0796
tratégia	-15.0797
legisla	-15.0798
▁prefei	-15.0816
uart	-15.0816
alimento	-15.0817
respos	-15.0817
▁próp	-15.0817
Intern	-15.0818
▁administ	-15.0824
confir	-15.0831
vestig	-15.0834
deco	-15.0834
▁apresentaç	-15.0858
mportamento	-15.0869
cober	-15.0882
ompanh	-15.0889
pree	-15.0899
refor	-15.09
realizada	-15.0901
nteg	-15.0903
▁terce	-15.092
gráfi	-15.0939
nteúdo	-15.094
revel	-15.0944
Associa	-15.0957
omeço	-15.096
ncont	-15.097
arlos	-15.0997
futur	-15.1005
uiç	-15.1009
taç	-15.1027
universi	-15.1028
scriç	-15.105
rofund	-15.1057
rtamento	-15.1059
eitora	-15.107
disputa	-15.108
▁depen	-15.1084
equipamentos	-15.1092
fornec	-15.1093
▁Prog	-15.1096
dificuldade	-15.1096
exis	-15.11
pouc	-15.1106
▁energi	-15.1107
onomi	-15.1109
ntrega	-15.1109
participar	-15.1114
resolve	-15.1126
▁legis	-15.1131
itur	-15.1139
hegar	-15.1148
potencia	-15.1175
popu	-15.1197
anunci	-15.1212
município	-15.1227
eleit	-15.1252
uisa	-15.129
ieda	-15.1309
rq	-15.1325
colet	-15.1335
orren	-15.1342
quant	-15.1359
▁suste	-15.1361
promov	-15.1365
▁períod	-15.138
difíc	-15.1382
desenvolvid	-15.1406
rove	-15.1411
familia	-15.1424
artam	-15.1428
identific	-15.1465
cuidad	-15.1471
omove	-15.1473
inistr	-15.1487
emprega	-15.149
nternacionais	-15.1509
ribuna	-15.1523
ntante	-15.1551
desempenho	-15.1551
atende	-15.156
lvido	-15.1566
seguinte	-15.1574
ficie	-15.1611
peran	-15.1613
personali	-15.1637
nstr	-15.1646
busc	-15.1652
ajud	-15.1653
inutos	-15.1676
▁possib	-15.1683
comer	-15.1692
pequen	-15.1701
Conselh	-15.1704
ribun	-15.1709
águ	-15.1722
exclusiva	-15.1723
egunda	-15.1743
criad	-15.176
parc	-15.1762
aliment	-15.1766
rutura	-15.1776
oletiv	-15.1786
diversos	-15.1807
compro	-15.1813
Legislativ	-15.1824
eguinte	-15.1827
enden	-15.1833
president	-15.1838
terc	-15.1842
mundial	-15.1871
rofess	-15.1886
alterna	-15.1889
seman	-15.1897
astante	-15.1906
onôm	-15.192
melhora	-15.1924
▁enfre	-15.1929
confirm	-15.1945
personagens	-15.1945
asilei	-15.1952
cnico	-15.1957
nstante	-15.1962
ediç	-15.197
represent	-15.2003
iret	-15.2013
program	-15.2013
▁deba	-15.2014
conti	-15.2026
▁caracte	-15.2029
destinad	-15.203
procedimentos	-15.2039
dustria	-15.2051
▁públic	-15.2054
▁nacion	-15.2059
▁pesquisad	-15.2065
▁brasi	-15.2068
nifi	-15.2085
visit	-15.2094
ferec	-15.2097
dime	-15.2098
garantir	-15.211
ceri	-15.2134
ilita	-15.2176
xerc	-15.2178
trabalhador	-15.22
▁Nacion	-15.2201
ndime	-15.2214
rmações	-15.2235
elacion	-15.2255
unç	-15.2294
verifica	-15.2306
sciplina	-15.2311
▁suficient	-15.233
rnand	-15.2339
municip	-15.2345
egori	-15.2353
oficia	-15.2355
devi	-15.2357
▁principa	-15.2366
▁reu	-15.2377
espons	-15.2382
importantes	-15.2387
questões	-15.2392
especializad	-15.2403
importância	-15.2405
Cent	-15.2412
relatório	-15.2422
Soci	-15.2427
çõe	-15.2427
pamentos	-15.2436
encaminh	-15.2438
anceira	-15.2462
nceito	-15.2463
urant	-15.2465
priment	-15.2476
máti	-15.2482
spita	-15.2485
tegoria	-15.2508
oe	-15.251
Portug	-15.2512
ogad	-15.2516
lanej	-15.2521
▁participaç	-15.2525
icativo	-15.2563
mpro	-15.2571
incl	-15.2573
veículo	-15.2586
íses	-15.259
administr	-15.2598
▁Insti	-15.2603
ualidad	-15.261
alist	-15.262
▁doi	-15.2627
▁transfe	-15.2633
▁expr	-15.266
▁individ	-15.2673
mpromisso	-15.2682
policiais	-15.2691
estud	-15.2694
▁contrá	-15.271
▁aprox	-15.2734
precis	-15.2758
lavras	-15.2759
▁Púb	-15.2776
tenç	-15.2779
trabalhos	-15.2783
problem	-15.2787
▁iss	-15.2789
▁especiali	-15.2798
lacionado	-15.282
sust	-15.2822
comemora	-15.2824
conômic	-15.2826
rese	-15.2855
Educ	-15.2861
Institut	-15.2862
representantes	-15.2876
ecretar	-15.2877
laciona	-15.2896
estac	-15.2924
compreende	-15.2933
comercia	-15.294
individu	-15.2952
gumas	-15.2971
artid	-15.2971
ecor	-15.2975
completamente	-15.2989
desti	-15.299
autoridades	-15.3003
comen	-15.3015
unicípio	-15.302
pess	-15.3039
rsão	-15.3051
pesquisadores	-15.3059
miliar	-15.3069
transf	-15.3114
atingi	-15.3124
▁elabo	-15.3128
apli	-15.313
conseguir	-15.3133
egist	-15.3141
ssoal	-15.3142
perso	-15.3143
feren	-15.3166
▁administraç	-15.3171
▁responsab	-15.3195
rceria	-15.32
matéri	-15.3214
exerc	-15.3219
fosse	-15.3235
Janeiro	-15.3255
sté	-15.3273
mpeti	-15.3274
perma	-15.3275
deverá	-15.3293
egisl	-15.3295
eguir	-15.3297
▁univer	-15.3307
▁divul	-15.332
resident	-15.3328
nstal	-15.3335
eten	-15.3341
▁sociedad	-15.3359
comemor	-15.3412
▁perg	-15.345
nistro	-15.3457
scola	-15.3476
pub	-15.3494
colabor	-15.3498
efere	-15.3507
ernad	-15.3526
amentar	-15.3531
▁Prefe	-15.3542
moviment	-15.3545
atrav	-15.3546
rimei	-15.3547
ormat	-15.356
priv	-15.3591
epresent	-15.3602
rticipar	-15.3603
divulg	-15.3604
ecre	-15.3604
eonato	-15.3625
▁particul	-15.3625
▁enq	-15.3626
permi	-15.3628
diversas	-15.3645
rédi	-15.3647
Administra	-15.3689
▁identif	-15.3703
stribui	-15.3708
▁respo	-15.3713
▁posiç	-15.3724
imeir	-15.3732
uncionário	-15.3743
iversa	-15.375
uncio	-15.3752
oblema	-15.3759
ndustr	-15.377
▁Saúd	-15.3775
esid	-15.3776
▁locali	-15.3788
▁suces	-15.3806
▁lançament	-15.3821
istóri	-15.3824
resid	-15.3853
dese	-15.3858
analis	-15.3863
dificuldades	-15.3866
ediment	-15.3902
endent	-15.3915
empr	-15.3916
licação	-15.3918
▁teri	-15.392
registr	-15.3923
financeir	-15.3946
strib	-15.3952
rofis	-15.3974
responsabil	-15.398
ecess	-15.3985
ibuna	-15.3989
odução	-15.3993
aúde	-15.4004
erdad	-15.4046
extr	-15.4054
principais	-15.4068
significativ	-15.4073
▁práti	-15.4077
rári	-15.4081
lq	-15.4082
▁comba	-15.4091
▁Congres	-15.4091
Gran	-15.4104
socia	-15.4124
dess	-15.4127
onam	-15.414
direi	-15.415
mputador	-15.4152
rnalis	-15.4195
erminado	-15.4213
▁territóri	-15.4214
▁nenhu	-15.4214
andidat	-15.4219
term	-15.4222
atóri	-15.4224
▁músi	-15.4233
registra	-15.4237
fíc	-15.4239
tabelecimento	-15.4242
efeitu	-15.4245
funcionári	-15.4261
governado	-15.427
rnac	-15.4274
ontribu	-15.4275
prá	-15.4276
Estad	-15.4292
sibi	-15.4297
dependent	-15.4298
compartilha	-15.4306
njun	-15.4315
istent	-15.4337
ssibili	-15.4341
pond	-15.4355
uzir	-15.4358
nhu	-15.437
astan	-15.4376
Univ	-15.4382
també	-15.4409
▁inic	-15.4424
consul	-15.4426
milita	-15.4434
enári	-15.4435
inistéri	-15.447
icípio	-15.4472
traba	-15.449
▁equipam	-15.4503
nsporte	-15.451
eleitora	-15.4546
▁relati	-15.4572
meric	-15.4579
nhecida	-15.4581
itár	-15.4591
registrad	-15.4597
▁trabal	-15.4606
realiza	-15.461
candi	-15.4619
solicita	-15.4625
Institu	-15.4626
minuto	-15.4645
apr	-15.4648
enfrenta	-15.4655
trab	-15.4661
presentan	-15.4662
▁materi	-15.4694
opula	-15.4695
onseguir	-15.4697
onár	-15.4698
isput	-15.4741
▁també	-15.4755
nstituciona	-15.4757
▁maiori	-15.4762
cno	-15.477
sident	-15.4784
administrativ	-15.4788
admin	-15.4793
situações	-15.4794
solicit	-15.4817
▁admin	-15.4848
nacio	-15.4869
estadu	-15.4879
ompreend	-15.4881
estudantes	-15.4883
estime	-15.4885
destaca	-15.4899
▁trab	-15.4901
▁publicaç	-15.4909
roduç	-15.4945
calizad	-15.495
utili	-15.4954
expectativa	-15.4957
▁ambien	-15.496
ecorre	-15.4965
lemen	-15.4973
nteressad	-15.4978
fess	-15.4984
coordena	-15.4996
ratégi	-15.5006
correspond	-15.5019
capac	-15.502
exempl	-15.5028
acident	-15.5054
fissional	-15.5083
ssíve	-15.5089
▁imprens	-15.5095
import	-15.5107
defe	-15.5117
▁consu	-15.5117
radiciona	-15.5126
comprom	-15.5138
consum	-15.5139
iderado	-15.5146
moti	-15.5146
refer	-15.5187
▁gov	-15.5191
spond	-15.5197
nsid	-15.5199
necessi	-15.5205
descob	-15.5206
músic	-15.5219
localiza	-15.5223
ancei	-15.5239
consi	-15.524
pesquis	-15.5243
ecom	-15.5253
inclus	-15.5263
teci	-15.5271
contribu	-15.5278
ecnologi	-15.5282
combat	-15.5296
publicad	-15.5302
rtad	-15.5311
tinua	-15.5339
ncontrad	-15.5345
istéri	-15.5349
tânci	-15.5356
nclus	-15.5364
▁transfo	-15.5381
terpreta	-15.5396
esen	-15.5404
▁Sã	-15.5412
rmina	-15.5413
natur	-15.543
esponsabil	-15.5453
▁encon	-15.5461
orcion	-15.5489
firmo	-15.5491
instituições	-15.5507
econhecimento	-15.5509
▁consti	-15.553
▁reconh	-15.5535
estudos	-15.5549
ucess	-15.5556
scol	-15.5576
Jane	-15.5587
contecer	-15.5622
ológi	-15.5627
▁iní	-15.5643
▁polític	-15.5662
estive	-15.5663
insta	-15.5666
▁vária	-15.569
▁Traba	-15.5707
▁Departament	-15.571
noi	-15.5714
vestigaç	-15.572
Brasileir	-15.5735
ofessores	-15.5735
▁simple	-15.5736
sér	-15.5736
palme	-15.5739
onfir	-15.5741
specialist	-15.5745
conve	-15.5748
cni	-15.575
empreg	-15.5762
tituições	-15.5765
âmar	-15.5777
ssante	-15.5799
▁coraç	-15.5803
anceiro	-15.5821
erific	-15.5835
contrário	-15.5871
aração	-15.5877
rogramas	-15.5887
ifest	-15.5898
responsa	-15.59
presário	-15.5903
nism	-15.5913
superi	-15.5923
▁extre	-15.5934
resentes	-15.5943
▁poi	-15.5948
resen	-15.5969
alqu	-15.5984
ongress	-15.6011
alizad	-15.6036
retá	-15.6079
ecnolog	-15.6082
stabeleci	-15.6088
empresári	-15.609
▁cid	-15.6092
▁dad	-15.6101
cterí	-15.6104
otencia	-15.6115
quena	-15.6127
▁sej	-15.6136
olabora	-15.6145
desenvolve	-15.6157
ssun	-15.6159
rande	-15.6171
▁valo	-15.6179
▁aciden	-15.6189
ferênci	-15.6196
institui	-15.6217
associ	-15.625
▁funci	-15.6262
▁cida	-15.6297
comentários	-15.6299
méd	-15.6306
▁educaç	-15.631
▁coma	-15.631
incípio	-15.6324
coordenad	-15.6329
▁nunc	-15.6364
ecur	-15.6376
oloc	-15.6384
investig	-15.6395
ealização	-15.6402
robl	-15.6403
arad	-15.6451
apre	-15.6462
onhec	-15.65
sq	-15.65
noit	-15.6501
equênci	-15.6501
rescent	-15.6502
comu	-15.6508
rincípi	-15.6515
strument	-15.6532
rceir	-15.6535
ireta	-15.6544
compan	-15.6549
ofissionais	-15.6549
ferent	-15.6556
exper	-15.6557
receb	-15.6566
dispo	-15.6594
pria	-15.6602
cípio	-15.6625
ireto	-15.6645
uand	-15.6659
esej	-15.6662
ramen	-15.6673
bui	-15.6676
comentário	-15.6681
▁famíl	-15.6682
uficiente	-15.669
ogador	-15.6693
avr	-15.6694
▁represe	-15.671
soluç	-15.6716
tivera	-15.6752
vidad	-15.6753
cipalmente	-15.6754
certez	-15.6773
onfirm	-15.6783
▁bastan	-15.6786
▁direç	-15.6787
fede	-15.6792
ecessária	-15.6797
inanceir	-15.6819
iaç	-15.6831
▁questio	-15.6832
pesq	-15.6833
interes	-15.6838
ativi	-15.6847
iferenci	-15.6847
hamad	-15.6857
ateg	-15.6858
ndições	-15.6895
sobr	-15.6899
▁indiv	-15.6901
impres	-15.6916
uidad	-15.6922
cnic	-15.6924
ntament	-15.694
ituição	-15.6944
gori	-15.6978
equa	-15.6985
siden	-15.7021
Tribuna	-15.7031
epresentan	-15.704
▁Secretar	-15.7045
expos	-15.7053
▁verdad	-15.7079
efend	-15.7086
municípios	-15.7089
▁agor	-15.71
Mun	-15.7105
mús	-15.7105
integ	-15.7108
onári	-15.7156
dequad	-15.7156
últimos	-15.7159
permane	-15.7164
ecim	-15.7164
prod	-15.7168
nteressa	-15.7181
▁daque	-15.7186
esponsabili	-15.7197
ospit	-15.7215
ae	-15.722
nsp	-15.7227
riên	-15.7234
Francis	-15.724
regist	-15.724
lism	-15.7256
mpri	-15.7264
ifíc	-15.7281
▁difi	-15.7282
ológ	-15.7284
conseguiu	-15.7304
Comiss	-15.7309
aum	-15.7327
escent	-15.7372
▁mulhere	-15.7374
▁consc	-15.7383
▁client	-15.7406
crimi	-15.7419
imag	-15.742
respond	-15.7455
etari	-15.7474
issional	-15.7484
▁noi	-15.7492
acontecer	-15.7498
tradiciona	-15.7508
latóri	-15.7508
çament	-15.7515
oderi	-15.7525
ferença	-15.7525
func	-15.7529
inár	-15.7531
Universidad	-15.7536
indicad	-15.7556
garant	-15.7562
elacionad	-15.758
relacionad	-15.7585
▁pequ	-15.7594
tribuiç	-15.7606
tudant	-15.7634
possíve	-15.7641
coordenado	-15.7642
unos	-15.7645
consegue	-15.7659
▁transfor	-15.7673
suste	-15.7684
▁Públi	-15.7696
ticula	-15.7714
trumento	-15.7728
▁governad	-15.7729
ecorr	-15.7741
iretamente	-15.7744
Direit	-15.7752
euni	-15.7753
tot	-15.776
caliz	-15.7788
resulta	-15.7801
relig	-15.7822
elabor	-15.7857
▁ediç	-15.7868
nquis	-15.7869
mportant	-15.7904
▁estrutu	-15.7919
universidade	-15.792
nanceiro	-15.7922
iai	-15.7926
retaria	-15.7948
cui	-15.7951
omemor	-15.7966
omend	-15.797
etamente	-15.7973
ocur	-15.8013
itui	-15.8021
segund	-15.803
adv	-15.8031
ompreen	-15.8035
istração	-15.8036
exte	-15.8072
istemas	-15.8073
erfe	-15.8084
▁independen	-15.8089
interess	-15.8096
nvolv	-15.8097
▁expre	-15.8098
Cen	-15.8116
▁elet	-15.8125
reso	-15.8154
▁Cultu	-15.817
nçõe	-15.8174
ndependen	-15.8179
contribuiç	-15.8202
ampanh	-15.8236
nquist	-15.8247
ntrat	-15.8253
▁estã	-15.8256
▁comentá	-15.8265
▁atravé	-15.8286
uadr	-15.8346
rament	-15.8369
▁deput	-15.8384
▁gove	-15.841
urídi	-15.8412
itó	-15.8415
orig	-15.8416
tiç	-15.844
roblem	-15.8445
stabele	-15.8446
omu	-15.8452
fundamenta	-15.8475
onfor	-15.8513
mplet	-15.8516
leme	-15.8529
▁quand	-15.853
▁estav	-15.8533
ratégia	-15.8535
termi	-15.8591
udantes	-15.8607
atuação	-15.8608
▁estabel	-15.8625
quan	-15.8628
ernado	-15.8692
caracter	-15.8696
balhadores	-15.8697
rtante	-15.8717
coment	-15.874
entan	-15.8743
alism	-15.8764
cionár	-15.8767
soa	-15.8787
▁publ	-15.8788
ignificativ	-15.8788
residênci	-15.8793
portamento	-15.8807
oblemas	-15.8834
▁gover	-15.8841
onform	-15.8842
diferent	-15.8844
struç	-15.8846
▁internaciona	-15.8855
contec	-15.8865
quint	-15.8914
▁Direi	-15.8918
ecessi	-15.8925
orien	-15.8941
▁brasilei	-15.896
siti	-15.8962
ficien	-15.8989
rên	-15.8993
fessores	-15.8994
opu	-15.9002
▁aspect	-15.9008
rsas	-15.9024
meçar	-15.9028
técnic	-15.9028
▁científ	-15.9049
▁momen	-15.9065
nifesta	-15.9076
rasi	-15.908
▁recupe	-15.9085
ranspo	-15.9099
uest	-15.9102
ramenta	-15.9118
polici	-15.9121
aument	-15.9125
squis	-15.9127
▁relacio	-15.9127
empe	-15.9133
rdenado	-15.9141
contrar	-15.9144
▁brasile	-15.9151
▁caracterís	-15.9159
Muni	-15.9168
rópri	-15.9174
pretende	-15.9204
infor	-15.9206
▁famili	-15.9245
memb	-15.9252
eserv	-15.9253
▁tã	-15.9285
internacionais	-15.9296
emai	-15.9296
onai	-15.9308
Soc	-15.9311
trabalhado	-15.9318
ganização	-15.9362
artic	-15.9368
▁regu	-15.9385
onju	-15.9398
egulamen	-15.9398
relacion	-15.9407
sponíve	-15.9423
▁vário	-15.9428
opriedade	-15.9443
▁primei	-15.9452
▁Gover	-15.9466
stac	-15.9469
sitiv	-15.9484
pecializa	-15.9497
mui	-15.9503
impor	-15.951
eside	-15.9523
partame	-15.9533
ticipar	-15.9551
portante	-15.9551
▁políti	-15.9557
perí	-15.9593
▁candi	-15.9617
portug	-15.9632
pecializ	-15.9635
destac	-15.9647
orid	-15.9657
orie	-15.9659
ticu	-15.9662
unicípios	-15.9684
onad	-15.9685
▁manif	-15.9717
eput	-15.9729
▁Alé	-15.9736
respei	-15.9749
nstitui	-15.9773
uraç	-15.979
diferenci	-15.9796
irmo	-15.9798
▁destaqu	-15.9823
lmen	-15.9824
ministr	-15.9835
servad	-15.9859
recente	-15.9859
distr	-15.986
inali	-15.987
onside	-15.9872
gunta	-15.9872
nve	-15.9874
mercia	-15.9882
eterminado	-15.9895
pecífic	-15.9907
formad	-15.9909
ressan	-15.9924
uperi	-15.9927
repre	-15.9951
▁finance	-15.9952
▁disponí	-15.9959
▁dinhe	-15.9973
▁constan	-15.9982
ressi	-15.9993
ípio	-16.0029
disput	-16.003
▁indepen	-16.005
Jus	-16.0059
uista	-16.0069
Program	-16.0078
cump	-16.0078
dicio	-16.0086
nscr	-16.0113
ssui	-16.012
ntato	-16.0141
ndidato	-16.0141
▁próxi	-16.0168
apro	-16.0191
bairr	-16.0208
atame	-16.0214
nanceira	-16.0251
idê	-16.0253
erminad	-16.0258
uspe	-16.0288
▁anteri	-16.0289
orad	-16.0296
terística	-16.0298
nciad	-16.0311
xc	-16.032
eguin	-16.0333
ementa	-16.035
terminad	-16.0379
nejamento	-16.0383
isponibili	-16.0388
popula	-16.0393
fed	-16.043
xistência	-16.0464
ndad	-16.0469
vimen	-16.0483
stên	-16.0504
▁coleti	-16.0532
ocumen	-16.0538
lução	-16.0538
Trib	-16.0547
apl	-16.0547
objet	-16.0551
onst	-16.0551
aume	-16.0572
racte	-16.0574
scolh	-16.06
responsabili	-16.06
tement	-16.0637
palavr	-16.0641
▁vio	-16.0651
ticipação	-16.0677
▁segun	-16.068
▁send	-16.0694
strume	-16.0717
undial	-16.0736
descobr	-16.0743
ridad	-16.075
acredi	-16.0763
identi	-16.0771
▁Améri	-16.0778
princ	-16.0814
retend	-16.0824
egislat	-16.0826
nolo	-16.0843
reitos	-16.0846
▁Desenvolviment	-16.0846
▁funcio	-16.0851
ompra	-16.0891
stit	-16.0904
▁Legislati	-16.0912
planej	-16.093
ormar	-16.0936
itóri	-16.0955
▁realidad	-16.0957
disponibiliza	-16.0959
esolv	-16.0985
lativ	-16.0987
alizaç	-16.1008
materia	-16.101
▁desenv	-16.1019
rojet	-16.1024
riaç	-16.1025
issionais	-16.1026
▁recen	-16.104
sabilidade	-16.1075
nsegui	-16.1093
ortamento	-16.1112
▁característ	-16.1122
peraç	-16.1127
utad	-16.1129
umidor	-16.12
ticip	-16.1202
▁organizaç	-16.1203
▁qualq	-16.1221
egio	-16.123
▁adolescen	-16.1233
isciplin	-16.124
íodo	-16.1244
elacionam	-16.1245
eocupa	-16.1259
dm	-16.1268
recurs	-16.1269
ropr	-16.1273
spons	-16.1279
gion	-16.1289
uipe	-16.1296
▁Pú	-16.1319
nance	-16.132
▁agost	-16.1328
terce	-16.1348
produç	-16.135
soc	-16.1373
▁específ	-16.1403
izaç	-16.1406
ntral	-16.143
onjun	-16.1439
▁Brasilei	-16.145
arec	-16.1453
imeiros	-16.1464
jogado	-16.1493
cializa	-16.1496
rrid	-16.1498
níc	-16.1504
▁progra	-16.1507
ducação	-16.1516
ulist	-16.1526
▁municíp	-16.153
inanc	-16.1537
▁determi	-16.1543
plemen	-16.1602
minut	-16.1608
frent	-16.1608
abilid	-16.1609
nstitucion	-16.1611
ateri	-16.1618
nunc	-16.1627
mom	-16.1637
sucess	-16.1649
cipais	-16.1651
brasileir	-16.1652
▁possív	-16.1671
tament	-16.1692
▁técn	-16.1694
sponsáveis	-16.1695
pretend	-16.1699
açõ	-16.1705
desi	-16.1721
▁experiên	-16.1725
▁afir	-16.1731
▁respos	-16.1743
vidores	-16.1755
milit	-16.1768
desenvolver	-16.1808
▁princi	-16.1811
lacionad	-16.1834
asile	-16.1838
elativ	-16.1865
ciplina	-16.1866
▁prin	-16.1872
aniza	-16.1877
uces	-16.1884
inscriç	-16.1889
▁nature	-16.1896
▁sempr	-16.1922
nefício	-16.1924
coorden	-16.194
▁Presi	-16.1946
ofes	-16.1969
iversi	-16.197
▁dua	-16.1987
daquel	-16.1989
rment	-16.199
sema	-16.1992
cessá	-16.2006
titui	-16.2028
defend	-16.2036
oportunidades	-16.2051
udan	-16.2053
iativ	-16.2068
paç	-16.2074
ocura	-16.2088
omis	-16.2096
portu	-16.2107
heci	-16.2134
ciári	-16.2139
terne	-16.214
onô	-16.2143
rnalist	-16.2148
ciad	-16.2154
mome	-16.2163
municaç	-16.2207
spit	-16.2218
rasília	-16.2226
osé	-16.2233
erenc	-16.2237
rnacion	-16.2238
▁dife	-16.2239
ticipa	-16.2251
cessidade	-16.226
demon	-16.2268
▁quas	-16.2269
acid	-16.2286
núme	-16.2289
President	-16.232
Desenvolvi	-16.2356
▁sema	-16.2378
rocu	-16.24
▁conseg	-16.2408
egion	-16.243
▁obri	-16.2453
▁Comis	-16.2457
gnifi	-16.2462
▁Janeir	-16.2464
onver	-16.2486
▁hoj	-16.2504
senvolvimento	-16.2522
penden	-16.2527
▁perso	-16.2554
anifestaç	-16.2557
táve	-16.2571
ecial	-16.258
suficien	-16.2582
propr	-16.2614
▁aind	-16.2614
▁funcionár	-16.2614
río	-16.2614
nanc	-16.263
apresent	-16.2635
▁propr	-16.2644
posiç	-16.2658
▁animai	-16.2667
pecialist	-16.2672
▁significati	-16.2686
sár	-16.2687
▁consid	-16.2689
omple	-16.2709
▁signif	-16.2709
abelece	-16.2746
▁saú	-16.2748
ompos	-16.2751
udant	-16.2761
susten	-16.2764
onsci	-16.2766
▁veícul	-16.2788
enfrent	-16.279
▁Saú	-16.2811
▁exclusi	-16.282
ompromiss	-16.2832
sentiment	-16.2843
egundo	-16.2862
tituto	-16.2864
[...]
